[PAD]
[UNK]
[CLS]
[SEP]
[MASK]
!
"
#
%
&
'
(
)
*
+
,
-
/
0
1
2
3
4
5
6
7
8
9
:
;
<
=
>
?
A
B
C
D
E
F
G
H
I
J
K
L
M
N
O
P
Q
R
S
T
U
V
W
X
Y
Z
[
\
]
^
_
a
b
c
d
e
f
g
h
i
j
k
l
m
n
o
p
q
r
s
t
u
v
w
x
y
z
{
|
}
~
·
é
–
‘
’
“
”
〈
〉
《
》
「
」
『
』
・
一
三
上
中
事
人
使
元
公
北
南
君
國
地
城
大
天
子
學
安
宗
寺
山
川
州
平
府
成
政
文
新
日
明
書
會
本
李
東
正
氏
法
海
無
王
石
義
行
軍
道
金
長
院
高
가
각
간
갈
감
갑
값
갔
강
갖
같
개
객
거
건
걸
검
겁
것
게
겐
겠
겨
격
겪
견
결
겸
겼
경
계
고
곡
곤
곧
골
곱
곳
공
과
곽
관
괄
광
괴
교
구
국
군
굳
굴
궁
권
궤
귀
규
균
그
극
근
글
금
급
기
긴
길
김
깊
까
깨
꺼
께
꼬
꼭
꽃
꾸
꾼
꿈
뀌
끄
끊
끌
끔
끝
끼
나
낙
난
날
남
납
났
낭
낮
낳
내
낸
낼
냈
냉
냐
냥
너
널
넓
넘
넣
네
넬
넷
녀
년
념
녕
노
녹
논
놀
농
높
놓
뇌
누
눈
뉘
뉴
늄
느
는
늘
능
늦
니
닉
닌
닐
님
닙
닛
닝
다
닥
단
닫
달
담
답
당
대
댄
더
덕
던
덜
덤
덮
데
덴
델
도
독
돈
돌
동
돼
됐
되
된
될
됨
됩
두
둔
둘
둥
뒤
뒷
듀
드
득
든
듣
들
듬
듭
듯
등
디
딘
딩
따
딸
땅
때
떠
떤
떨
떻
또
뛰
뜨
뜻
띄
띠
라
락
란
랄
람
랍
랐
랑
래
랙
랜
램
랫
랭
략
량
러
럭
런
럴
럼
럽
렀
렇
레
렉
렌
려
력
련
렬
렴
렵
렸
령
례
로
록
론
롤
롬
롭
롯
롱
뢰
료
룡
루
룩
룬
룹
뤄
류
륙
륜
률
르
른
를
름
릉
리
릭
린
릴
림
립
릿
링
마
막
만
많
말
맛
망
맞
맡
매
맥
맨
맹
맺
머
먹
먼
멀
메
멕
멘
멜
멤
며
면
멸
명
몇
모
목
몬
몰
몸
못
몽
묘
무
묵
문
묻
물
뮤
므
미
믹
민
믿
밀
밍
및
밑
바
박
밖
반
받
발
밝
밤
밥
방
배
백
밴
뱅
버
번
벌
범
법
벗
베
벡
벤
벨
벼
벽
변
별
병
보
복
본
볼
봄
봅
봇
봉
봐
부
북
분
불
붉
붕
붙
뷔
뷰
브
븐
블
비
빅
빈
빌
빙
빛
빠
빨
빼
뽑
뿌
뿐
사
삭
산
살
삶
삼
상
새
색
샌
생
샤
서
석
선
설
섬
섭
섯
섰
성
세
센
셀
셋
셔
션
셜
셨
셰
소
속
손
솔
송
쇄
쇠
쇼
수
숙
순
술
숨
숫
숭
숲
쉬
쉽
슈
스
슨
슬
슴
습
슷
승
시
식
신
실
심
십
싱
싶
싸
쌍
쌓
써
썼
쓰
쓴
쓸
씀
씨
씩
씬
아
악
안
않
알
암
압
앗
았
앙
앞
애
액
앤
앨
야
약
얀
양
어
억
언
얻
얼
엄
업
없
엇
었
에
엑
엔
엘
여
역
연
열
염
엽
였
영
옆
예
옛
오
옥
온
올
옮
옷
옹
와
완
왔
왕
왜
외
왼
요
욕
용
우
욱
운
울
움
웃
웅
워
원
월
웠
웨
웰
웹
위
윈
윌
유
육
윤
율
융
으
은
을
음
읍
응
의
이
익
인
일
읽
잃
임
입
잇
있
잉
잎
자
작
잔
잘
잠
잡
장
재
잭
쟁
저
적
전
절
젊
점
접
정
제
젝
젠
젤
져
졌
조
족
존
졸
좀
종
좋
좌
죄
죠
주
죽
준
줄
중
쥐
즈
즉
즌
즐
즘
증
지
직
진
질
짐
집
짓
징
짜
짝
짧
째
쪽
쫓
찌
찍
차
착
찬
찰
참
창
찾
채
책
챔
처
척
천
철
첨
첩
첫
청
체
첼
쳐
쳤
초
촉
촌
총
촬
최
추
축
춘
출
춤
충
춰
취
츠
측
층
치
칙
친
칠
침
칭
카
칸
칼
캄
캐
캘
캠
커
컨
컬
컴
컵
컷
케
켄
켈
켓
켜
켰
코
콘
콜
콤
콩
쾌
쿄
쿠
쿨
퀴
큐
크
큰
클
큼
키
킨
킬
킹
타
탁
탄
탈
탐
탑
탕
태
택
탱
터
턴
털
테
텍
텐
텔
템
토
톤
톨
톱
통
퇴
투
튀
튜
트
특
튼
틀
티
틱
틴
틸
팀
팅
파
판
팔
패
팩
팬
팽
퍼
페
펜
펠
펴
편
펼
평
폐
포
폭
폰
폴
폼
표
푸
풀
품
풍
퓨
프
픈
플
피
픽
핀
필
핑
하
학
한
할
함
합
항
해
핵
했
행
향
허
헌
험
헝
헤
헨
헬
혀
혁
현
혈
혐
협
혔
형
혜
호
혹
혼
홀
홈
홍
화
확
환
활
황
회
획
횡
효
후
훈
훼
휘
휴
흐
흑
흔
흘
흡
흥
희
흰
히
힌
힐
힘
##원
##건
##설
##감
##동
##에
##곡
##중
##어
##라
##는
##민
##소
##유
##기
##업
##을
##학
##네
##신
##재
##로
##P
##이
##고
##내
##측
##도
##토
##카
##커
##뮤
##니
##케
##션
##통
##시
##흥
##공
##o
##w
##z
##j
##n
##단
##들
##성
##적
##2
##과
##0
##8
##번
##길
##렌
##지
##운
##티
##서
##스
##펜
##5
##4
##표
##발
##의
##히
##남
##리
##9
##편
##비
##팅
##뷔
##가
##대
##처
##럼
##x
##키
##자
##호
##현
##름
##났
##던
##츠
##누
##7
##1
##은
##력
##범
##위
##를
##짜
##개
##란
##속
##접
##되
##연
##왕
##게
##미
##널
##안
##선
##석
##보
##다
##전
##예
##센
##터
##며
##했
##으
##생
##었
##군
##요
##천
##역
##절
##려
##마
##야
##세
##포
##무
##장
##관
##조
##참
##와
##문
##찬
##회
##러
##그
##림
##아
##료
##여
##걸
##a
##g
##헤
##엄
##제
##음
##랑
##람
##쥐
##님
##부
##법
##코
##일
##률
##구
##행
##물
##체
##취
##합
##산
##휘
##락
##면
##른
##인
##축
##겠
##달
##하
##O
##S
##I
##X
##양
##방
##주
##였
##론
##권
##격
##밀
##3
##환
##골
##얼
##집
##탈
##크
##르
##우
##펠
##i
##b
##l
##s
##m
##해
##놓
##준
##풍
##된
##임
##모
##사
##머
##류
##월
##드
##화
##술
##획
##본
##패
##셜
##트
##간
##근
##나
##거
##t
##h
##까
##약
##맨
##루
##치
##베
##경
##디
##식
##협
##두
##진
##종
##강
##계
##작
##분
##엔
##한
##웰
##애
##E
##F
##y
##겨
##졌
##육
##홍
##답
##젠
##6
##노
##용
##복
##궁
##수
##째
##득
##점
##칭
##딩
##상
##타
##정
##반
##국
##등
##c
##r
##e
##k
##플
##즈
##함
##언
##손
##만
##항
##프
##혐
##오
##쳐
##빈
##립
##차
##년
##교
##버
##Y
##U
##칠
##늄
##책
##영
##삼
##벨
##레
##퓨
##쇄
##d
##염
##잉
##익
##앙
##결
##받
##희
##테
##냐
##심
##출
##덕
##u
##너
##템
##창
##래
##꼬
##슈
##랭
##량
##액
##증
##쿨
##당
##척
##괴
##데
##렉
##릭
##쓰
##입
##실
##튜
##닝
##배
##됨
##망
##황
##각
##칙
##불
##덜
##윤
##확
##열
##멘
##탄
##봉
##록
##병
##총
##악
##습
##돼
##울
##특
##별
##흐
##청
##투
##태
##p
##륜
##곱
##후
##막
##혈
##외
##견
##검
##금
##담
##평
##직
##헨
##폴
##찰
##독
##L
##B
##녀
##묘
##메
##벌
##블
##향
##텔
##충
##목
##벤
##형
##명
##C
##H
##T
##셨
##낙
##몬
##긴
##판
##셔
##념
##든
##멀
##슴
##피
##클
##럽
##페
##온
##압
##았
##암
##A
##급
##최
##바
##랍
##완
##응
##파
##말
##웅
##f
##브
##저
##녕
##옹
##효
##é
##송
##죠
##N
##D
##매
##눈
##룩
##벽
##끌
##톤
##M
##갈
##틴
##v
##웃
##린
##초
##넷
##친
##곤
##G
##령
##훈
##씨
##폭
##켜
##져
##할
##층
##팔
##읍
##험
##색
##살
##맹
##K
##탕
##혹
##슬
##쿠
##핵
##릉
##같
##곳
##추
##십
##롱
##홀
##풀
##됐
##곽
##밖
##놀
##잔
##움
##혼
##능
##링
##좌
##순
##승
##R
##롬
##틱
##먹
##탁
##헬
##택
##캠
##퍼
##써
##렸
##쉬
##둥
##철
##볼
##잡
##더
##빌
##북
##Z
##논
##채
##끼
##활
##컵
##턴
##잇
##뢰
##략
##둘
##광
##돌
##난
##균
##헌
##새
##께
##욕
##억
##쇼
##빠
##잠
##닉
##킨
##꽃
##푸
##퇴
##릴
##잘
##없
##롤
##멤
##쟁
##변
##련
##례
##돈
##극
##및
##Q
##톨
##셰
##징
##품
##큼
##촌
##농
##존
##겐
##글
##박
##붙
##틀
##섭
##숙
##족
##몰
##귀
##켰
##옥
##꾼
##율
##질
##쪽
##줄
##워
##갔
##먼
##춘
##겁
##킹
##될
##렬
##백
##q
##쿄
##닛
##폐
##올
##랐
##랜
##폰
##큐
##콘
##허
##착
##몽
##튀
##날
##뉴
##납
##므
##따
##콤
##딸
##탐
##침
##섬
##팀
##젝
##탑
##봐
##쌍
##윈
##촉
##붕
##객
##굴
##튼
##웨
##펴
##융
##필
##웠
##있
##칸
##셀
##첩
##숭
##규
##팩
##젤
##둔
##갑
##때
##낭
##뤄
##톱
##퀴
##혜
##램
##런
##느
##것
##럴
##앤
##슨
##궤
##싱
##뒤
##닥
##쳤
##팬
##즐
##김
##혀
##낸
##혁
##못
##뱅
##넣
##쉽
##흡
##욱
##딘
##켓
##W
##씀
##듯
##엽
##됩
##룹
##닐
##릿
##꼭
##찾
##맞
##칼
##뷰
##알
##맥
##럭
##밥
##솔
##텍
##J
##짓
##값
##V
##룬
##씩
##끄
##냈
##냥
##캐
##틸
##델
##떠
##읽
##팽
##않
##묵
##괄
##빙
##컷
##끝
##랫
##랄
##왔
##큰
##겼
##덴
##탱
##뜨
##렀
##밴
##렵
##뉘
##얀
##뿐
##룡
##엘
##꿈
##짐
##륙
##듀
##즘
##핀
##흑
##랙
##또
##뇌
##삭
##콜
##롯
##힘
##휴
##혔
##콩
##졸
##죄
##벼
##힐
##넬
##숨
##멜
##꾸
##싸
##컴
##첼
##횡
##춤
##믹
##밑
##봅
##냉
##븐
##킬
##텐
##녹
##렴
##핑
##털
##닫
##흰
##섯
##잎
##찍
##맺
##훼
##멸
##쇠
##맛
##죽
##첨
##깨
##컨
##앞
##뀌
##봇
##빛
##켈
##밝
##픽
##늘
##낮
##댄
##밍
##끔
##셋
##홈
##춰
##떨
##넘
##엇
##즌
##샤
##싶
##롭
##벡
##힌
##겸
##꺼
##몇
##흔
##쌓
##컬
##앗
##캄
##켄
##닌
##왜
##옷
##잃
##띠
##찌
##폼
##엑
##곧
##렇
##몸
##짝
##멕
##좋
##삶
##뿌
##웹
##앨
##흘
##픈
##옮
##듬
##좀
##쾌
##덤
##많
##옆
##낼
##잭
##쓴
##맡
##듭
##빨
##쓸
##캘
##숫
##밤
##깊
##슷
##빅
##촬
##뒷
##뜻
##헝
##숲
##옛
##뛰
##떤
##땅
##벗
##갖
##높
##떻
##봄
##빼
##씬
##짧
##닙
##믿
##쫓
##넓
##즉
##붉
##얻
##윌
##듣
##섰
##묻
##챔
##덮
##왼
##첫
##굳
##뽑
##늦
##샌
##썼
##젊
##겪
##띄
##끊
##낳
##펼
##으로
##에서
19
##었다
20
##이다
##하였
있다
##하는
##했다
##하고
##하였다
##하여
##으며
##니다
200
201
##한다
##에는
##되었다
있는
##부터
##지만
대한
##0년
사용
##에게
##적으로
##적인
##er
##까지
10
##되어
##면서
##들이
##on
##하기
##an
일본
##8년
##에서는
##하게
##5년
18
199
이후
##7년
##국의
##6년
##9년
##4년
한다
##2년
##들은
##이라
##1년
12
##3년
##습니다
##으나
##in
##는데
##았다
##at
##or
##였다
##00
그는
위해
##되었
11
##학교
시작
되었다
##리아
경우
##주의
때문
##en
##들의
다른
##들을
##ar
그리
미국
##al
같은
지역
##스트
프로
한국
사람
##된다
따라
##이며
##하지
경기
198
함께
자신
##하며
15
##es
##이나
대한민
당시
##라는
그러
조선
것이
것을
현재
##하다
16
##되는
이름
사이
때문에
위치
##he
##시아
##해서
문서
하나
##에도
또는
기록
또한
##라고
가장
세계
하는
그의
##기에
있었다
197
##레이
국가
것으로
17
에서
##ic
##기를
##지는
활동
된다
선수
##le
그러나
들어
했다
##is
##리는
##기도
##일에
##스의
있으며
사용자
의해
아니
##it
##대로
만들
196
##졌다
194
프랑
문제
통해
그리고
##하면서
##리를
14
##ol
영화
많은
4월
여러
3월
12월
있었
위키
서울
8월
##되고
다시
7월
가지
##다는
5월
##사를
10월
##하였고
6월
생각
##스는
##로서
1월
9월
것은
처음
포함
시즌
13
모두
##ion
##했고
모든
사회
주장
##지를
대한민국
독일
##는다
것이다
##이었다
##성을
정부
11월
일부
##자가
제1
195
##거나
##회의
##랜드
이상
이용
연구
##이라고
등의
중국
대해
감독
존재
##백과
있어
으로
위한
##이는
자신의
전쟁
##다고
##이었
##력을
하였다
2월
이루
대표
##위를
해당
다음
##위원
##ou
일반
##어진
##이고
아이
제작
##상을
##대의
알려
정치
##입니다
##도로
가능
##개의
##도의
도시
##장을
위키백과
##am
##el
내용
등이
관리
관련
하고
##통령
리그
구성
193
##하면
##나라
필요
##니아
중심
##re
기준
제2
프랑스
새로
##도록
##부분
되어
##라이
축구
##이자
사건
##시에
나타
라는
공격
##리에
##정을
참여
##as
영국
발표
##om
30
등을
토론
동안
##0년대
대통령
##이지
##자의
##ed
게임
##보다
##ing
방송
##이라는
##들과
개발
##nd
발생
##시키
192
##il
of
부분
##기는
이어
라고
이는
사실
##로부터
##et
##기의
##났다
인구
진행
역사
##와의
##성이
하지만
##us
the
##기가
이를
문화
##ac
##리가
##합니다
국제
태어
대부분
지방
일어
##스를
2010년
대학
이전
위치한
번째
##했으며
발견
최초
##자를
##군의
영향
관계
##도를
##에서도
이에
작품
자유
##자로
##세기
##명의
25
설립
##들에게
의미
전투
##인의
##므로
191
##자는
대회
##이트
독립
##리그
##km
이러
있습니다
시간
##사가
이유
우승
계속
되었
선거
##하였으며
대한민국의
특히
결과
설치
이러한
##되었고
##란드
고려
##가지
결정
##로는
없는
있던
받아
##명을
##ro
##리스
새로운
##리카
등장
아니라
##대를
상태
아버
지정
기술
21
형태
경제
편집
수도
##했던
러시아
음악
중앙
유럽
교육
프로그
##스가
이다
##번째
##원을
인해
주로
##인이
##르는
요청
조직
##과의
다양
참가
##전을
2007년
2008년
##으로서
##리의
##화국
이탈
중요
##렸다
소속
##부의
##ch
##식을
##되지
in
##이스
출신
운영
가지고
2011년
22
2009년
발매
같이
로마
##사의
있고
데뷔
구조
##기로
않고
사망
##ent
##하자
##으로는
##에서의
##다가
##해야
1일
23
아들
매우
이미
##되었으며
이것
##스터
##디오
운동
24
받았다
2012년
##권을
190
정보
국민
##드는
##명이
않았다
##프트
계획
미국의
없다
방법
##대에
차단
##대학교
##도가
##처럼
##도는
이탈리아
##리즈
그녀
##장이
##ig
성공
##하려
##학자
##이션
프로그램
##간의
추가
의견
타이
행정
돌아
많이
##ot
하여
출연
라이
##위원회
##하던
대해서
##FA
여성
지금
아버지
##등학교
##운데
##부에
##수를
따르
##id
변경
##림픽
000
##ation
##전에
28
26
2006년
않은
##화를
2013년
인터
직접
주요
않는
##비아
최고
sp
The
##원의
정책
만들어
##수의
##st
##ur
역할
상황
2014년
이라는
##르크
일본의
지원
##군은
출전
반대
후보
##사로
##서는
가운데
아닌
공식
생산
민주
##였던
27
##스템
되는
##사는
##장으로
한편
기원
전체
##음을
##운동
##스로
표현
##수가
##력이
제공
##선의
모습
##스와
거의
인물
##제를
차지
##ad
이루어
열린
##자인
보고
스타
##어로
##ty
##라마
이라고
각각
앨범
##으로써
올림픽
확인
임명
##남도
가진
##리고
##머니
연결
##제로
100
##점을
기능
##ath
과정
다양한
##원이
유지
##어를
##하기도
##가는
##스크
않았
##전에서
월드
##민주
분류
어떤
데이
29
인정
아래
2015년
##나는
이야
##으로부터
개인
##지에
대신
스페
개최
상대
삭제
##인민
요구
유명
따르면
##iv
##스타
시리즈
이동
공동
않는다
##냈다
##ec
운행
실시
and
2005년
기본
##ter
공개
##대학
시스템
관한
대상
##사에
2016년
##문화
##im
span
##성의
활약
##의를
기존
##으면
결국
##장은
##em
##이가
##시켰
있는데
일으
지구
원래
##지가
제국
##왔다
마이
있을
##um
##대표
영향을
방식
비판
높은
학교
대학교
마지
졸업
##했지만
말한다
##선을
남아
시절
##군이
31
##부를
##들에
진출
그리스
나라
##지의
시대
이름을
##수로
##ag
배우
플레이
그것
연합
##지고
기여
철도
생활
##시의
2004년
발전
서로
##문을
비롯
구간
##상의
학생
##인을
##os
크게
있다고
마지막
음반
##었고
##호로
##치를
동시에
##업을
만든
##치는
바이
계약
##계를
시작했다
건설
경상
##우스
189
##세의
인도
그가
대전
정도
프리
군사
평가
보여
역시
드라마
후에
제외
##일부터
##임을
2017년
##회를
하였
따라서
부산
처음으로
FC
##대한
거쳐
중요한
##ut
과거
##ia
##되면서
##위에
알려져
항공
제3
혹은
##원은
##하였으나
##ra
도입
도쿄
##ul
작은
언어
브라
##이드
##이었던
##제가
아르
자동
건물
##인다
자연
특별
50
##쪽으로
야구
결혼
math
노동
이론
##장에
##부는
나오
기간
2002년
##원으로
##르트
경기에서
오스트
사랑
완전
형성
차량
정의
##라도
동일
##정한
##장의
자체
행동
##북도
중화
##지로
##un
보호
사이에
여기
##제의
##군을
여자
##인은
그룹
St
2년
이적
지도
지하
##ir
##수는
달리
의한
2018년
##시는
수상
다이
초기
민족
인간
역할을
설명
없이
기원전
명칭
##장에서
##있는
현대
소련
##카이
바로
##하는데
어느
열차
위하여
##주는
종교
##있다
수행
보통
##자와
##인민공
되고
모델
##운드
공간
##트로
기업
##시마
##특별
2003년
어머니
##od
##단의
기준으로
최초의
경찰
##소를
##성은
to
##역이다
##독교
##트를
레이
##격을
있다는
##적은
##대는
##어는
기반
##BS
col
이끌
##ay
##이의
하며
##기관
##대가
기관
이때
지나
##했으나
전문
선발
지정되었다
국내
##됐다
인구는
##되며
##정이
과학
노선
##정에
##레스
전통
##동안
영어
##마다
찾아
##적을
##무를
이르
##op
##ers
##과는
승강
이해
비슷
보내
##갔다
##하거나
중심으로
노래
통합
##중에
##연구
적용
일반적으로
##혔다
##하지만
##서를
##리오
피해
태어났다
##체의
##th
Ch
##ow
##이를
지배
애니
전국
##당의
마을
컴퓨
경기도
##단을
##물을
사상
이런
월드컵
담당
자신이
작성
서비
##가와
2000년
사업
교황
그렇
##프리카
특징
받은
##진다
##리지
15일
상당
##ist
FI
##리와
기독교
40
1년
유일
태양
##른다
그래
부족
##도에
싱글
##드를
##oc
##시간
올라
연방
개의
그런
자기
지지
있지만
하지
받고
##적이
##all
좋은
근거
##광역
이라
분야
##어가
기타
2001년
##체를
지역의
지휘
변화
##BC
##시켰다
##트의
##위로
##르게
##and
##스탄
##호를
선정
환경
3일
##정부
##주시
##리로
방향
사고
##나다
개념
컴퓨터
생성
활동을
클럽
언급
##개월
판매
##어서
2차
합니다
받았
있어서
##tyle
그를
어려
불가
##사와
##드의
공연
##학과
##피언
모양
##린다
주변
10일
##드리
TV
대체
문제가
##원에
##스에
나가
##경기
##드로
##조의
##ri
두고
##한다는
비교
188
##명은
##회는
##종의
##per
##메이션
style
선택
##이기도
##시켜
관심
어린
북한
##ce
예를
##계의
등에
##디어
20일
역임
##군에
km
산업
충청
##제는
30일
한국어
3년
##키는
현재의
마음
이유로
소설
##세는
우주
실패
##트는
지속
##했다고
멤버
프로젝
문서를
FIFA
##역을
떨어
전라
##했는데
이것은
공산
가족
##og
가까
선출
건축
##성에
오늘
대하여
특정
국가대표
이상의
5일
##이지만
아직
스포
##으므로
자료
사무
In
제시
##움을
25일
판단
##르고
##야마
28일
데이터
##류의
기념
스트
언론
연속
##구의
##네요
최근
단체
선언
증가
도로
출시
##인데
전에
##일보
제가
##회에서
애니메이션
2일
등으로
##트남
##인으로
규모
헌법
걸쳐
##상이
대부분의
챔피언
내려
형식
최초로
##세가
관리자
않아
제안
제한
##부가
1999년
조사
최대
먼저
7일
것에
뉴욕
2019년
뛰어
202
다음과
스페인
##성과
##만을
시민
속하는
최종
아무
1998년
##시킨
##쪽에
##구를
color
16일
17일
21일
공화국
12일
18일
불구
지상
사진
##이로
사용하는
되었고
##하도록
인천
##관을
정당
##크로
##주에
4일
##치가
위원
##시키는
26일
27일
##세를
예정
목표
8일
##ap
이와
입단
사람이
##스코
주의
##쳤다
##방송
23일
우리
##단은
대해서는
강화
전기
통일
후반
##회에
추정
##학을
29일
##인민공화국
고대
6일
점령
14일
22일
서울특별
그대로
##글랜드
정확
가리
번역
##호는
알고
없었다
있었던
##내는
9일
때문이다
추진
##비를
##모토
11일
등과
밝혔다
##겠습니다
개통
수록
투표
방문
##자들이
##관은
명령
이란
지난
##겼다
물리
국회의
1997년
표시
해결
##가의
자리
논란
하나의
13일
수는
##기와
친구
그림
정규
186
요시
메이
유사
##어의
##ov
분리
권한
처리
##했을
##면에
##ie
24일
반응
결승
구분
##명으로
있게
모습을
조건
표준
##관이
##지지
캐나다
##만이
소유
##광역시
임시
작곡
##정의
##ess
이름은
500
승리
경우가
효과
오른
획득
교통
##ct
##학적
19일
불구하고
제2차
더욱
다만
정신
##회가
##버스
실제
베트남
##소가
베이
영화이다
내용을
##화가
전자
##ub
잉글랜드
##함으로써
표기
##메리카
##되기
부여
##인지
단순
##이에
##ab
에너
##프로
위에
저작
아시아
나온
##덜란드
1995년
##법을
##전의
##km2
##계에
##자들은
목적으로
##정은
중에
##단에
출판
##사카
##렀다
네덜란드
스스로
가문
드러
통과
대구
감독의
##릭터
187
##교육
자주
조약
##민주주의
##당은
##단이
제기
육군
차례
하나이다
인터넷
경험
주인
##금을
이름으로
##골을
##라의
##체가
##난다
작업
##물의
세포
마찬
가수
##부로
##원에서
1996년
마찬가지
명의
거주
##웠다
##위가
스포츠
정도로
포르
##전이
수준
##직을
바탕
것이라고
캐릭터
대중
법률
##ht
##선이
국가대표팀
##ang
##ame
그녀는
외국
하다
##정보
##점이
##치고
폴란드
소비
de
국립
소프트
확장
포함한
UE
이사
보인다
##없이
##지방
지적
##명이다
##상에
##지와
출처
갖고
오래
실험
있도록
알려진
정식
##ity
서울특별시
##ard
##철도
UEFA
사이의
##스턴
##상으로
유니
##가를
하나로
##한다고
움직
1994년
의견을
시행
이듬
만나
##학의
##비전
규정
##시대
##식이
주민
##들로
영국의
과정에서
분석
제조
강력
식민
##과에
##문에
##했다는
거두
적이
고등학교
히로
개혁
##었던
##스카
배치
조지
##었으며
##인이다
##ill
예술
1992년
파일
직후
폐지
비롯한
크로
이듬해
##형을
물질
##로의
바꾸
세워
##est
부르
##주를
잘못
대응
##상은
##지역
##나이
회사
##까지는
이승
아마
해석
일어나
맡았다
60
복귀
사람들이
##장과
##톨릭
비해
완전히
인민
이들은
텔레
##av
##트가
##학년
파견
1990년
비행
중재
것도
설계
주연
불리
Re
부정
영토
##ik
##드가
마르
가져
세력
##소의
상대로
발달
1차
자치
##경을
불교
##안을
##선거
그들의
불리는
1991년
##산을
페르
##부에서
들어가
31일
없습니다
북쪽
관련된
##이기
제작된
이곳
있지
##ine
외교
의하여
##학생
##ph
##동을
거부
결성
##하다고
결합
##들도
시작하였다
##신을
##스에서
시설
오늘날
##선에
##일랜드
즉위
35
##우는
##랐다
의원
##고를
제품
32
##구에
남쪽
##하의
주도
##인과
##거리
유래
초대
바뀌
충분
여겨
##오는
##로를
특수
의하면
##아의
남자
것과
제국의
경쟁
물론
널리
보다
##세요
보면
현재는
위해서
접근
필요한
일을
방영
##if
도착
##나무
##감을
##와는
##군과
##소는
성격
##위의
우승을
##되었으나
밝혀
좋아
##ell
제4
계정
이야기
1993년
##orn
##려고
준비
##ber
##님의
하이
##소년
4년
집합
제목
##ak
##레일
1945년
너무
다르
##라인
전해
##부르크
##관으로
가톨릭
같다
면적은
##전은
더불
##베이
사용할
연기
등록
파괴
때는
유전
중간
성장
문제를
런던
다루
야마
##행을
1988년
어떻
300
있으나
나머
스웨
##카와
지역에
##하기로
기초
경우에는
##되자
마찬가지로
시도
경영
##아가
for
이번
치료
더불어
가르
신문
다중
##부와
독일의
계열
브라질
동아
만에
##ip
##라스
훈련
수용
##규모
수정
##지에서
1989년
신청
왕국
다카
##식은
##니까
얼마
##받았다
##ack
비슷한
못했다
##동에
##러스
##이어
##하였는데
팀의
작가
조선민주주의
광주
크리스
따른
많다
##만의
##자에
동쪽
아프리카
자동차
바다
분쟁
##구가
스웨덴
##하다가
##스티
목록
회의
##위는
##스테
프랑스의
동물
시험
이외
여객
일제
본래
알렉
가능한
사라
우선
슈퍼
오스트리아
작용
발언
취임
패배
##ew
어떻게
생각합니다
금지
여름
##ont
##하라
##진을
발행
주인공
삼성
아시
##관의
##식의
필리
##스토
지하철
사용자가
##리에서
않을
근처
가입
이렇
##선은
##다면
##시를
일이
Al
##회사
##바이
##베르
th
허용
가정
황제
디지
이들
##사업
##많은
mathb
이루어진
위의
것이었다
귀족
여기서
체결
##으면서
유명한
소개
있기
반란
참여하였다
##art
##웨어
제거
##기술
형태로
평균
내각
##시코
##주로
##형의
##ran
선수이다
상호
동맹
##도와
스테
스위
미국에서
##구는
##크의
말을
70
존재한다
재판
그해
천황
노르
활용
교수
체포
수많은
편성
##메달
소재
##선에서
##조를
##르의
몇몇
일종
##량이
서쪽
##함을
못하고
##지게
노력
이로
만들어진
때까지
고속
연주
하루
출생
적극
보도
사용한다
##권의
##어나
##사에서
##문화재
만약
간의
보수
기존의
##의로
가능하다
##점으로
말씀
##ight
##교회
##ud
성립
##지도
전혀
2020년
정보를
##ian
통치
중단
##시로
오후
반복
떠나
##일을
못한
##센터
##롭게
종료
##연합
동생
이래
있었고
##리트
An
공작
정부는
후쿠
한국의
##졌고
나누
수가
달성
디자인
이름이
떨어진
시기
이주
##체는
은퇴
혁명
교회
공항
강원
기자
##페이지
##계가
국왕
##면을
##트워
##ue
IP
##오카
##자리
포르투
않다
글을
달러
##NA
오사카
유로
##조는
##과학
중에서
##작용
종합
##oun
##차를
##시키고
지역을
##화된
항상
살아
##인들이
##론을
한다고
구조를
제주
##나가
전달
경기를
타이틀
##스키
기록했다
##량을
끝에
##당을
##화국의
##ate
일어난
같습니다
남북
80
##승을
인식
강한
위험
##소에
##루스
없어
하기
##평양
안정
승강장
관할
논의
카를
되지
당선
구성되어
##당이
비밀
Un
그들은
##하시
방어
참고
5년
##화의
충돌
##디아
사이에서
옮겨
교체
##간다
Th
출발
##해를
이용하여
각종
나타나
고종
신라
185
중의
정치적
1986년
에서는
한다는
##권이
해외
1987년
미사
않습니다
##our
수비
바탕으로
사실을
##0년에
##조가
연장
##이던
지역에서
안에
의사
##로가
근무
제5
그린
뒤에
##관에
에는
개정
음력
나무
최소
마련
만드는
말했다
##국이
이렇게
프레
##단체
선수로
##ong
홈런
세종
##웨이
##하이
구단
##적으로는
주목
기능을
계승
전환
밴드
시청
##10
남부
기사
##성으로
장기
아키
수립
입학
##리기
넘어
무기
##니는
부모
원칙
인사
그녀의
##자들의
대륙
##시가
전반
대표적인
##인트
##당한
훼손
둘러
##았고
아카
것입니다
지명
45
##크라
상징
##부터는
신설
승격
바람
디지털
일단
##국은
보유
촬영
지냈다
관계를
프로젝트
##레일리아
제도
라디오
투수
##ect
##치의
귀국
조성
##분을
##대와
##두고
36
##주교
##ev
##보다는
저는
이며
서비스
텔레비전
개봉
곳에
유일한
주는
파이
정부의
살해
참석
##력은
선의
on
부터
관측
대사
##였고
##TV
고구
실행
##러운
180
증거
##되기도
개막
신뢰
조금
집중
##만에
##까지의
에게
정상
합류
시작되었다
아니다
##내고
에도
완성
##고등학교
경향
##점에서
무렵
##관리
##더라도
##물이
비디오
책임
##하려는
##시오
발사
##ive
하계
실제로
##시즌
위치하고
##문이
아내
집단
되돌
##나라의
유대
##하고자
##지션
계약을
2세
나머지
##ant
왔다
##시대의
전략
##어졌다
##역으로
보이
이스
시각
##perat
확대
보존
건너
아일랜드
있었지만
바르
문학
##트리
##치로
안전
통하여
KBS
1985년
해안
33
불러
없다고
##자이다
인한
##호선
해방
평화
정리
강조
스튜
조각
갖춘
내부
사용된다
만화
##mm
받아들
동료
이집
오스트레일리아
베르
##eg
드래
##ort
##하에
네트워
유형
센터
##가가
##계는
멕시코
구체
오브
사회주의
제외한
##se
종류
##파의
선수권
미래
인근
친일
초반
일반적인
기록을
설정
하게
##전히
operat
##0년대에
##크를
1984년
##동차
##가로
국방
##해졌다
윌리
##군요
이슬
정착
##적이고
제정
해군
고구려
알아
포르투갈
Ar
쉽게
에이
##ich
게이
세이
제1차
1세
탑재
##전으로
중국의
갖추
등은
이후에
##량의
삼국
##소로
가는
##호가
##미널
##orname
operatorname
##님이
독자
가까운
윈도
##과를
하자
##트에서
##20
##티아
기억
위반
배경
강력한
문서에
편입
조정
##였으며
##교의
없고
사령
##질을
##라운드
출신의
도시로
##됩니다
##되었던
스코
##로서의
발표했다
명예
II
##에게는
현실
##왕의
사용되는
이전에
젊은
##인들은
##ore
불가능
##전쟁
마사
헝가
184
위치해
엔진
북부
어렵
부근
해서
##ain
지금의
생물
##화에
##cm
케이
##석을
도움
확보
##분에
저항
만들었다
##역에
낮은
오르
##공항
##생활
내용이
전개
의미한다
개시
모르
##로로
##설을
이루어져
범죄
사례
##계에서
공격을
##은행
##ith
38
그에
##었는데
##기고
##낸다
90
st
울산
##비가
##구로
위키백과의
관심을
설립된
민간
##크는
재직
상업
##피아
뿐만
부른다
##세포
행사
생활을
홍콩
수학
##요일
##드와
##ex
묘사
##정책
1982년
침공
통신
베네
내에서
개편
##하겠
승리를
문서의
##사령
##수한
경상남도
방식으로
##상에서
##3년에
##티나
사용하여
전시
알렉산
##심을
채택
##되었는데
##신문
이끄
사람은
시의
그려
10년
공급
##려는
박정
의해서
사람의
##하다는
협력
mathbb
경우도
2개
주연으로
힘을
원자
최고의
나서
##밖에
국회의원
기계
요리
보이는
##리포
1980년
관찰
경상북도
본격
오히
##단으로
##준다
##하려고
##로나
이슬람
이끄는
##프는
##서로
천문
##그룹
계산
Com
인용
##모리
마이크로
##족의
남편
##ial
나뉘
주장했다
대상으로
##제에
스토
시대의
되었으며
##후의
##라노
##사키
Mar
관광
나오는
##같은
자리를
회원
##고속
신경
때에는
전용
종목
평양
목적
한번
윌리엄
하면서
암살
공공
##8년에
앞서
투입
##세에
만큼
##법에
##약을
##ff
##으니
받는
아닙
블랙
동의
34
##ob
무엇
##라우
밖에
##신의
얼굴
하면
미술
150
태평양
태풍
예선
글로
위협
여전히
##드시
태어나
사실상
MBC
##서에
오전
합의
##ly
대립
##세이
채널
나중에
등에서
카운
하는데
유리
주었다
##면에서
분포
Sp
통한
##1년에
en
400
제대로
비난
자신을
##사회
이나
##력의
보여주
##ep
원작
터키
아우
오히려
자본
때에
인간의
대회에서
인디
##원과
문화재
확실
##리어
##CA
##로스
##기업
##ge
##6년에
##오프
##ok
##받아
조선민주주의인민공화국
##9년에
개선
미디어
##졌으며
그런데
##어도
장애
태어난
이유는
##계로
183
지진
##ry
##점에
동부
전투에서
##리스트
남동
부인
##간에
1972년
##니스
##명한
정도의
기획
붕괴
청년
##산의
사람을
##미터
사회적
잠시
덴마
불린다
뉴스
##신이
##대에서
##상과
반면
##주가
다섯
당시의
##경제
##타를
마쓰
저장
해야
##군으로
교토
붙여
본선
나카
업무
핵심
##었으나
##로운
시내
화학
##해도
##즈의
경성
변호
필리핀
##대전
##임스
로스
##력으로
구축
구성된
##시와
##권은
창설
대형
##스럽
시간이
##음에도
버스
적은
##프가
is
지식
##체로
국무
임명되었다
지침
뮤직
##되었지만
인수
에스
무장
오스
##산업
##iz
##당에
아들로
합병
##먼트
##하나
##어들
아닙니다
심각
##개발
##역에서
등장하는
점차
##아버
대규모
##면의
##자들을
##해진
##았으며
나폴
##문의
행정구
어떠
전차
##age
클래
집안
al
토론을
##했기
중반
##국을
##해주
서식
##아서
##50
뛰어난
##교통
전라남도
##조선
세운
확정
포지션
논란이
회복
제작에
남성
##소에서
##7년에
나와
##ast
모스크
근대
마리아
##5년에
전사
##었지만
엘리
상당히
건강
##ary
고전
##4년에
반드시
보는
##받은
측정
##세기에
문자
##자에게
세르
오랜
죽은
##워드
득점
있었는데
죽음
사용한
동일한
기후
##르타
루이
종종
160
선조
제6
##인에
매년
복잡
내에
오른쪽
메이저
부탁
##류를
시기에
이끌고
운용
##료를
##이란
핀란드
소년
오리
##메이
히데
마드리
사후
도움을
블루
여행
##시킬
불과
K리그
3개
제출
##레이션
단일
비용
그래서
논쟁
아사
##라가
시대에
영입
경우는
##버트
절대
검사
아주
##력에
적절
##도시
##판을
##ord
##스리그
##ae
서부
형태의
폭발
##민족
##물로
파리
##종이
##분의
159
1973년
1948년
쓰는
공부
감소
##라비아
##ory
시작한
##로그
##동의
자격
고양
179
##수와
##권에
##ld
Pro
과정을
가능성이
라틴
도서
##분이
##실을
라이브
##FC
검색
광고
##스케
##체에
사람들은
##mall
##역이
충청남도
##로드
##제국
팀은
##수에
간주
##ib
정부가
##지면서
##력과
규칙
##어져
있었으나
겨울
사항
시장
Pr
사용자는
##리포니아
타고
##역의
##사이
일종이다
연맹
강제
고향
기반으로
했지만
어떠한
출마
19세기
1983년
자세
몽골
흔히
계획을
##자치
##사전
1981년
감염
##경기에
사는
재정
있었으며
발생한
이하
문서가
스튜디오
유엔
시즌을
아랍
되면서
##서가
##ST
원정
농업
인하여
사용자의
##ure
##형이
연극
##ical
만주
##라엘
공산주의
이른
##비는
선고
창립
에피
##인들의
도중
레코
뒤를
외에도
##어야
##티브
하늘
##법원
##품을
소프트웨어
비교적
수입
올랐다
##다른
캘리포니아
##았던
출연하였고
누구
##네시아
카메
했으나
##우고
정책을
사유
공유
선생
LG
제7
##어와
##지기
전쟁이
중화민
이스라엘
간단
##조에
1979년
증명
그곳
##무라
헤이
##up
이용해
앞두고
##해의
무시
중립
##ver
Sh
##무원
1946년
##메달을
##화는
아르헨
181
##ens
필요가
##점은
64
출신으로
small
김일
취급
갈등
고등
북서
##서의
사건이
탄생
강원도
청소년
##하마
##연히
##식으로
점을
##크라이나
결과를
연고
##당과
나는
박정희
생겨
장악
##틀랜드
##자기
대항
통해서
차이가
##동이
외에
중화인민공화국
녹음
후손
에드
해체
때부터
예상
37
혼란
##리학
에너지
##경에
인터뷰
지닌
한때
유도
##ne
##기에는
##qu
왼쪽
팀이
##없는
##다이
내용은
##cal
##면이
열대
되면
서양
##차로
##쿠라
프로듀
마법
인공
국회
이제
살고
사용하고
아나
##드에
김영
반발
운전
##트에
##드에서
##하신
##함에
##키아
or
##차례
보급
모스크바
거절
##일의
1970년
##테인
트리
우크라이나
##이었으나
보였다
##일러
인기를
##히는
등판
국가의
경우에
##안에
##가이다
2008
태어났
##가에
지역은
한반
위해서는
1963년
식민지
##만큼
##ass
분명
일본에서
높이
##되어야
동원
##oh
가게
스파
속에서
짧은
은행
48
물러
##uc
끝나
고정
성우
1950년
채용
##2년에
추천
41
거대한
금융
39
##통신
##스포
처음에는
일으켰
##랍니다
만족
##우리
발표하였다
검은
요코
##man
생명
##재를
명확
2개의
부임
1974년
까지
##협회
경기에
수사
##유럽
건국
베이스
맡고
역대
##만은
올려
##장이다
##000
넘겨
아들이
##의가
##셔널
##복을
##end
##자이
해당하는
단백
롯데
노예
능력을
청나라
##아시아
##ies
##되면
##술을
나이
출입
##령을
북동
카운티
##룬다
수원
한글
##대회
주교
행위
##사건
진보
##호의
공포
떨어져
머리
아름
##개를
검찰
En
없다는
##이었고
고유
그러한
##자료
그것을
사태
외부
네이
##리즘
사건을
계급
부활
##ment
시티
트레이
활발
##ust
##했습니다
##니어
소녀
다다
가로
##법은
베이징
것처럼
조작
##실록
##량은
이중
했고
##io
언제
##의의
##나이티
가격
전설
이야기를
재위
전쟁을
박사
그렇게
추측
##치에
플로
세웠다
오픈
판결
##형은
대비
됐다
지원을
그에게
##립니다
##씨의
이후에는
의혹
##화로
##정으로
방법을
오토
이용한
##공업
대표팀
식물
작전
신앙
FA
##지자
해도
약간
##이므로
불법
1971년
역을
##추어
오래된
보아
an
Le
모여
저지
전후
지낸
달라
##사인
##킨다
팀을
동성
다니
입력
유나이티
부상
방향으로
됩니다
##ss
우려
##음이
fr
찬성
형제
맞이
##비의
철도역이다
##역은
##일본
멸망
애플
아침
했던
미군
양성
의심
노부
하였고
네트워크
스피
Coun
바랍니다
붉은
##용으로
구속
모리
##적이다
##슈타
주식
##종은
##19
올리
PC
이것이
신인
장착
##께서
속에
주관
##지인
##국에
55
뜻을
약속
시작으로
구별
##트라
함수
##나와
빠른
##병을
조합
##보를
목표로
파악
##미디
어디
##일은
존재하는
후지
합격
챔피언스리그
##방을
세계에서
보장
1976년
주고
이전의
사용되었다
발매되었다
##당했다
1위를
##마이
2000
받지
반영
카이
역사상
위키백과에
이익
##도에서
##테르
##프의
지키
42
건립
보냈다
제임스
설치되어
이고
##스러운
##받고
##보는
스크
##터테인
##였으나
철학
학문
앞에
비록
계기로
당초
생긴
서술
얻어
의료
##슨은
시간을
윤치
##경의
모아
솔로
Bl
윈도우
부문
총독
##구와
##차가
집행
##총독
이후로
##ational
검토
넓은
##기압
6년
북아
##를린
1975년
##일이
##류가
아르헨티나
1960년
산맥
피아
1949년
##표를
##리케
경계
##노동
하나는
##ace
마리
스코틀랜드
3차
##다운
남서
1978년
##산은
내의
1로
##기간
머물
리더
얻었다
##olog
##경찰
대수
##모를
둘째
1968년
##기지
일정
##조사
##트와
비율
장관
민주당
선교
##데스
2010
Cl
##자들
운동을
66
##들어
##크가
수여
정복
##SA
단독
De
한자
조선의
기대
했으며
##데미
##렸고
공통
이르는
제외하고
##바르
주전
놓고
투자
안내
엄청
행성
##중앙
com
총리
##전문
bl
때의
이뤄
1940년
부분이
##화와
통제
플레이오프
뜻한다
75
##선으로
##하였지만
##조합
이민
##의회
창단
2009
178
일찍
##형으로
문서는
각각의
##만으로
##씨는
##시설
금속
브랜드
##신은
플랫
길이
부분을
시리아
시작하여
의무
따로
##료로
공을
삼각
1969년
발표한
농민
##te
##뉴스
전철
여기에
전부
들어서
##pl
신성
보조
온라인
차별
항목
##는지
에피소
활동하였다
피해를
##에게서
감사
개신
New
빠져
말이
상황에서
창조
##식에
pro
출범
##나미
##마스
끝난
아테
보낸
알게
사단
자는
점에서
##번의
저명
최다
곳에서
##소와
##ond
수집
##ys
##리게
포함되어
be
##이었으며
독립운동
명이
후에는
지켜
아메리카
47
종류의
##법이
##나의
쓰고
##본을
##항공
도달
##주에서
CD
##99
##연맹
되자
동작
##왕이
##듯이
일치
##주년
맡아
##ish
##보고
김대
행동을
##체육
않으며
소수
요한
체계
나치
러시아의
SK
이성
1919년
거리
당시에는
서버
하드
mathcal
제어
말레이
연산
요청을
##ER
##카이도
의회
##ug
4개
공화
승인
유사한
##미야
지속적으로
특별한
##부인
무역
상륙
전공
레드
참조
강의
저작권
2007
마침
이시
시에
이탈리아의
그것은
단백질
기술을
일본에
대공
##미디어
##락을
받게
배우이다
실질
요새
충분히
조별
않았고
백작
1977년
공식적으로
다르다
임진
문제로
가졌다
느끼
##면은
##방의
넘는
1000
소비에
0으로
##통을
프리미
1962년
지상역이다
수송
##조직
가을
원년
##명에
선수가
##인민공화국의
##석이
가서
182
##전과
동남
진압
##국민
##페이
##싱턴
차지했다
봅니다
##소프트
유명하다
##전에서는
시즌에
벨기에
아파
없을
##면으로
박물
생존
승진
연재
##물이다
개최된
오프
페이
효율
1위
권한을
급제
중세
여객철도
높아
보안
호텔
7년
발발
포위
##11
##지며
##ma
한국에서
##주와
방출
00
자살
주둔
##ear
현재까지
정비
개입
한나라
메이지
한정
##ence
분할
포기
##단과
##수록
슬로
주장을
병사
##터를
##라면
지방의
정차
고용
##니의
##해가
위치한다
주어
수출
##물은
프란
원주
정확한
미야
방사
##사관
나타내는
##ice
진입
##데이
##론이
##여서
##패를
##브리
받을
1개
##케이
##동으로
제8
##바로
문제는
대통령이
플랫폼
근본
입장을
전주
타이완
의존
이것을
개조
사법
도와
43
프로세
데이비
빼앗
중학교
침략
##제와
탈락
177
거래
성적
##마의
조선총독
도쿠
##주의를
##었다고
답변
은하
취득
##뮤니
베를린
##버그
##자로서
성향
밀도는
선보
1941년
주장하였다
선거에서
대기
그와
하위
##임이
코미디
해산
##책을
##파를
늘어
대략
처벌
##장인
##국에서
라인
##에르
등장한다
발견된다
인도네시아
하였으나
없으며
것이라
##교를
##저우
##건을
다수의
도요
##플레이
1980년대
부분은
자이
군대를
성인
##라를
골을
국경
불안
##지원
##tt
##론의
합성
예비
아카데미
흡수
##ost
##법의
##즈는
##ork
##프를
단어
응용
##시킨다
44
왕국의
시작된
동아일보
장치
##음악
형태를
1964년
번째로
##고속도로
##키가
포도
교환
군이다
어려운
1961년
제일
1944년
역으로
해에
##미를
매일
빠르게
##국으로
##문은
20세기
##ON
##개혁
지급
희망
##문학
기록한
아시안
##축구
마치
1번
완료
##pt
도망
예수
잇는
부진
출장
##토리
##ide
국정
문헌
학습
병합
##시티
방법으로
인종
오랫
진화
##공사
##섰다
것이며
희생
1967년
둘러싸
변환
평안
##OS
개발한
등재
헝가리
깊은
높이는
##디션
##미의
적합
##기에서
Con
듣고
광복
바라
##사이트
편집을
##실은
2012
쓰이는
콘서
##무부
기록이
영업
지어
##증을
사용되고
##mer
경기는
일어났다
요소
##이와
지금까지
지니
동계
많아
발탁
##보드
##언을
부하
3세
참전
##르가
##느냐
162
미드
앞에서
2011
트로
54
다르게
페이지
플라
1965년
포지션은
##계획
감독이
잡지
##하였습니다
##ern
##리적
##니아의
##산이
##리아의
중인
사실이
분위
나고
추정된다
초등학교
##카가
본관은
작업을
##공화국
##만한
##별로
장군
앞으로
##미가
오랫동안
좌우
편찬
##동생
니시
##ire
##리노
##토의
##이었지만
##어진다
SBS
IS
졸업하고
##타로
향상
1966년
##리우
##키의
파라
##tern
역임했다
활성
##영화
그때
##시키기
속한
탈출
2006
1990년대
활약을
##ft
지냈
아스
직업
##치아
존재하지
##세계
미니
이집트
승객
##들목
받아들여
열렸다
항복
JR
메시
법칙
감독으로
프로그램을
소비에트
주최
복합
테러
명을
못하는
회전
알려졌다
##동은
망명
홍보
##에만
받는다
인지
혐의로
120
##였지만
46
##ind
##ivers
실현
워싱턴
크기
세르비아
52
부상을
##영은
감독을
아버지는
##aw
##orm
1939년
유형문화재
##라와
##사무
##타이
가담
##천군
의견이
돌아가
##치게
##색을
County
고문
나들목
성을
요미
전라북도
단지
브리
##능을
##천시
김성
장남
취소
예측
##신으로
##보호
통산
다수
특정한
##요시
심각한
않게
##산시
##되었을
보컬
반대로
아이디
##틀러
말에
88
남은
이루어졌다
대성
##토론
##으로서의
보물
웨스트
헨리
##뿐만
성적을
히로시마
반도
##하였던
##ock
갔다
엔터테인
3개의
니콜
카드
##되었다고
ch
콘스탄
##행위
부르는
1일에
교육을
단순히
일시
천연
##인가
re
##들이다
양자
##선수
##씨가
##질이
하에
거듭
사퇴
연출
##텐츠
Ph
##12
말하는
ex
##성군
##구에서
##하였다고
상승
한일
##바라
##하지는
이명
하나인
##산에
1947년
Par
##프레
서비스를
인기
일본어
대개
배출
있음을
이름의
##로도
by
방해
목소
나왔다
소장
##선과
연구를
기록하였다
지은
화물
연관
마케
조절
##예술
들고
세력을
군주
158
변경되었다
덴마크
갖는
김정
커뮤니
트랜
개신교
몰아
##티노
##기사
53
터미널
것이라는
공사
##들로부터
##eb
부대
완공
자신들의
##AR
경제적
받았고
##ach
##진의
1면
161
##격한
만한
의식
km2
Br
극장
기본적으로
##one
##ah
세계의
비상
##해져
##시고
일으키
2면
도모
해양
집권
1군
다케
##석은
##영의
##act
자체가
샤를
임금
##관계
관계가
정지
##판이
갑자기
이들의
세인트
2013
명명
분열
##적의
일부를
상품
행위를
상태로
정기
전통적인
관료
with
경주
타격
밝히
향해
상당한
개설
##터는
##경이
1920년
자녀
##조건
상위
기다
되며
지내
##기까지
##조판
##주의의
후속
후계
드래프트
안에서
조종
##각을
##담을
장식
##중의
##시험
##마을
미사일
육상
점점
평가를
##상태
1942년
위에서
##조로
제20
공군
새롭게
인권
출간
sub
잡아
뜻하는
링크
국민의
확립
작품을
##치지
##번째로
어린이
##마트
상관
오스만
접촉
##IA
99
기울
발매된
로버트
활동했다
시위
대부분은
에어
##시스
56
타율
능력
연대
차이
호소
##유의
후보로
발음
65
170
문제에
서울대학교
대통령의
##화되어
탄핵
##우의
##루가
학술
위성
틀을
##명과
##왜란
구현
연습
무너
인접
제작한
작성한
백과
하였으며
독특
대통령은
가문의
DNA
##고는
##리다
이후의
명나라
##베르크
나타난다
공업
##치와
페르시아
발견된
의미를
장난
숙종
함락
##름을
##인들을
##미는
얻은
홈런을
다스
두었다
마무
가지는
상태에서
Sc
개별
지붕
강점
전면
##내에
49
맞아
영상
유한
##스럽게
##ite
대상이
그레
가와
버전
창원
가리키는
##곡을
이르러
역사를
스위스
무한
이른바
만들고
체코
##판에
주장하는
대표하는
번의
지시
통상
##민주당
대학교에서
기회를
레알
설득
엄청난
포함한다
눈에
않으면
##진이
침입
소송
로켓
##령이
갈라
점이
만들어졌다
임진왜란
현상
##old
아미
인조
Be
메인
노출
##ric
##타르
800
사전
##체스터
##되었다가
아라
1958년
처형
##생의
##키스탄
1970년대
##네스
합쳐
시작한다
여러가지
즉시
헤르
##안이
장교
있다면
##이라면
아니고
일어나는
김종
유학
이룬다
##자유
나누어
특이
자극
속한다
음식
스카
스프
포함하여
##생을
안동
주지
펼쳐
1956년
2번
카르
##왕후
600
사람들의
탈퇴
##화한
승려
##ile
벌어
알찬
##실의
##iss
명칭은
유일하게
정권
책임을
해제
필요하다
그냥
##었습니다
권력
##ext
모임
오페
보관
모양의
5개
He
사임
크로아
58
박근
유기
동안에
당사
노무
중에는
##터의
나다
##도르
간행
준우
징역
##론은
길을
등급
맡은
무사
건조
156
규모의
보병
##ood
소속으로
황금
##산으로
단계
입장
신학
##함과
비공
충청북도
다소
##리히
##관에서
용어
##차는
Ro
미리
##동맹
##인에게
무덤
이기
##학교를
ar
공헌
##시에서
1943년
163
1960년대
이었다
치러
장비
아이돌
##ann
발생하는
전력
테이
이후에도
##겠다고
2014
1952년
글로벌
##주군
그레이
내세
유치
##재판
##야의
지도자
전파
##하므로
조선시대의
나왔
왕조
##이센
##이닝
마이크로소프트
흘러
##대부
대리
##리그의
##인도
1954년
부친
기상
임대
있어야
전신
##했다가
##ere
##ction
브루
##15
한성
##가타
후기
##에른
##항을
프리미어
녹색
동양
##포르
##레옹
라고도
##루를
유행
##AT
##ase
그것이
단위
스미
##장군
프로그래
Sch
신호
올렸다
그들이
시나
##누스
##겠지만
기둥
상하이
##국가
베스트
##16
##ung
##앤젤
##터가
##함이
후쿠오카
미쓰
보았다
시카
##양을
쓰인다
이들을
명시
선전
##왕은
##혁명
##ism
1959년
스티
재학
##ound
진행되었다
저서
연예
인쇄
풍부
##되는데
제공하는
체제
추구
폐쇄
마이클
가리킨다
##영을
역사적
챔피언십
박근혜
개칭
나폴레옹
##부장
혼합
로스앤젤
8년
개국
루트
##시면
##지이다
##ult
싸움
176
보입니다
후원
US
공정
##30
##타는
68
배포
##국제
마지막으로
##원군
열차가
있으므로
##학에서
##les
##종을
관련이
##edia
Ad
거짓
보기
알파
보이지
천안
##해보
175
개인의
준다
##받는
바이에른
기소
##내기
##하시는
전동차
##직에
Joh
프린
아메
8강
Gr
변화를
않지만
질병
향토
##등을
드라이
##리나
##현의
사망하였다
접속
##구이다
계통
##인인
반란을
데에
##겠다
대부분이
소식을
썼다
##로마
끌어
왕이
제9
사용된
했는데
작품이다
##우가
##방에
상대적으로
이라고도
4개의
말았다
투쟁
이승만
##슬러
요코하마
고시
국도
차트
가나
##BA
나타나는
거두었다
선임
일정한
##동과
상황을
넓이는
노벨
##관과
사우
재개
##점의
리버
진주
##연을
##례를
일으켜
천주교
##기념
제공한다
구입
있었기
주간
2015
미국과
165
들어갔다
##게임
그래픽
Bo
##고가
##하여야
지위를
##과대학
##루의
부분에
코드
##프리
##박물
사람들을
소련의
##박쥐
사운드
##산화
지역으로
중화민국
관여
##체와
특별히
##파는
국제공항
시스템을
트랙
대회에
임의의
전형
##자키
##조차
쓰여
발굴
000명이다
MS
논문
일부는
내렸다
의학
네이버
가스
##들에서
##드립니다
변형
올랐
##일로
꾸준
불렀다
직원
##여자
##었을
계속해서
내가
자리에
좋지
##부대
어깨
로봇
##석의
시청률
##안의
2016
##었기
직전
고속도로
가이
아테네
##한다면
넘겨주
군의
##orld
##파가
시리즈의
##진은
나온다
##에이
##개로
운영하는
자이언
##자들에게
역은
##련의
57
이혼
##과정
가진다
##지요
##격으로
음악을
탄압
본질
영웅
##질랜드
프랑크
Univers
##터리
1만
중부
교류
벗어나
사업을
총선
동북
공중
레오
분노
아무런
일은
곳으로
할아버
마르크
164
권력을
145
모바
설립되었다
1953년
동해
##루는
1955년
1938년
유럽의
157
오다
140
##화되었다
대선
##마르
74
CP
얻을
테스트
##물에
주택
##가인
##ee
잘못된
게시
도전
별로
재건
##주의적
문재
##린은
나이로
유효
화재
##층의
공연을
2005
형식으로
구글
두려
포항
학살
95
마침내
나고야
뉴질랜드
본격적으로
##비스
##판의
살펴
##ta
현지
72
신체
168
받아들이
대화
AP
방지
##레인
텍사
확률
##고등
지금은
돈을
위치를
나타낸다
초기에
##안은
반대하는
스탈
1910년
인디언
##구치
원소
이벤
IC
형사
1918년
가고
##로서는
보건
##머스
설치된
Pl
못하였다
##yst
##네이
##까요
##거운
##한국
작품은
심지
저술
##마를
전까지
혼자
##오스
자리잡
사망했다
절반
대표로
연결하는
해상
감정
법정
##경은
동성애
김대중
Ex
152
해당한다
유배
2선의
프로이센
바뀌었다
회장
대량
왕의
쿠데
##호에
##세로
추가로
##오의
단편
지지를
도덕
##퍼드
63
대체로
##우를
신분
적극적으로
조카
##독립
20년
선포
##산군
1957년
##라이언
##사람
km2이다
방식을
속해
오직
1932년
##km2이고
없게
##겠다는
##dit
손을
##망을
154
학위를
##AN
사이트
독특한
AT
빅토
돌려
부적
##그라
##사단
##부사
##위키
성남
확산
히틀러
정체
제도를
외국인
세월
힘들
##연대
##기록
##ier
1937년
Tr
항성
단순한
벌어진
특성
##질의
알바
완벽
##자동차
51
##래프트
액션
한신
##BO
아들인
##ove
1인
그로
##rans
새겨
초에
##같이
98
##로와
##EC
빨간
사건에
게임을
원래는
홈페이지
##지컬
다음날
초기의
##파로
가치
##평가
활동하고
방법은
예전
부산광역시
as
##ts
전쟁에
논리
##고의
##ons
le
##차의
사과
2004
말레이시아
1936년
무게
선출되었다
##편성
이루고
1930년
##에서만
작동
##ome
서명
##든지
측면
폭탄
남겨
수석
중이다
이재
미드필
##cc
주장한다
명령을
선박
##고기
1933년
일본인
나라의
명백
여섯
정교
##에선
멀리
특급
곳이다
##등의
나아가
전쟁의
발견되었다
일으켰다
소집
환승
##나카
1914년
타이거
효과를
##공간
##강의
국토
##족이
주기
##행이
프로토
AFC
Or
통계
167
로드
##활동을
넣어
추방
##해서는
맞서
상속
자금
골든
포켓
노르웨이
탐사
##공산
토론토
파트
갖추고
76
대동
도움이
보스
입고
##타의
##후보
##님은
되기
153
조지아
사냥
진학
##니가
길이는
내셔널
백제
프라
##법으로
이전에는
달려
신고
이날
위키백과에서
##식과
사용하였다
되는데
의정부
생각을
행정구역이다
62
##au
아버지의
일어났
Co
Wh
강요
재배
##란색
마무리
궤도
보니
##다란
돌아와
경고
토론이
동일본
사다
##범위
##타운
복무
##정치
96
장수
85
다운
시드
있었다고
3월에
110
사건의
##운동을
지향
다중계
이명박
아오
##pe
참가했다
미드필더
일본은
##레오
루마
와이
관리자가
73
터널
후임
##폴리
내놓
아티
전화
##계와
166
영구
일원
##리우스
미국은
개방
강남
비트
비롯하여
전문가
##행정
살인
창당
##가요
임무
있으면
##관광
black
사마
##서와
SS
##감이
사건으로
중추
플래
##용의
정확히
151
데뷔하였다
역에서
##남도의
보유하고
##비로
참여한
동방
벡터
새벽
##드라
##청을
노스
##용을
포함하고
##중인
##마는
일부가
155
3대
자랑
##건설
수상했다
개념을
예정이다
##이면
##야구
강릉
민중
찰스
내용의
사망한
어머니는
블라
이루는
3번
##포를
Col
광역
노선을
##대문
전쟁에서
발생하였다
일종의
##해군
대한민국에서는
##민의
대결
함경
2군
6개월
1951년
피아노
2번째
오키
##48
출전하여
스페인의
스케
잠수
##론에
서울시
프리드리
You
과학자
##류는
##스트로
다루는
##브라
2로
수요
##공을
##코의
##투스
도시의
비례
자원
##비치
코르
패턴
##호쿠
투어
##이상
##처를
방송을
명칭을
특징이다
소멸
양쪽
##았으나
참여했다
NH
사용했다
운영하고
적절한
구역
wh
성직
##열을
이자
창작
하여금
비판을
사도
##즈가
모바일
양의
우에
##왕을
하느
##니즘
결의
대의
심리
싱가
CC
오는
오카
이용할
바닥
들면
리스
마음을
수의
장소
##기인
##18
기여를
받았으며
걸친
그만
집에
필수
아래에
데이비드
군인
##주의자
이외의
복잡한
86
문을
전송
중종
##리칸
92
레닌
하던
##판은
기용
이끌었다
업무를
자전
코치
상황에
올스타
종사
지니고
유키
##한의
타임
대대
##개가
처음에
감시
복음
후인
가상
재단
첫째
권리
리처
이념
##공원
현역
##카의
##리며
유고
##우주
97
순간
근거로
87
세웠
표제
고위
달아
입법
##발을
도쿠가와
스마트
토지
67
별도의
독립을
##생물
##테쓰
패션
##아는
수도권
sh
권리를
주제
맨체스터
##하기를
59
라이트
부속
돌아온
소형
시조
1935년
철수
노무현
말로
##대신
##호와
최우
분기
##ick
게임이다
Te
규슈
발간
편의
우익
##색의
##되지만
조선일보
대장
당시에
과도
밀려
시상
선정되었다
개봉한
##청년
이유가
신의
예외
##형에
700
##200
##ton
##말로
##yn
##실이
연료
##린의
로마의
##조참
##하라는
유력
##환으로
##이치
정치인이다
재생
만든다
단선
기록되어
편이다
기록은
이적하였다
말은
##디움
대한민국에서
책을
##AM
관심이
가끔
##13
시카고
자이언츠
소방
##라에
모토
열리는
##다시
2층
##OR
조선시대
영향으로
##강을
172
이상이
곡을
##티오
##하겠습니다
##았는데
분야에서
수리
맞는
질문
##일리
해주
##하기에
수백
없지만
유저
협회
##비에
10월에
알고리즘
포함하는
원인
토벌
##크래프트
##어버
##공고
##위원회는
태양의
무관
태조
##방향
아버지가
공주
총재
코너
위로
마크
##르기
태어났으며
4대
77
독재
종로
청와
##az
##IN
##씨를
무대
세우
주력
파르
제10
완전한
화성
사양
영역
사진을
##스팅
##당에서
구성하는
부동
##BM
유닛
박영
에르
선두
##환을
##수이다
##사우
##종으로
물을
나타났다
1923년
대원
##토니
체육
노래를
Car
##보살
##즈를
연결되어
DV
서서
##베스
일으킨
말이다
##드레
##시기
##실한
경기가
영화는
전투를
스키
암호
적도
Me
지리
쓰러
주에
광범위
##시리즈
##유를
##려면
정식으로
제이
화합
##son
##되었습니다
John
왕조의
과거에
격파
##ual
##친다
##쿠스
사람들에게
130
출시되었다
아름다운
가마
고교
표면
##아이
초기에는
뮤지컬
##파와
1회
속의
##되거나
##ign
인물로
교회의
임무를
기본적인
웨일
추기
##문제
남아프리카
가난
기록하며
긴급
침해
항의
##14
다이묘
##ics
잉글랜드의
전두
센트
원하는
아니면
09
압도
소속의
##베르트
##ica
근처에
AC
##구역
무리
전작
1924년
번뇌
수십
전직
1931년
브라운
로스앤젤레스
뛰고
티베
##서양
##법인
139
여성의
경유
KT
##미르
##슨의
세상을
재임
##경기에서
##였는데
상하
원인이
의도
정부에
노동자
2세는
이라크
청구
##릭스
##피스
벼슬
##cl
대해서도
일련의
줄어들
##지면
##타마
1925년
보편
시인
프리드리히
허락
##도서
BBC
가치가
갖는다
디스
수영
이행
웹사이트
이웃
##했었다
1928년
병원
시사
##되게
밝혀졌다
사우스
##기구
##sh
자료를
단행
멀티
서구
텍사스
##학은
산하
다리
이은
파워
12월에
적어도
유나이티드
##모가
1921년
의미하는
89
구매
##계약
남쪽으로
크고
마드리드
발휘
##공신
남아있
막기
##하를
##거래
이어지는
개량
##베리아
##퍼스
부담
최대의
복구
파크
##고시
사건은
법적
at
약칭
성공을
##니치
증언
##속에
##세대
##관계를
나뉘어
Man
부상으로
자라
##로써
##비히
정책에
체험
데뷔전을
김영삼
2루
1934년
의미가
인구가
##배우
몸을
##단에서
주장이
30분
9년
와서
##차에
##렸으며
호는
##IS
사가
78
가까이
정통
상태를
군사를
##amp
브레
##대사
이들이
구원
모터
데이터를
##가능
만들기
기재
후에도
##ology
강하게
남겼다
위상
##row
##able
추대
착용
해리
##포로
##이라고도
상을
##계열
연구에
World
소리
##ium
##국과
##심이
사람들
스프링
##집을
신도
##정도
##위원회가
화이트
강등
세부
##공의
세계대전
사회의
크로아티아
복원
비정
열었다
당나라
번주
지불
1907년
불렸다
비잔
나타난
등장한
지구의
that
변신
분해
십자
올린
##렬한
미국에
이르렀다
수호
146
반응을
언덕
2017
9월에
한반도
맺고
1호
84
성격을
폭력
##결승
더블
좌익
커다란
맺었다
화장
메모리
신화
소프트웨
죽었다
진격
##무네
##프랑
토론에
바르셀
ST
지칭
##타가
대학의
Se
고급
교사
대변
서쪽으로
문화재자료
구사
청주
사람으로
관련하여
요미우리
##되던
공용
대다
화려
출연하였다
리그에서
여겨진다
만다
##imes
이끌어
실천
6월에
동쪽으로
엑스
##천만
##족은
포켓몬
##지마
사용하지
대로
유통
프라이
##실로
##ree
폴리
도미
##ole
수소
##모의
북쪽으로
유용
##비트
##mp
되었는데
레벨
정조
철저
기능이
이온
게임의
##ink
그렇다면
블록
행렬
##지사
##그램
##ous
UN
##시스코
##치기
##족을
사찰
포트
##총리
공산당
수준의
회수
##장관
##평을
위치에
순환
영조
16강
상태가
급행
높다
가면
18세기
1억
##리안
##위와
##제도
이상을
##ail
4월에
충분한
08
로서
##중한
나타내
게다가
섬의
하기도
##목을
하나가
곡은
명으로
영혼
허가
##소설
##유가
기도
##았지만
많았다
방정
##코스
Chr
##0만
경남
##번호
오늘날의
계정을
그동안
것이고
위키백과는
커뮤니티
4번
Kore
붙어
수를
##17
2세의
물려
영토를
금메달을
경향이
에드워드
군대
##하에서
1922년
El
고객
공화국의
방언
성균
죽자
##장애
##에게도
민주주의
내는
시달
중에서도
##타카
##rak
맞춰
##고자
세계적으로
영국에서
##연한
방법이
##학에
서기
철거
요구하는
변호사
떠났다
만난
##토미
##투아
##코는
##령의
세력이
##으로도
상황이
이른다
도시이다
거느
백성
인상
대부분을
OS
주된
##북도의
마음작용
클라
조선민주주의인민공화국의
94
디스크
본다
이세
활동이
영화의
발족
역이다
##AD
7월에
이미지
##ID
##내의
굳이
달하는
신칸
양산
##에서부터
5월에
11월에
세리에
구성원
보냈
팔레
##초에
스승
코스
어릴
현급
1917년
그리스의
1905년
프로듀서
6개
자가
저도
##나마
not
간에
##다의
La
Fran
무슨
않기
적을
위키미디어
조건을
맞추
작품으로
순서
영문
산화
식으로
##수도
닛폰
지바
가속
담고
지중
성능
University
속도
우리는
한국인
태국
들여
중시
혼인
from
가슴
남녀
8월에
인기가
174
기병
발전을
##실에서
죽음을
##권과
##정과
승부
##되었다는
이용하는
1세의
코로나
출연했다
93
##름이
##m의
감독은
부르고
현상을
##토를
##isc
공장
##자이자
시작했고
운동에
코파
##IC
##나요
ph
도중에
오이
프로그래밍
생기
성경
오버
##키퍼
불가리아
##방이
모습이
모델로
성과
배경으로
흑인
##리티
##목에
시절에
개척
사기
중지
태종
벌였다
집을
##브를
대한제국
인신
장르
하와
탑승
##ED
미국으로
남긴
였다
신칸센
04
남극
##해에
축소
##land
##OM
##훈련
꾸준히
보스턴
사립
이즈
참가한
데뷔했다
##된다는
작곡가
이로써
나이에
집필
##미사
보이고
##로에
발표된
개업
##절을
주목을
##고로
2003
발생했다
곧바로
그들을
콘텐츠
##대장
선거에
원주민
거리에
점은
##자였던
##율을
보여준다
2위
연락
##역과
2018
아니라고
##위원회의
Wik
갖게
대법
##문관
##본부
##당으로
실제로는
소득
일본군
1929년
149
일어난다
##드리아
날짜
화산
공기
마주
잡고
##ict
프로그램이다
PD
소요
##중을
##로지
##안전
##학자이다
##연구소
회피
##가시
##영이
##AS
루이스
연간
재산
정권을
개명
코믹
##세한
포함된
야스
입은
##스와의
##ix
##라고도
My
소위
##니스탄
모음
목포
칼리
테마
##감독
1927년
##ox
##데르
일본이
확인할
상대식
##시스템
##견을
번호는
우수
라이벌
##ime
건의
지목
##오고
골키퍼
주어진
장면
미나
북미
##물과
1926년
문신
입사
라이온
졸업한
시게
Su
분자
##ose
전두환
옛날
전체를
연안
들어간
DVD
아동
안타
##치오
스타디움
상의
##소수
않았지만
가설
수익
리그의
때마다
##왕조
##bert
##사상
##배를
생태
카페
##행성
영향력을
주석
일상
##oth
타입
##까지도
2회
싸우
발표되었다
전향
사이를
아이템
사촌
##문과
##클리
관계는
##ystem
가야
입증
##카드
##AC
169
올림픽에서
콘스탄티노
text
82
레지
전의
##이게
매장
선호
방위
##청의
##된다고
예산
준결승
##중학교
##oci
남한
누군
상주
##페르
##보다도
##erv
이름이다
##특별자치
2학년
pr
##머리
있는지
##테이
역임하였다
서재
그곳에서
따서
위안
##우라
자신은
##하겠다고
루마니아
서북
##란을
Comm
게르
농촌
##래의
##청은
석유
##체인
##힌다
구체적인
복사
##투표
용인
##색으로
##anc
공원
마감
##하면서도
HD
정수
이정
전부터
포스트
##TC
##ance
베이스볼
조선총독부
합동
우리가
의원은
크레
참가하였다
들은
셋째
생각이
##났고
차지하고
##당하고
식품
##비와
##px
##침을
관계에
위원회
##너스
##ps
여동생
##레나
주재
##이라도
##시장
##비시
엘리자
삼았다
해발
##PS
##됨에
##att
극복
금강
밝은
없었던
역사가
내지
1일부터
특징을
북아메리카
보이며
창간
##amb
교차
콜롬
호남
올라가
농구
못하게
교섭
SN
초청
##환경
이론을
원시
##나게
##하셨
##바의
경전
신규
직무
작품의
사랑을
반달
##ions
전남
##kg
##oll
바이러스
그럼
일대
현존
##모는
##토가
##ool
Cent
##자들과
1월에
변화가
수반
크다
리처드
반박
여론
##고에
고리
보충
칠레
##러는
발언을
클래식
옹호
설립한
원자력
오페라
69
가쓰
감옥
화가
##ject
열차는
문재인
07
히트
##보면
##스트라
또다른
서일본
##식이다
명칭이
음성
##더스
능력이
연애
##목으로
국가가
동영
받으며
##are
얼마나
바가
##중이
##노미야
##말을
의미로
객관
기구
납치
자매
MV
고안
별도로
유입
이종
##ans
아니며
공동체
개장
없기
전술
조치를
##민당
세워진
유전자
성질
약탈
후의
##편의
##니와
심사
주변의
그려져
##보통
##주일
공개된
##집합
##령으로
들어와
부유
생애
안양
상호작용
뜻으로
소화
##밀한
설치되었다
곳이
트럼
##가락
##대원
147
##reat
센트럴
br
대단
외무
##년에
에너지를
##토는
Comp
참모
##성현
##주었다
된다는
배열
이순
시간에
노선이
손에
억제
##Pa
##크와
아메리칸
거대
##erm
상태에
프랭
플레이어
드물
##팀이
된다고
도호쿠
보험
성의
해설
##EN
##실에
##끼리
##ild
강을
시모
출현
##님을
##황후
##form
##마자
##00만
문서로
사형
일곱
대칭
유대인
말해
삶을
소환
잠재
##하가
##프와
보여주는
개체
김해
세우고
##ax
1908년
SM
##유산
신사
예로
오리지
결정을
막아
##노스
3번째
회사의
##의에
##활동
정부를
습격
##단계
##ey
좋아하는
삼아
적응
##보기
##66
##렸을
실시된
안드로
지었다
1906년
오디션
올해의
트위
##청이
이어서
PS
마치고
소스
수직
##프라
144
생각하고
전형적인
전북
그녀가
대학교의
대지
불편
중성
혁신
휴대
##건의
##마가
간접
계층
시가
섬에
충족
##문서
제13
라틴어
근육
병력을
##아웃
##졌던
집에서
책봉
##주고
중국에서
이야기가
급속
독점
모집
재료
하인
호주
##성도
동반
성과를
##reen
##oph
바르셀로나
겸임
하다가
바람에
Is
맞지
17세기
비롯해
심지어
83
사장
차단을
기반을
인터뷰에서
걸려
황제의
돌아왔다
드래곤
담은
라운드
##기이다
##적이며
자동으로
3개월
메트로
방면
영원
##ET
##ert
메탈
##도니아
##양군
성공했다
주식회사
데려
크리
미국인
깊이
빨리
정치인
알레
조치
사용해
##즈와
15일에
주요한
토너
피터
필요로
##오가
곳은
실수
##하라고
##ata
Ge
호흡
##용이
지원하는
송시
##아르
생각해
자유를
기부
측근
##학회
##수산
불리며
무산
##티움
##법과
##상이다
##피를
##달러
들이
부처
황태
##형과
103
1912년
목숨
문서에서
영화를
##생활을
하더라도
##ations
반경
질량
##군에게
클레
##나라는
##사기
##분으로
##병원
제17
us
개찰
크루
파티
화폐
##즈니
Intern
##카는
##시대에
에피소드
Fr
##법인이다
##화하는
기하
당한
카라
##iel
사막
찾을
총선에서
거리를
입었다
전원
##인물
##트릭
빌보드
상실
인천광역시
인류
발생한다
이유를
일찍이
마산
101
간단한
SC
활동에
30년
땅을
클리
##주의는
기동
의사를
평소
##gr
##습을
세계를
남아메리카
공무원
colon
말라
유발
후퇴
3학년
수감
3루
복수
서명을
성종
시마
##보이
##천의
##폴리스
##frak
골드
사제
장례
##절한
##나를
mathfrak
아리
##백만
2002
등도
없애
##enc
##ement
가해
지연
포함된다
탄소
##오로
경우를
아예
했다고
콘서트
위대한
##브로
치렀다
##pp
않는다는
##ise
종결
##지니아
##교도
조선인
배제
수술
외계
이화
1950년대
1904년
##양이
구체적으로
06
For
조기
죽고
처럼
##통합
##권으로
##종합
##fer
1세는
열어
이마
##세와
##슬라비아
준우승
15년
올림픽에
놓여
선제
패러
##크스
이외에도
거친
왕위
하시
##제르
##작으로
구로
수밖에
의거
##리언
##yl
결승전에서
대승
공식적인
아직도
달의
모순
주세요
2019
생각하는
들었다
AM
공략
어두
이하의
입대
##ius
##igh
라이선
그리스도
인도의
접한다
##구조
##eth
법무
유튜
모험
선형
##식에서
누가
##하러
##프란
블로그
콜로
##들인
##생으로
스웨덴의
감각
말한
유격
혈액
##초등학교
부르기도
관하여
교향
##미아
##림을
##살이
지역이
출전했다
12년
pl
##다니
살아남
오리지널
천체
##졌으나
구간을
분명히
간섭
개성
르네
보좌
요금
준공
##브레
출처가
곳을
유아
베네치아
Ed
이치
탐험
##율이
자유롭게
##ubl
베어
항일
##시절
##0km
지방에
동맹을
않았던
파트너
당했다
본인이
없었고
추적
구간이
북한의
cl
맞게
버튼
사헌
조항
##슬링
조직의
지나지
교과
빌딩
사로
아케
##라브
2001
143
계획이
가즈
##등이
##슬로
##비디오
사용자들이
운송
이복
##누리
이어졌다
##학과를
엔터테인먼트
해협
##츠는
##마루
2대
판타
##등한
##출판
있다가
##out
기준을
가치를
레인
비서
예방
결과가
con
고민
싶은
##우스는
효과가
최우수
레이다
본명은
소리를
작전을
역사는
SF
레이블
콜롬비아
존재를
공간을
싱가포르
싶습니다
##22
역의
촉진
최저
##소한
스테이지
범주
000명
공동으로
블라디
김규
##클레
05
font
순수
##졌는데
##국인
마그
모노
연설
##격이
결심
적대
##야는
##병으로
##전자
##점과
##하였을
미국이
급격
않도록
약간의
영주
고고
소규모
아베
아울
일로
##바키아
##면서도
플로리다
퍼시
빅토리아
정원
크라
아니지만
임시정부
##용은
계열의
발명
허위
밀라노
중이던
차지하는
우라
##국토
아사히
거둔
아프가
압축
주제로
한양
##리자
##갔고
It
are
데리고
서방
앤드
이광
79
유적
측은
따르는
월간
##번뇌
##사이다
148
##ave
인증
무기한
동지
발렌
브레이
여운
##우에
2월에
실업
##학자들은
가질
근로
로렌
1896년
스티븐
착수
##int
직접적인
규정하고
잃고
##드러
##심의
클라우
##리온
##분은
##그래
모습으로
타이틀을
ad
##코가
유고슬라비아
막부
##트롤
##홈런
영국과
##광역시의
로그
아웃
출력
##등급
EP
명단에
부통령
실내
용산
정벌
##und
첫번째
필라
파생
참고로
un
##탄을
##파에
신뢰할
석방
해병
##어에
##치며
극단
놀라
명종
본인의
석사
의원이
이토
캐나다의
관계로
이르기까지
경험을
추락
1900년
11년
게재
압박
##령에
방향을
권유
나라를
부족한
관객
보인
##라이더
하거나
##레는
스크린
북극
여의
##let
말하고
친선
클로
로맨
아래의
벗어
합리
운행을
공개되었다
Love
목적을
통칭
찾아가
매니
##주의와
몬테
##졌지만
특수한
테크
##안타
대학원
명칭으로
아틀
주거
##연의
##층에
때도
위기에
##후에
당의
쇠퇴
이수
##니카
##미술
거기
읽어
접하고
가능성을
마찰
반사
##제에서
용어는
##니스트
담당하는
멜로
두려워
03
구상
행복
##ina
종교적
3D
마스터
많고
연계
##츠의
##르바
##투쟁
아프가니스탄
불렀
얻게
##면과
##렸던
되었다고
중동
##OC
되기도
못한다
것인
손자
쇼와
유인
##놓고
##ru
Mus
견해
동시
동서
구성된다
KBO
매각
가시
검증
커버
인물이다
앨범을
찾는
##산과
오염
##함은
##AP
2만
또다시
미네
##즈키
War
그랑
애국
고조
옆에
##출을
익스
초상
고가
촉구
프리미어리그
1학년
동경
뜻이다
전임
카메라
##안군
##하자는
##족과
음반이다
건물은
서독
존중
학사
협상
##교가
위키백과를
동아시아
아티스트
다녀
##쳤고
이루어진다
독자적인
당해
대우
심한
초래
##발전
발매한
국경을
무조건
캠프
##석으로
##IT
##ES
들어온
제15
개최되었다
분야의
무효
아는
일환으로
##회로
##해지고
먹는
하사
##건이
악의
착공
크기가
##장한
동기
##문으로
##오와
171
아닐
어드
사실은
뮤직비디오
4강
it
세조
승차
##하니
미치는
그라
한화
##시스트
##사용
##베리
##디는
아니었다
제12
부착
파울
일본으로
사령관
못해
수수
##슨이
토착
##으로서는
김동
##데이트
결정했다
All
1부
다룬
범위
##게는
##파이
사람에게
스트라이
아마추어
Ab
옮겼다
호환
##세기의
##간을
##우치
각본
##재로
##리타
우승에
무인
본토
이긴
작사
과학적
일관
쾌속
MVP
덕분에
별다른
알리
종이
언제나
막을
발효
##자나
크로스
망원
전망
크기의
##lect
최근에
##직에서
##ark
138
##ames
학교를
유성
히어로
원자로
전승
주니어
쪽으로
##우스의
규모가
자세한
역전
##마저
##습니까
배정
섬식
##체이다
수록되어
이익을
자격을
##내에서
운동이
계곡
일명
##류에
On
##정적인
##나라를
활성화
거슬러
당연히
몰락
135
루트비히
수업
우연히
유신
cont
간부
떠난
도시를
말할
분산
사랑방
02
우수한
응답
현대의
##님께서
닌텐
##지구
##애나
1911년
자체를
htt
피난
힘이
##동물
##측의
##리코
##이었는데
운행하는
최근에는
And
두산
약한
여부를
포인
##루미
브라우
그렇지
##보험
차지하였다
##리케이션
13년
나선
리투아
순위
구마
비틀
대처
발전에
##고한
내용에
비잔티움
못할
연루
카자
##한을
##노의
##왔고
입단하였다
나섰다
##경기를
문화를
냈다
시절부터
기념물
신라의
중순
해적
##리브
##나르
##십시오
250
후반에
자리에서
돌파
시를
제네
##론과
인간이
일방
##스톤
##병이
알렉산더
공민
웨이
파키스탄
##도사
사고로
개화
되었으나
김일성
되찾
##보로
##마에
##았을
형성된
본선에
살았다
유소년
입문
한강
현종
에스파
윤보
차이를
박물관
des
맡게
모래
배급
이지
장갑
##ated
다루고
거론
입니다
특성을
##백을
##들과의
##자이너
고베
내장
붙잡
##oy
했다는
Fl
계기가
모로
안의
##등록
##ron
사용자를
선거를
실종
태도를
##단이다
프랑스는
졸업했다
그들
설이
구간은
지나치게
보르
##장히
##국어
득표
들을
고립
매개
목적은
밝혔
##OV
10만
때문이었다
지속적인
수신
##enn
들어오
제후
##포스
결과로
인물이
노선은
##own
모양으로
닥터
물이
조용
케이블
부패
##카미
##AL
불만을
##작을
임명되어
특허
##민이
##iam
##플로
지지하는
드러나
아즈
##받지
##eral
스타크래프트
마틴
체제를
초창
##속의
업데이트
오케
차남
책은
##주인
##령은
과거의
일행
##되었기
##주의에
라며
##히고
안토니
최상
항구
##류로
##색이
##하려면
빛의
후지와
구미
부장
독일은
개발을
활동한
1895년
전통적으로
Christ
##석에
##생이
##ai
주변에
마카
평론
필립
시대에는
주축
##회와
문화의
기요
대폭
모르는
빛을
##향을
대회를
곳곳
하노
##의원
mathbf
성균관
61
얻는
##보니
##마쓰
요청합니다
천황의
문장
사직
야쿠
항해
##버드
아르메
밀접
##란이
유럽에서
상무
지내고
##성에서
바이러
나의
남양
종전
테오
##급의
훈련을
마친
무대에
최대한
##드르
##프스
##ors
글이
퍼져
않았으며
기호
심장
##놓은
##였다고
BC
대만
모드
밖으로
지어진
송시열
무료
토대로
못했고
홀로
##정부의
##둥이
비공식
고지
메모
무력
시범
한겨
국가를
근거가
##모델
##바다
수상하였다
##하겠다는
본격적인
겁니다
겨우
뒤로
명성을
미시
본선의
있음
진술
흐름
다음으로
점성
##러리
##교는
##레이드
173
역이
협박
##관찰
##차원
사무실은
고쳐
명성
##받침
사람이다
규제
날개
뒤인
듯한
박헌
사적
충격
피렌
##반을
그리하여
##itt
전체적으로
부정적인
자전거
##시피
125
문화적
방식의
##프란시스코
##전한
##려서
##진흥
개인적인
정확하게
Hist
경력을
고통
왕자
포유
##졌을
##실과
##raph
획득했다
##션을
강점기
가득
메달
소닉
##터에
##ots
아울러
눈을
분데스
##하르트
##II
141
서울에서
히데요
가공
랭킹
수천
##처리
##uro
##클럽
영양
##FF
끝으로
내부의
일원으로
##함으로
대회는
건담
대조
바티
분이
사상을
소관의
##하자면
멤버로
중계
페이스
기여했다
어울
유물
##보가
대학에서
강경
산악
16세기
우리나라
회의에서
고발
선진
이슈
일본에서는
제14
AS
현상이
##ale
시스템은
As
숫자
지명을
##공동
##ash
대신에
유출
친척
##소리
고려사
##있고
유지하고
자체는
자발
##터로
끝내
##ML
Sou
한국에
주장하고
참여하는
이곳에
샌프란시스코
##투를
분데스리가
나이트
자바
##공격
##으려
##ym
##악의
##판으로
105
시작해
계획은
야기
와카
##어에서
##복지
##지방법원
레코드
Will
강풍
그랜드
##체에서
나가사키
##ake
정말
##돌프
이에야
조약을
마르크스
호칭
##각형
142
폐지되었다
##스테이션
동굴
시작했으며
출처를
이의
정해
차기
##니에
##반의
그러므로
것인지
버리고
##미와
##조약
학생들이
가라
대외
##조정
##산에서
##pr
지역과
원내
##대상
##ble
##타와
세계적인
유니폼
그레고
말하며
좋겠습니다
##시다
원래의
제국이
##팀은
포함해
제약
축제
##공학
##set
그림을
이외에
막대한
여왕
##중에서
의지
친정
하야
##트랙
##플러
20일에
기록하는
개념은
운항
코리아
경부
3위
면역
흔들
들어가는
CPU
서서히
살던
요약
폭격
##기능
하나를
우루
최신
##강점
##린이
방법이다
값을
보잉
타워
세계에
136
14년
DJ
상임
황후
##ode
공룡
무신
예루
올바
지질
토막
##hel
##프로젝
71
##주쿠
##베이스
제18
부탁드립니다
91
##있으며
애플리케이션
님이
저택
##편으로
보내는
지대
##유키
11일에
라이프
##기관이다
거기에
경계를
스카이
일에
##인들에게
머리를
의뢰
적의
제도의
8개
기사를
내내
삼고
싶어
##통일
##보병
기록에
로부터
영광
##안으로
주문
디자이너
버지니아
플레
##비행
##론적
##uss
표현을
##등에
##uk
주파
진짜
##성한
5개의
Amer
매주
사토
초등
##져서
양키
##원숭
##신과
##ii
일제강점
김옥
열고
지표
##페이스
도쿄도
악화
해상에서
##아를
MC
면에서
무선
미분
보완
##화에서
순조
좋을
##편이
제목으로
사관
##중이다
##현이
##학교에
전투가
소속되어
전해진다
생기는
사용을
경기장
##oug
차단된
오키나와
2위를
에이스
##항은
원로
운동의
말고
명문
번호
분당
없으나
전에는
크림
##종이다
활동하는
획득하였다
5대
왜곡
위치하며
디아
하우스
##발의
제외하고는
다가
서남
트라
1913년
마라
이원
##민은
서재필
다큐
운반
현장
##교회의
##ade
참가하여
지배를
경북
##ank
조직을
일으키는
조사를
##보의
후보가
1세가
법학
부과
시점
왕립
진영
표명
##결을
개발된
않는다고
Gl
써서
오가
##임은
##정원
##심한
이후부터
프로그램의
서해
텍스트
흥선
연속으로
##조판서
리버풀
달린
선을
학명
##티스
##연이
##IM
마쓰다
맡았으며
##였기
##풍속
중심기압
각기
나갔다
머무
Vol
쇼군
##환의
지정되어
일어나자
시점에서
초점을
역사적으로
25일에
그녀를
성공적으로
조건으로
스틸
캐스팅
##ook
##해왔다
요청에
제공하고
스페셜
연고로
막내
며칠
모으
신장
통근
##노는
돌아오
최종적으로
1선의
관점에서
화면
##판에서
중심의
Am
갑작
중구
쿠바
##음에
이미지를
목격
대통령을
실험을
아파트
백과사전
예루살
노태
원형
후일
##oon
모양을
퍼시픽
Gu
융합
이건
주한
포인트
2세가
한쪽
시절에는
스마트폰
흐르는
##차별
국가에서
Eng
아들을
야당
##양의
127
##ins
자신에게
방송국
발생할
방식은
결혼을
이곳에서
비스
스트럼
발레
부흥
시켜
신하
역과
게임은
고려대학교
졸업하였다
자손
##편에
##가루
International
그다
벨라
##회담
문화체육
미나미
새누리
침몰
팀에
포괄
137
민주화
National
급진
메디
총선거
사용자에게
가요
상영
##업에
##금이
1909년
일시적으로
##적이었다
##지기도
##TA
보살
풀어
개혁을
뒤에는
##리라
사용하며
SP
풍부한
기생
주에서
네덜란드의
도메
##범죄
##수사
##폭풍
정부와
중심지
시대를
의병
##수인
쓴다
일도
##리시
##달라고
생각했다
참여하여
목숨을
교수로
중력
##있던
연방의
쓰지
언어를
올림
##기준
##우와
Ind
두번째
찾기
한국전쟁
기록하고
중심이
추가되었다
기각
남기
브로
##럼비아
강제로
평범
##기획
##인사
사용하기
가능하게
##chn
실시간
나오지
2부
나열
도구
없어서
기록하여
연세
112
사이가
메가
오세
것인데
착륙
##롤라
##박스
10대
건너가
마케도니아
Ne
관통
대서양
러브
주말
##스에게
##란의
당선되었다
내보
양도
회담
##스피
##앨범
##ley
가지게
군사적
DS
부드
##건은
##천을
형태가
Gen
단축
윤성현
##희는
기업의
티베트
콩고
##소송
기술이
이론은
MP
신용
주소
##곡은
##편을
제국은
1루
병력
이인
인텔
포함되었다
전체의
유튜브
김포
저널
##한테
사용이
공의
청동
##텔레
다음에
하였는데
끝나고
무죄
##지정
시스템의
다이아
IT
공직
봉사
수단
타카
할당
##로미터
##액을
뿐이다
이오
아우구
3회
내륙
좌파
중도
조선왕조
시라
이준
##코프
거주하는
We
교수는
이노
모두가
중국어
남기지
왕비
취약
##항으로
##붙여
30일에
Char
그리스어
엘리자베스
귀환
전라도
피신
##분야
늘어나
부른
중복
해임
어렵다
진정한
##리면서
##터와
##류와
##긴다
##됐고
교차로
마오
의장
##석기
##제품
##규칙
강희
##이즈
##여객
도시는
기자회
트레이드
비로
폐기
내외
부수
##니를
128
선교사
대답
왕으로
자식
편리
##ife
NHK
짓고
관리하고
중앙에
이듬해인
Qu
보상
빌헬
##센트
항공기
군대가
미카
##네의
##모로
##바이트
##켰다
##메르
##필드
활약하였다
뛰어나
경력
반환
얻기
푸른
##으로의
스토리
Bar
WW
자율
대회이다
보호를
하와이
같아
계몽
대주교
이영
플라스
환영
시즌의
걸어
잃은
편지를
전투에
1894년
투표를
군수
박탈
양식
현행
##권에서
1930년대
리드
외의
108
##ition
81
간다
시기의
예언
##온은
정보가
브라질의
대책
도심
서브
쉬운
##설이
##0m
지원한다
동남아시아
베타
실용
아가
##현은
16일에
제11
근처의
개관
메르
변수
이스트
##가에서
문제의
제19
초반에
직통
토마스
합법
##자였다
##님과
분야에
노르웨
CS
무라
무려
##올린
오빠
정도가
##대책
##무기
바꾸었다
성격이
임신
##진과
인구의
되었지만
##ution
세워졌다
거리가
로빈
북쪽에
전념
##진에
##억원
##때문에
방영된
##무가
##식품
##필요
##oly
und
도서관
한나라당
1층
두드러
##일과
필라델
득점을
복지
정렬
##치면서
##겼고
IM
박쥐
특유의
관련한
##대학원
보지
사카
투수가
##능력
경험이
한겨레
6개의
캠페
피고
##중심
##보에
수록된
물리학
모니
황제가
##대교
##더니
연구가
22일에
문화체육관광
쌓아
##유는
처음부터
제16
##ings
1915년
국가에
음반은
김구
날아
보다는
왕위를
##위대
##받을
프로그램은
출연한
형식의
세이부
한동안
되돌아
김수
백인
##스컵
자신과
중간에
알바니아
점이다
대신하여
곤충
긴테쓰
올리는
재무
추증
##IV
있어서는
스톤
##ott
##ific
지중해
권고
댄스
01
AD
요소를
리듬
##곡이
김용
싱어
##본은
##패로
프랑스에서
이어져
요구했다
결승전
메타
팀인
##증이
연구하는
100만
7개
AK
김씨
드림
##과도
리투아니아
끊임
전역
##tic
##바시
##것을
나아
스리
신속
10일에
조선인민
주장한
발견했다
응우
전인
##널드
차례로
4번째
땅에
체크
총괄
##자도
26일에
심판
##직한
인근에
전례
컨트롤
풀려
##재가
##의정
입단했다
링크를
##업이
##로동
##제국의
##명인
사고가
##번에
##것이
아이스
노력을
주장은
##시켰고
움직이는
김재
만났다
##23
연구는
지방에서
출신이다
##학자인
구름
이메
플루
##조와
##질로
연구소
1916년
지금도
아버지와
속도를
절차
조반
해군의
가수이다
외야
있으
##률을
##청에
##글라
분쟁이
화려한
공사가
##률이
##구요
111
사로잡
민속
법을
손상
의문
##que
##팩트
제200
일어날
관광객
근접
몰려
뿌리
스릴
시키
##우며
낳았다
신흥
장편
진출에
최소한
목사
몸에
무슬
발라
총의
##당하였다
대한민국은
제시한
에디
정교회
사용자토론
##연구원
Ag
두루
모형
하얀
##까지만
선수들이
과정에
##iew
FM
미토
세균
창시
채로
황해도
##카스
결과는
앨범은
차원에서
##형태
고도
앨런
언어로
지혜
팽창
현존하는
역에
정류
##르와
##수엘
113
감정을
왕족
지각
한미
##금으로
맞추어
메리
포털
##스티벌
임기
적색
코치로
##과이
일본을
1천
LC
트윈
2000년대
활동은
다큐멘
관해
클린
발견한
누르고
죄를
창건
비판했다
중화인민공화국의
##ower
부르며
프레임
고무
##대회에서
##테스
데뷔를
동구
협의
##게이
##여래
##port
##변을
10개
목표를
공학
공사를
공간의
위와
##히로
어려움을
보스니아
관장
구제
궁금
라트
비즈
수렴
통용
파란색
##하세요
출전해
만나게
Pa
받기
세로
역설
학부
##원들이
##닉스
과학기술
꿈을
맡았고
재산을
##동에서
##중에는
##플라
프랑스와
직접적으로
출시된
교외
전제
주도는
##재의
##타나
생각할
결과에
최대풍속
누르
토머스
##yp
않았기
마이너
감지
미스
본인
형식을
##클린
28일에
특징은
이벤트
내린
멸종
신한
후기의
102
17일에
그룹의
ab
하천
화살
##토스
##회장
##ery
분리되어
내야
전성
##쪽으로는
이루었다
가난한
사료
성질을
육성
진단
##ican
시나리오
##즈에
##금융
12일에
000명의
스파이
할아버지
에스파냐
Ass
밀양
##음의
##두는
선발로
선언했다
NC
겪었다
광해군
순천
체계를
##군사
##받는다
##pen
##숙한
한국에서는
21일에
민족주의
경향신문
숨겨
이틀
주제가
##석과
되었다가
아르메니아
공무
끝까지
넣었다
적어
채워
상태이다
거느리고
다니는
시즌에는
판결을
엔터테인먼
신임
제수
프랑스어
발견되는
가미
##량으로
독일에서
이상으로
알려지지
몬트리
영남
##준은
기존에
유니버
기체
신중
##고쿠
##번을
##스러
##짜리
##사태
건물을
##기관으로
바그
성은
재발
##호선의
사이버
수행하는
부사
남쪽에
쫓겨
##케이션
##가스
##임에도
이적했다
Har
각본을
쓰인
통화
##40
작품이
사망하고
어려움
둘러싸고
IR
김태
난징
매사
미얀
세미
이글
주어졌다
펜실
##선언
독일어
후쿠시마
끌려
자를
전선
제자
추상
##열차
##았습니다
##바야
성공한
담당하고
900
미노
27일에
##ther
전자기
마리오
오해
원산
##이면서
##마치
##오를
있었다는
활발한
동독
법원
##수수
##타임
진행된다
2007년에
정책과
##사령부
실질적인
new
단기
안산
##야가
##경으로
청와대
김상
사격
어휘
접수
힌두
##티는
2004년에
개막전
##관리청
벌어졌다
석탄
##af
시작된다
방식이다
권위
배틀
에릭
펼쳤다
3만
놓은
안보
타운
##속으로
##팀인
인정하지
강연
동년
전염
##란다
##음으로
설립하였다
당일
창업
최하
해명
히가시
##시타
1996
세계대
활약하고
확실히
분배
섬을
##포트
몬트리올
아리스
프랜
후한
##시에는
##GB
주장에
덴마크의
경비
군대는
비가
속도로
정찰
##ward
##산성
##진으로
##익을
##ese
조선에
물리적
사단법인이다
르네상
edit
발의
##음은
제작되었다
##red
구조로
열대폭풍
가사
오클
커피
평등
##리크
##수아
자격으로
무슬림
과의
보강
##번대
18일에
2005년에
원작으로
암컷
총대
##본이
바꾸어
갈색
미소
사사
##랑이
시작되어
##alk
영국은
대구광역시
중재위원
소재로
Res
힘든
전투는
도움으로
김옥균
2의
시즈
영역을
쿠르
##화학
리그에
빌헬름
외곽
충격을
##해지는
##수로서
##블로
##씨와
참가하고
건물이
##적이지
##군에서
차지한다
적합한
나이가
다음은
근거를
넘겨주기
Rec
난이
외래
위임
증기
차트에서
##매치
필요는
스트리트
민영
불필요
시칠
측면에서
투구
호조
##시부터
##추세
##주년을
trans
왕복
##크에
##정당
등장했다
신념
온도
일조
##곡으로
##서도
##경과
시즌이
아시카가
급제하여
프로토콜
브라우저
스릴러
가벼
남부의
우리의
죽이고
치열
화제가
##달아
##ral
사이에는
관리자의
##스테르
ISO
아트
##하였다는
##ates
사회에
봉해졌다
속도가
에스토
영어로
해운
호르
##렸으나
내용으로
구조의
리스트
수컷
정한
필름
##불교
##온의
##때로
일부로
제2대
베네수엘
다중계정
##서에서
연결된
추정되는
조금씩
몰래
무승
배를
##해진다
경기에서는
계획에
항공모
정의할
Korea
가다
문법
알라
엔진을
##스런
##간이
##ater
차지한
방식이
불리기도
사우디아
##위원장
##집니다
##레의
누구나
기아
제휴
중소
지식을
피에
##금의
판타지
밑에
밖의
여신
왕위에
##카타
대학에
마음이
꼬리
노비
디즈니
신비
123
되었을
이루어지고
내리
투수로
##카르
방송된
디젤
페루
##21
14일에
치료를
가마쿠라
옮기
전쟁으로
뒤집
용이
##적에
23일에
어려서
중의원
내고
무소
작센
춘추
##그로
사이클
제외하면
##금은
13일에
##ute
북쪽으로는
흰색
##겠네요
##해방
발매했다
구조는
아들이다
신청을
가짜
오오
옷을
추모
##황을
##매를
지역이다
빨간색
광범위한
김기
별칭
주시
직선
##세스
자본주의
TO
평생
##시민
##트르
실패했다
16년
입원
재능
이라며
곡으로
미치
스핀
염색
때문입니다
29일에
플레이스테이션
식별
진행된
사우디아라비아
복제
시기는
##합을
기록해
있었습니다
여기에는
프로젝트를
subset
기지
신생
파리에서
##산면
2인
관직
##목의
2006년에
동화
아나운
부품
##현을
##인들
차단이
프로그램이
기간을
comp
지냈으며
시드니
TH
국어
도카이
##방에서
##렸는데
1999
서쪽으로는
동래
때로는
무용
아비
장로
트럭
##타케
##함의
기간에
받았으나
행정구역
말기
반면에
용의
적혀
진나라
했을
##코쿠
##해주시
##셨으면
어려워
게이트
무상
즉각
##자원
##현악
##해온
때때로
성벽
여행을
일는
있으면서
재즈
학자
향한
##전선
설립했다
토막글
나올
단어를
##공이
##키와
##러가
##해양
##stit
남쪽으로는
AR
괴롭
병역
아세
줄여서
태양을
때려
소수의
승인을
여수
최후의
파운드
##재는
##쪽의
아버지를
후보를
파일을
뜻의
아폴
##어지는
##마리
##TS
권한이
118
아이를
개인적으로
불교의
도착한
어두운
참여하고
고려의
언급한
NA
바꾼
입체
##런스
결과적으로
동쪽으로는
III
의혹이
조별리그
주를
체류
측의
##위원회를
차량은
것에서
권장
줄기
평행
진출하였다
이래로
대회의
바에
부를
삶의
##길을
##마와
##화하고
##버스터
##돌이
##lex
차량이
sc
네이션
단위로
수습
절차를
축하
호수
##하실
##디스
##책임
음악가
성공적인
월드컵에서
달성했다
et
대상을
딸로
##란트
##주세요
##월드
10여
일본과
미스터
타원
##밀리
##디에
##디의
##검찰
후보에
No
군을
정부로부터
작품에
기상청
1의
고분
고수
일요일
학원
##미로
##판과
##셰비
위키프로젝
차량의
국가대표팀의
특이한
관습
극히
비극
길이가
me
바른
사르
액체
위기
##메라
이상한
기준이
##ange
필라델피아
광무
오렌
현의
##해주는
소속된
진출을
마음에
일렉
입장에서
홈구
##현에
FCC
7일에
공신
담긴
돌연
위기를
크기는
독립된
캘리포니아주
붙은
함으로써
##주식
##우드
##슬라
크리스토
그다지
빌리
세자
전속
전년
철학자
##너는
성공회
모르겠습니다
카이사
Dav
갈릴
거행
모은
재검
##할때
좋다
좌석
크리스티
##고등학교를
클래스
이바
정면
##츠와
##하루
다음의
연합뉴스
사천
타자
향후
##0명
##셔서
영화로
1920년대
경신
두어
리비아
물에
##시노
##way
##바는
##라이터
스타일
레이저
기타리스트
##민족행위
등이다
수평
신이
##석탑
##모와
##파인
제조업
만화가
영감을
있으니
##르를
관리하는
소유하고
시내버스
리가
지폐
##산리
배웠다
법인
식량
예전에
전진
##하였기
가능하며
##위원회에
승리한
4세
낙선
물어
불을
장치를
##님께
##반응
##냐는
스파르타
미주
부호
시초
트라이
폐위
기능은
sup
you
죽을
##커스
제기되었다
모방
새끼
오류
페어
힘입
##통의
##상으로는
##욕을
지역에서는
아니라는
않았으나
Her
끝났다
눈이
더이상
바위
지점
117
필요하다고
##eter
학교에서
건물로
종로구
SU
색을
진흥
##aj
##ull
2000년에
자세히
팔레스타
##국토관리청
조선왕조실록
3가지
남해
님의
캠퍼
##채를
##회의에서
확인되었다
이승만의
논의가
달이
드럼
시위를
예능
##성이다
##hPa
3일에
can
공립
요소가
집으로
포크
##사지
##작가
la
동명의
엄격한
정해진
##유적
과정은
##oss
관람
구출
부천
북부에
영동
주와
콘크
##구리
신설되었다
점에
쫓아
할머니
##air
115
##eng
대통령에
학교에
폴란드의
연세대학교
병행
Per
브라이언
상반
않다고
조달
##원이다
##토시
##전기
고양이
물러나
고성
공인
밴드의
안티
유언
106
제안을
FA컵
##전문학교
먹는다
문과에
선배
십자가
알렸다
에우
##교로
##망이
전쟁은
비슷하다
은퇴한
##공산당
백악
사육
점유
캄보
##자책
##란에
##보안
##준비
제1회
부동산
엄격
용어를
##미쓰
지구와
비판이
간단히
서사
쓰기
임상
준비를
피부
하버드
##ally
마케팅
5천
받기도
시그
열심
지고
투옥
##역사
##질은
##왔으며
##하였다가
사람과
이전부터
박영효
3칸
빠진
오디오
전당
천도
##소스
##온다
하나님의
형태는
마쓰다이라
이윤
##포구
##몬드
119
참가하는
##지방국토관리청
낮아
무실
품고
아마도
비즈니스
길게
위장
재활
전한다
코트
시작하였고
않았습니다
떨어지는
##추세츠
무의
존속
코무네
통행
this
Red
밀어
시집
쓰이고
왕실
제도가
진동
탈환
비슷하게
편입되었다
그럼에도
단종
언더
##이거나
##선이다
지적했다
분쟁을
2일에
견해를
곡이다
실린
장성
혐의
##산맥
##inc
##이었기
인정받아
언어의
설명하는
CF
관중
양반
##지붕
##화하여
##EM
##ve
##초의
##율은
라트비아
DC
농림
임용
##쟁이
##것도
모델을
가톨릭교회
Go
성폭
억압
전날
제독
##디가
##글로
자유로운
야간
추격
##HO
자신도
제목의
흥행
##버러
##pha
3할
미하
포로
##비뉴
##병의
109
사회를
이곳은
보여주었다
Dr
같네요
오타
이케
후궁
##행위를
##사령관
사간
제압
##애를
개발에
도요토미
하인리히
대거
명단
##라서
##미에
기록된
대학을
2008년에
않았다고
평범한
1집
김경
섭취
술탄
영상을
##났으며
##야를
##됐으며
디스플레이
##롤라이나
문화체육관광부
나이지
##0년경
도입되었다
5일에
격퇴
대피
매입
불이
시계
조병
##봉을
생성된
급격히
6일에
견제
구간의
일는다
자의
지정된
상징하는
9일에
것보다
교구
부부
부대를
##사랑
24일에
데이터베이스
아무도
3인
밝힌
활약했다
바꾸는
대관
도주
일체
테일러
경우에도
대학생
정신적
계정이
응시
조광
##타리오
##rit
##바흐
##변이
노동조합
차량을
건축물이다
강도
교도
심의
아인
정사
한명
##자면
##urn
국방부
오리콘
카자흐
모친
무거운
##키를
방영되었다
웨일스
개그
관리를
넣은
두는
주립
##란은
##더군요
##ene
동물의
리메이
##곡의
적극적인
토너먼트
##코와
그리스도의
##바이러스
독립운동가
남부에
신호를
예배
주류
토요일
##주기
편집이
##ember
FCC200
동국
##일체
자유주의
1898년
2003년에
하드웨어
갈아
에버
이식
##네는
##항에
의견에
당대
생략
유교
의회는
##문에서
개념이
설명을
쓰시마
인격
장려
##터미널
오프닝
이내
이경
##풍을
##uch
te
기습
넘어가
밑에서
축출
회의를
기록했고
Press
Nor
다를
수술을
적고
직전에
군은
대두
물건
분들이
실려
결정적인
달러를
RNA
붙인
해를
##되지는
##연은
존재하며
CE
치명
##우지
##십자
##운동에
이루어지지
광산
보일
산타
선수를
##uth
감행
강이
쇼핑
##we
생각한다
8일에
구동
말하면
에티오
##스부르크
##열이
##any
1884년
##보통학교
1개의
벌인
요르
##벤처
피해가
구이
배구
브래
생겼다
와중에
우울
##증으로
104
들어갔
있었을
위키백과가
지방을
5만
ne
교수가
요괴
종족
##과로
##전투
##inal
의혹을
NBA
목조
##턴은
19일에
사이드
##ital
한성부
HT
시흥
오고
이어진
진도
##약성
##작의
##파크
사용될
##스트는
토론에서
100m
주오
회사는
출신인
남아있다
1명
딸인
어렸을
위탁
##80
##층이
시작하는
공격에
따뜻
로저
봉건
상상
유가
##PG
##시키며
inf
페스티벌
오스트리아의
오스트레일리아의
##ize
EC
pp
대치
피어
##마사
##색은
int
인정하고
힘입어
본명
시로
양이
우주의
정권의
##자리를
##목적
들어갈
담겨
수치
패한
##측에
##예를
##악한
출전한
##지역의
공모
공채
발을
전한
첨가
컬러
현저
후안
같은데
##라이트
부분의
공간이
국정원
백과사
곤란
군단
리얼
바실
옹립
요크
##통이
##순위
난민
동치
빌려
##식물
##프에
구조가
마을의
냉각
성사
않으
오라
자금을
컴파
평창
##생산
##DP
##oup
결정되었다
요청이
등용
##중국
##카를
교육과
건물의
꼭짓
성주
이반
작고
합계
했습니다
허리케
##시까지
##란히
2020
사례가
금메달
대법원
사자
##인들과
##sk
##슨과
영화에
중추원
진정
감독과
시설을
여름에
달러의
펜실베이
서쪽에
태극
환원
##이었다고
전체가
활약한
여기에서
서초
조정에
##감한
2009년에
http
그중
유학을
##감과
##음과
##올로
경찰에
비례대표
System
넣고
노선의
시외
왕세
전도
좌표
코어
##rid
대전이
경찰은
실패하였다
삼국지
간토
서경
순수한
설치류의
진출했다
음식을
일하는
##다리
##목은
비주
아서
추출
카탈
성공하였다
가리키
움직임
별의
자제
상태였다
아버지인
요구를
내정
본부
소실
여진
키프로
##ler
사용자들의
정도이다
##app
내무
반공
부의
승계
전세
회사가
##해는
유니폴
루스
승리로
칭호를
팀으로
##IP
##나가는
##위원으로
##irst
내부에
다리를
시골
지점에
국가로
##스포츠
이진
출토
1897년
파이터
2주
애틀
어른
차가
##대왕
하나이며
확실한
구리
배려
순회
##이사
##자이며
##전도
의미의
다이어
저명성
만의
실력
존경
##60
##희의
##목이
1997
##igma
지나면서
지휘하는
신조
##래스카
아이슬
비용을
ID
나가는
상원
소총
입각
##자들에
이루어지는
매사추세츠
2명
3위를
여성이
중일
카롤
나타낼
싱어송
결코
투르크
##사이드
##실험
프로리그
찾아볼
이르렀
Pe
결론
기점으로
부서
재혼
통틀
행사를
시절의
국무총리
4일에
동학
제갈
진군
##제이
##환이
##말에
선수는
트랜스
ML
times
응원
주도로
##OL
##ily
2002년에
간호
동음
유년
##그리
##톨레
테이블
res
북부의
얻고
퇴각
##ald
Cor
수색
지키는
평면
##어이다
##하기는
미국에서는
이해할
1개월
국군
알코
인문
치고
##무스
##제프
##채널
기반의
소설을
딸을
안장
앞면
태평
##지대
지방자치
유지하는
Mon
기갑
노리
신탁
##내어
Rev
Je
성취
씨의
잃어버
춘천
##피는
제품을
##ega
스탈린
5세
라스
온갖
중에서는
직결
초록
피에르
휴스턴
##길이
##렸지만
##훼손
것으로서
스타리그
남아있는
섬유
의식을
이관
주차
틀은
##지나
결성된
이가
자칭
전압
조상
##라미
논란을
바티칸
4위
반해
안되는
##팀의
##ative
경상도
그쳤다
때인
지어졌다
##치료
12개
개발되었다
최근의
고구려의
뜻이
문명
최적
행성의
##라기
##는지는
##비나
##영과
##런트
생각된다
2010년에
이야기는
유래한
부유한
신천
이남
장거리
##원들은
##24
##즈카
##더는
운동은
나라에서
자연스럽게
방문한
명백한
A매치
우편
돌아갔다
움직임을
되도록
선구
##푸르트
##올림픽
##왔던
영향력
설치하고
1시간
규정에
총칭
회색
##아야
##외선
결정하였다
수도인
관직을
높고
잡은
##물질
##택을
선보였다
올바른
다크
시장에
##결정
##MA
김홍
숭배
##층석탑
슬로베
펜실베이니아
4차
김진
믿고
비유
철회
초과
태그
개인정보
사고를
보여주고
나폴리
양주
최연
##드라마
전투기
블라디미르
분광
쓰였다
엔지
##sc
##나갔다
##빌딩
배치되어
게이지
일했다
헤드
1995
134
건설을
않아서
비밀리에
IBM
불어
수양
최악의
평택
회사를
수록곡
아이슬란드
3명의
논문을
반지
좌절
주행
초월
##가고
##베트남
##량에
##브리지
사용자에
경제학
사망하자
분류된다
Min
공전
오하이
##시게
##아키
출전하였다
시스템이
물질을
갈등을
깨달
연쇄
합작
121
형태이다
아래로
메시지를
우즈
초보
선수들을
극장판
##지방국토관리청공고
고소
몬스터
주위
##법상
##sch
##변에
##박한
##것은
133
규모로
##교육을
열심히
게오
규정을
말기에
읽는
채무
##화이다
기술의
감리
계절
명에
부대는
원을
철도의
##제학
대통령과
Mc
tr
되지만
작위를
##도어
##턴의
부분에서
William
5번
검사를
돌입
발급
비단
소지
입자
조언
협정
##양은
##형이다
한다면
중심지는
이승만은
성모
##티에
##MS
1998
This
글자
비오
종착
지옥
하차
##태평양
주장하며
기준에
음반을
##ount
친일파
##정책을
3차원
적지
홍문관
##권도
##sp
##idae
야마토
집안의
나눈
선사
1500
1899년
스스로를
명확한
동쪽에
봉쇄
있거나
학문을
##예프
##마르크
##층을
129
게르만
떠올
발원
배신
유죄
협상을
국가는
##urg
즉위한
디자인을
불가능한
결론을
남원
베니
인생
##자리에
##르지
##버린
학교의
기간이
카를로
인접한
강과
선과
이리
토트
##아파
대전광역시
먹고
선이
원리
중기의
폭로
서유럽
이룬
이산화
해소
회고
자료가
사태가
가동
사전에
관련해
##기관의
일종으로
SD
par
시종
자문
장의
지주
질문에
##름은
##르며
##워서
##것으로
##ett
선거구이다
북쪽의
##슈타인
밀접한
2천
관념
산소
상경
예선에서
올리고
인플
피하기
##측은
##티의
##장치
##아리
##경영
##척의
존재가
마을을
3으로
강행
군에
만남
설탕
오바
증손
파이어
호위
000만
2001년에
자치구
제주특별자치
CON
그날
단단
만나는
모하
생겼
야생
업적을
왕은
이산
##지휘
사용하면
독립적인
환경을
환경에서
사원
일컬
##체제
##평군
생각됩니다
독일과
제국을
환경에
##ike
EU
루이지
실력을
취재
회계
##온이
그러자
##hem
하나였다
진행되고
구마모토
아바
은메달을
이규
제재
카드를
표방
##림이
##ited
중국과
진행하는
시간은
##irc
작곡한
리메이크
AN
네오
동참
발트
본거
세대
센다이
제의
##내며
이름인
기록하면서
##rop
##위원회에서
SA
연금
천재
##두에
대한민국에
360
가고시마
Ac
기회가
마녀
연령
전동
추첨
치렀
칼리지
토마
한계
향하는
##학위를
##허가
거기서
없던
읽고
저명한
트레
##스트의
조선로동
##국제공항
he
의회의
중기
##ience
##희가
##품으로
1901년
유로파
답변을
드라이버
Part
곡의
교리
버려
온타리오
##사고
##변의
출신이며
To
국소
동조
동메달을
스쿨
장학
주니치
카나
##주어
##철의
ABC
세상에
존재하고
바이오
민족의
국내외
그래도
위험한
다케다
김창
주체
107
가지며
비판하였다
비난을
공로로
마루
매달
하셨
학위
##비서
##구성
##협의회
##점이다
스튜어
군대의
대가
상소를
우호
함유
미국을
김현
사쿠라
상응
왕을
타당
##마로
존재했던
변경하였다
실패로
자리잡고
공익
노란색
단어는
던져
않으나
용도로
침투
##포의
##OD
다음해
어머니가
2호
라우
으로서
의원을
##감에
##자금
한국은
사이타마
서식한다
Euro
경연
맞은
매카
우정
조리
표를
##방위
사건이다
역사의
결정하는
이론의
기독교의
지휘관
공고
부당
상처
성당
알지
##자연
##츠가
##lo
##뱅크
20여
126
위원장
엘리베이
다큐멘터리
1라운드
느을
레전
사범
아벨
전세계
표기는
한인
##작전
존재할
일으킬
WWE
##행의
운행한다
모델이다
선언하였다
So
무기를
소모
승무원
정하는
하겠습니다
협약
##펜하
##레를
1903년
정책은
##문화유산
어머니의
CN
CR
Trans
리틀
마쳤다
어항
##학원
##토와
##티모
##포는
##일으
124
역사에
과거에는
제주도
정상적인
공화당
싱어송라이터
손해
평일
해인
아무리
증거가
##박물관
History
동음이의
1번째
모인
몸이
원수
효종
##네스코
##널티
##포가
생산하는
오렌지
물고
병으로
청원
##ww
##제한
독일이
로맨스
총대주교
구단의
궁극
디비전
폭행
##참모
표현이
##프로그램
##earch
시칠리아
각자
개교
교역
대북
시공
유학생
##석에서
##군이다
##아와
##국장
##심에서
대한민국과
000여
노면
##방으로
##플렉
도입된
보도했다
아미노
Cont
Mod
##러의
게임이
##들과는
전통을
##ograph
페르디
1기
극동
동명
안쪽
얻지
오를
지위
철도가
터뜨
##멘트
##금지
정부에서
선거구
모델은
우라늄
del
니가타
때가
시바
정밀
중형
허정
호의
경기장이다
대응하는
Kn
섬으로
신축
직면
##내셔널
##자스
전체에
특징이
광둥
명사
미즈
안드레
잃었다
줄어
##론에서
##타니
##로부터의
추가하였습니다
언론에
실질적으로
성분
신시
아야
장군의
진급
##관련
##ane
열차의
변화에
밝히고
여지가
의결
##사업을
중국에
전반에
둥근
업체
영등
외에는
일제의
무시하고
사인
사정
장면을
호출
##SP
##량과
계속되었다
중요하다
##과학기술
에스토니아
18년
Pol
상해
수련
없었기
원나라
잡았다
##시즘
드러났다
1군에
압력을
약화
##법이다
포르투갈의
##교통부
제노
하라
##속을
경기로
나가노
해결하기
관할한다
경사
만일
백제의
볼리
오지
점프
##반에
##검사
이후로는
##ular
1999년에
세력의
불러일으
미루
스폰
##거는
##작이
교황의
##rib
소송을
공감
등지에서
정작
##위해
##철은
##amm
의미에서
상태의
2집
불확
불리고
상트
실망
측에
##지능
시즌에서
정치를
방송되었다
##ety
고려하여
##formation
구릉
놀이
도카이도
마약
성서
##자본
세월호
KIA
감안
불명
속하며
##인한
##교에
부분으로
음악의
we
말의
상행
하마
##기독교
##내지
한국시리즈
se
내전
뒷받침
마스
별개의
재미
행위는
##카라
##ator
사람도
설립되었으며
대회에서는
인터페이스
상용
약물
##누엘
##당하는
##불교의
작성된
사항을
아스널
Phil
흥선대원
뉴저
뜨거운
밤에
양국
엔딩
유네스코
##기나
##결과
##황이
##ision
나오고
400m
qu
바빌
보류
시레이션
제트
중대한
취하고
카스티
##학적으로
##서비스
##아메리카
##꼬리
##견이
일본국
영화제
프로젝트의
통일신
페르난
17년
가량
##전사
##아들
##차와
올라간다
체포되어
이집트의
닌텐도
가벼운
고백
대화를
로즈
만세
소말
유동
종의
주자
##전인
##버리
준우승을
관직에
사면
알제
##해와
##총장
##있었다
들어간다
이범
인데
탐지
##준의
부분적으로
외교관
##테르부르크
Can
니혼
지능
폭풍
행위가
##테이션
과정이
이해가
25년
비평
안으로
코드를
##서울
축구를
##들에게는
표현하는
서인
틀이
##ner
##IG
##레아
Mag
기숙
##라리
##살의
대통령으로
남쪽의
야쿠르트
곡이
별명을
보게
부가
이닝
자국
총리가
##림의
##바닥
관리자는
이르고
창원시
오하이오
per
낭만
본인은
트루
##왕과
der
뒤에도
듀얼
방침
##에다
##철도의
아래에서
취임하였다
##ield
공부를
시기를
임관
재능을
키워
##커니즘
##노가
##브의
##링을
아래와
##erson
가면라이더
성리
얻는다
##방은
##추는
200m
결정한다
헌법재판
인근의
중반에
Park
아케이드
넣는
다룬다
천거
타격을
프톨레
##표가
##팀을
자신들이
플레이어가
얼굴을
Geor
GS
레바
마닐
케네
플레이어는
사헌부
9시
##거리를
##품이
실시한
1대
SE
개인이
관해서는
알루미
연봉
코난
합창
황제로
##무역
##먼은
공격하는
##angu
고등학교를
근처에서
뿐입니다
이북
이처럼
폭스
##신도
##우기
보고서
받았지만
가져왔다
중독
채권
##스기
##ream
부적절한
그저
앞의
전격
##블리
기술은
인물의
마이크
대문
선종
연상
왜냐
##PC
##보건
##주지
되어야
우승하였다
진출한
정신을
프랑크푸르트
기름
범위를
성씨
원인은
테니스
##당인
안드로이드
2명의
과반
등에게
인상을
132
결정된다
개인적
슬로바키아
캄보디아
관현악
무궁
발동
온천
자택
책의
##시나
##러스트
##루와
프랑스에
점령한
왕국을
거북
##단지
##코드
##오리
##너의
##액의
거제
문자를
칼럼
##aus
에서도
이용한다
1902년
공개했다
아틀레
대명
배후
알리는
##츠키
##축을
##년의
##ouse
##ould
정치적인
운영을
시대부터
실패한
평안남도
선행
완화
않아도
삼국사기
BS
상세
섬에서
용병
일이다
주가
진공
컬럼비아
협조
##캐롤라이나
##하기가
##amma
##시키지
의미는
월드컵에
블랙홀
논쟁이
잠수함
8개의
www
선물
팀에서
##겠죠
##작은
리그를
바이올린
Wikip
가리지
레논
만드
숙청
아기
원인을
충실
##da
사랑의
green
마블
종속
커널
해의
##설에
##가들은
그러던
필요성을
공격하여
작업에
김원
송나라
정도를
##운다
##운트
##히메
##잡이
##eck
역임한
혼란을
공민왕
최상위
거울
나름
놓았다
유진
일대에
입수
##대군
##거진
동안의
개발이
발매하였다
모델이
기초로
아이디얼
School
내리는
맞붙
맥스
비평가
사살
소니
송진
##일드
##릴라
122
기본으로
물질의
벼슬을
말하였다
##lin
##min
##협력
##ana
경기의
나섰
대마
매출
재현
중장
처녀
플랑
##커는
##등으로
##태후
정치에
소속이다
노래는
요시노
차례의
part
규탄
메뉴
문하
석가
수면
이방
패전
##에너
##르노
##m2
##간은
되어서
보내고
조건이
베트남의
위협을
##사우루스
가신
교전
난카이
모의
앙리
##지는데
##마일
앨범의
승강장은
David
많습니다
목적이
삼촌
선비
아부
와의
윤휴
이이
##wo
##ael
##책으로
##럭시
시리즈에서
행동이
시설이
파이널
서식하는
통틀어
띄어
술을
주제를
증권
##감으로
##왕후의
##아프리카
##각이
##판에서는
##품의
설치한
추가적인
조약에
Cal
가네
도는
둘은
서적
신정
오노
중대
##일기
##거리는
##eq
동일하게
고유의
방치
역까지
환자
##매매
##회의를
31일에
3층
LA
노조
띠고
장관을
주사
패키
##으려고
##집이
##der
되었던
수준으로
가람
고쿠
남기고
신선
##하우스
##류이다
##화점
바꾸고
comm
대웅
딸이다
링컨
씨가
클라이
##자고
##환은
##분석
통합하여
역임하고
##uck
몸무
발각
칭찬
키가
##항이
##열의
결혼했다
알루미늄
5번째
7개의
NG
One
마츠
밴드는
조명
하원
##학이
프랑수아
교육의
국민당
제네바
나이지리아
곳의
김병
동인
쌍둥이
토니
##so
행동에
##바이잔
검출
빈번
선로
이데
크기를
필사
##인권
이론에
트리플
프톨레마이
Cr
감금
손으로
없으면
이완
하행
##라에서
##로우
지침을
3세는
관인
이병
##86
발생하여
관계없이
명확히
나지
동행
성장을
안타를
지형
하남
##스틴
##당해
##청에서
##친구
##led
요리토
고통을
떠오
로이
세속
서울대
개발하고
평안북도
American
right
도마
산요
없었
예고
일리노
정유
충주
##무로
##협의
##vent
지역구
진행되는
거주하고
가정에서
##지부
가지가
Stud
주민들이
은퇴를
##제르바이잔
구의
막는
북방
승점
입성
진실
태자
##차량
15세기
받아야
결혼하였다
Ber
남겼
메소
뽑아
설도
원더
지나는
치안
효소
##연속
##산동
정치가
전체적인
인정하는
all
견인
루터
벌금
본사는
부합
일대를
편에
##쥐과에
참여할
대신해
5000
것임을
군대에
디오
이현
즈음
##모에
##프라이
참여를
실시되었다
지구에서
맞고
원조
정몽
지도를
포병
하우
현금
##yr
##결합
2012년에
학생들의
JT
공약
발령
언니
표지
##달라는
##du
사회에서
##eta
프로그램에
광주광역시
수장
유벤
최후
##도비
##na
##웠고
이용해서
해당되는
마을에서
거부하고
나머지는
동생인
고체
따른다
전력을
##니시
##한이
##톤의
자체의
목표는
세력은
친일반
게이오
대행
살았던
애비뉴
폭넓
프레스
흔한
##술의
##초를
쿠데타
공표
높게
부지
앞장
한사람
##ari
새로이
리더십
미시시피
will
마시
불쾌
오피스
저의
처리를
##아나
##버렸다
##Hz
##가지의
승부차
끊임없이
개헌
무대를
시는
양식을
제사
##민을
##도리
##평화
시간대
자체에
열차를
로베르
바오로
상인
소문이
용어로
##치에서
##열에
수도원
조직이
평균자책
고향인
우려가
##케이팅
At
불참
사서
연기를
장군이
저기압
탐색
##팀에
시작하면서
방문하여
보유한
Act
만났
육군의
할리우
##개국
되어있다
중앙일보
인간을
사업에
가이드
궁정
사슬
슈트
##3명
##두로
##레타
점령하고
목록에
Robert
플라스틱
교회를
수에
아제르바이잔
하에서
##기기
진행하고
##rain
사랑하는
Int
규칙을
아리스토
많으며
축적
하트
##법에서
##있게
3세의
kg
글리
세금
##사나
##파이어
##훈은
같은해
##운동의
##ript
삼각형
추기경
Sm
대가로
동대문
따온
무작
승리에
영유
코스타
헤라
##연방
##관계가
토론은
패배를
간선
그랜
모호
바퀴
호응
##나우
도시철도
이탈리아에서
노트
조봉
해밀
##업은
##라이어
그려진
York
수학자
오쿠
입헌
정무
질문을
히타
##oot
##직의
##값을
##주의가
Spec
동영상
값이
공백
기저
방면으로
시장을
협동
확신
##발이
##급을
도시가
역사적인
아닌가
실시하고
내려가
획득한
장기간
상관없이
Colle
카자흐스탄
등극
수차례
하도록
##였을
##벌레
1분
가죽
깨닫
미션
병원에
사바
제곱
태도
##통제
##밀히
대학교에
불리게
##ection
##해주세요
Sk
가맹
단계에서
담배
드문
아크
중점을
카디
카타
완벽한
EX
골프
볼셰비
비영
수단으로
시와
아타
안테
##현과
##족에
소설가
##우주연
##ublic
ed
광저우
기기
김정은
면이
애초에
##번으로
##우회
##테스트
사건과
##ters
##하시면
목소리를
2개월
로열
물건을
발칸
속으로
징병
##ilver
100여
FC의
싱글이다
불가능하다
죽음의
up
리치
빛이
손가락
수동
실전
##27
##서기
##린지
없다면
런던에서
에티오피아
CH
부작용
세가
요즘
집어
##혹한
19년
114
아이치
런던의
아일랜드의
분포한다
극대
로도
마천
봉안
신부
쓰레
죽이
피핀
한층
호평을
##gan
##크에서
##궁의
싱글로
후임으로
Sec
심리학
전하는
조조
트래
##학부
##계약을
종교의
개념으로
CJ
경로
미시간
밀집
여기는
주의를
차원
##츠를
##세력
##EG
헝가리의
과도한
Er
was
상수
시정
영지
##항의
##테면
##능한
등장인
등장하였다
1885년
복귀하였다
시험을
종류가
PR
두개
드리
파벌
##되므로
##하와
##본으로
##디언
것이므로
러시아는
중단되었다
타이틀곡
길고
총리는
테레
파스
##IL
수상한
방패
보성
사절
안에는
팀과
##박사
대표는
분류는
가져온
주목할
부근에
울산광역시
알코올
상트페
문예
총의를
##맥스
게임으로
대회가
임명된
실시했다
애틀랜
기사가
때에도
성능을
안녕
잡혀
집계
##커가
##yd
지정하여
올림픽의
사라졌다
근무했다
트럼프
되던
쇼트
열매
즐겨
창의
##설은
##심으로
##각의
프로레
설치하여
않았다는
3000
갈등이
비로소
시직
제치고
초빙
충남
포수
함대
후배
##들여
##25
##교수
##창을
표현은
나라가
작업이
무지
분화
스티브
시베리아
자회사
##효소
마을에
새겨져
어드벤처
##버스터미널
친일반민족행위
단어가
이회
일괄
전역에
피로
##률은
##루션
분류를
그래프
##선거구
기초를
스피드
레인저
##ough
3명
디자
말부터
석조
애덤
하니
##터에서
시즌은
발견하였다
##ages
##angle
일어나고
니콜라
드래프트에서
왜냐하면
Mich
군정
발현
버전의
순으로
출가
##서원
경기도의
복귀했다
Mat
기증
끝날
싸움을
암흑
염려
정권이
##운을
##1호
##즈에서
이를테면
설명하고
경계로
난을
낳은
시코쿠
없으므로
진해
필요할
조직에
상황은
그렇지만
##over
드라이브
위키프로젝트
규격
세상
위헌
요미우
레바논
GP
국적
숫자는
##고래
##과정을
##있지
감독이다
의견은
Reg
미래의
미군정
글루
맞대
번에
서대문
소셜
장면이
집결
티켓
페널티
하부
하치
##커의
##들었다
##락이
##준이
##돌을
경찰의
상트페테르부르크
IN
개가
규범
더글
리만
방안을
신주쿠
의무를
##근이
공격해
공격했다
보호하기
노선이다
제목을
명예의
아름다
장남으로
세비
업그
재편
지쿠
차이로
##중은
##ien
##정신
20대
국제적
아시안컵
체코슬로
상기
유권
자랐다
제도는
##왕에
##안에서
##좌상
국제적인
매니저
겪고
글은
다항
대역
업로드
청주시
허브
##전까지
##하더라도
##우스가
##근의
##ke
##봉사
##극장
##이라며
제작을
문화가
정책의
크리스마스
출발하여
##ization
분위기를
강남구
어항이다
것일
경에
끝이
네팔
아날
이씨
캠퍼스
통영
##코를
##골로
##교와
##직할
프랑스가
선출된
THE
조봉암
검거
옥스
우회
카스
##티즌
시리즈를
운행하고
등판해
발렌시아
르네상스
검정
나루
다름
당원
맺은
버전은
어찌
편이
##도이다
##자라고
##US
##황제
##위원을
노르웨이의
생체
이내에
저렴
판사
##조부
우승한
경쟁을
넘게
보시면
성명
에밀
잇따
잭슨
##르에서
서울로
정치적으로
2011년에
제안했다
구분된다
1위에
나갔
날카
면허
##신경
##공은
##양함
##ied
##오나
##당하여
사이토
노선으로
천문학
다니엘
소행성
피트
##mega
##타스
선수들의
그룹이다
독자적으로
담아
라파
믿는
박지
스케이팅
진지
환상
횡단
##공무원
##TP
선거가
1883년
##하겠다
subseteq
2기
SL
강서
마린
면서
센고쿠
안창
책이다
항소
##르에
##모니
##병에
설명할
3천
4명의
구할
논의를
병을
지극
호세
##리조
##세다
##록을
지구를
1871년
목록을
리우
씨는
원천
이장
이태
입을
총의가
토지를
헤어
##만원
##으로부터의
특징으로
데스
오로지
조정의
학자들은
##전이다
##부상
게임에서
모양이
frac
CM
내걸
바나
배상
버렸다
화를
##진보
아이피
진행했다
인터페이
정서
##함마
##막을
##ility
FC로
Life
서머
이어진다
잔류
케임
패널
##네가
##구나
##즈로
##손으로
선수의
경상남도의
제3차
Art
페이스북
새누리당
광장
국회에서
기회
문단
민병
박스
산림
수확
신동
컴백
터치
편지
##렸다고
##ara
으로부터
공격으로
체포되었다
물러났다
부문에서
지냈고
각지에서
날에
송신
위주로
윤리
차이는
##되도록
##ient
활동하던
후보는
않을까
3부
A의
나주
모자
보드
서민
우측
장덕
혁명의
##쳤으며
말씀드
남동쪽
오프라인
전신인
가의
것들이
나란히
실존
제사를
줄여
직장
희극
##터널
##만과
영국에
자유당
중요성을
제국에
회사이다
##berg
핀란드의
색이
##고와
##제도를
##구르
##투자
이루며
스트리
작용을
취임했다
당하고
받으면서
북위
불꽃
심하게
유연
판정
편향
피의
환자의
##물인
##나고
##디나
라이언
훼손을
바르샤
균형
성별
스즈키
얼음
##나리
##EL
##녀를
배우로
외국어
Day
##미즈
##인명
##강에
##con
##rm
##았다고
경제의
가까워
##그라드
다운로드
3분의
경시
내부에서
부설
소리가
충성
##헤이
##32
시즌부터
앨범이다
경찰이
금성
대안
카리브
한큐
##순위로
2차전
초창기
디렉
보복
브로드
상류
수필
싸우는
애칭
##직으로
요청했다
##ever
하느님의
레전드
과연
슈팅
일삼
일대의
##IR
##계에서는
##받게
해당된다
1997년에
제목은
증거를
가나가와
쓰여진
처분을
척추
투명
10시
언어는
실패하고
프로젝트는
주인공으로
국왕의
콘스탄티노폴리스
4회
8시
뛰었다
예수의
##만으로는
##omys
##대학교의
붙여진
커뮤니케이션
문인
아담
정하고
##말라
##레이터
도착했다
치러진
2억
나중에는
대부
중산
집착
한해
##그레
##약한
대표적
정당한
야마구치
GN
dots
자오
##표는
시작하였으며
문제와
나라에
Star
수수께
일리노이
gr
받침
사하
순교
연수
팔라
##운의
##B48
후지와라노
걸린
국보
반정부
부각
연평
점검
##재단
##쿠니
서울의
연결되는
수행할
1년간
향토문화유산
극심한
넷째
비방
스칼
시트
정립
제프
주위를
표면에
##ck
##철이
가지의
대표적으로
승강장이
미얀마
2칸
데스크
막부의
민사
안성
##협회는
정보는
모습은
High
닫힌
사모
온건
해수
##여성
##종과
다양하다
담당했다
회사인
클라우드
아폴로
Des
Mic
달라고
사위
찍은
토르
토끼
##에의
##정권
##형제
시리즈는
FC와의
고시엔
가리는
단체의
무료로
물고기
일하고
차출
초신
하락
##전부터
##MC
##링은
위치하는
스위스의
편곡
건물이다
1998년에
교향곡
가려
늦게
소매
아레나
작아
##업의
##야와
##캐슬
##학교에서
승격되었다
지키고
Black
Ev
극우
나은
마땅
먹을
않자
집회
Inter
##아버지
아르헨티나의
CO
글래
기리기
다듬
배가
수령
않다는
저질
전무
하신
##아일랜드
##되어서
한국철도
서울중앙
영향이
시간의
##umb
연합군의
멕시코의
니콜라이
##도서관
ind
단절
민정
수시로
신입
출석
##고리
##렸습니다
##ino
방법에
음반의
##박물관에
##게이머
조선로동당
Ger
경희
신민
신형
제도에
주제에
태백
##미한
##직은
##ony
설명했다
떨어뜨
친구인
인공지능
모니터
Of
드는
마다
백색
보헤
허가를
힘으로
##어요
##생명
##행동
##컨대
고려시대의
24시간
담당한다
원칙을
원칙적으로
NASA
일간
타협
통보
##로이
##집행
##CC
이름에서
1995년에
국가대표팀에
성격의
북동쪽
수수께끼
9개
감싸
구장
소금
##방울
한국과
알려지게
시대가
인간은
##iki
되돌려
##검찰청
공천
길에
내에서는
많지
선은
시에서
준수
처분
출산
합친
히사
##네시
##본의
##6명
중국은
형성한다
무렵에
북아프리카
머물렀다
함경남도
다나카
마인
마하
어뢰
포장
##거리가
대표가
결혼하여
피해자
##시즌을
단독으로
각지의
간략
년에
달고
대대로
맺어
산출
선도
점수를
파동
파리의
##메다
방송이
시스템에
동일하다
무엇이
미네소
애매
인명
인류의
##이한
##리던
##나로
##정리
##ely
이전까지
페르디난
2라운드
반도의
부대가
양자로
전했다
카트
##집에
##ha
계약이
도입하였다
가상의
고사
고령
맞춤
사쓰
상장
수료
장비를
해고
##두를
##차이나
##았기
승강장을
##ows
방사성
Center
콜로라도
명성황후
fl
기단
네티즌
등번호
말까지
무대로
배속
불린
삭제를
시장에서
이소
##연수
##승지
##푸아
역사에서
효과적으로
##지역에
Paul
김유
정도는
##소득
##레스의
##덕션
##채가
18세
이름과
제한을
주민들은
대대적인
5위
Don
기해
다저
조국
진사
##SS
4월부터
공개한
아날로그
만료
명목
주위에
측에서
펠리
평정
화석
##액은
나타낸
되었습니다
비판하는
미사일을
모욕
부재
작년
전지
점거
호크
##OT
소련은
헌법을
엔진은
Wikipedia
소통
요동
워터
있듯이
정인
피겨
##4명
공격수
정책이
유사하다
광명
만성
시도를
아랫
추종
카카
##원인
##연료
##벌을
독일인
중앙위원회
소비자
비행기
경향을
6시
고치
말미
목을
여학생
연인
충전
##도바
##시한
##FM
##UR
##귀한
중국을
하였지만
원칙에
터키의
약속을
미야기
갈수록
고래
리오
브란
아라비아
옮긴
자민
페리
하이드
헌병
효고
13세기
연구와
게임에
자유의
기술적
중요하게
건설되었다
종교개혁
이곳을
추측된다
뜻은
반포
유의
증후
##는가
##번지
##전차
##반이
##융합
요구하였다
기여하였다
FC에서
관할했다
아키타
엔지니어
낙동
방화
유포
##5호로
##증은
개념이다
가문은
임정
차체
협력을
##순환
구성되었다
결정에
##운동이
지구에
기업이다
광해
무명
봉기
어떨
옆면
입국
##번이
##년간
##증의
##por
##MI
##ini
116
음악에
##시켰으며
둘러싸여
압도적인
Del
pre
갖지
국유
뒤이어
듣지
목성
벌여
조르
휘말
휴식
##당한다
##각은
##A는
스페이스
##empl
##ourn
메커니즘
이차
조립
좌측
충렬
##이니
##사회의
##분과
##불을
##였다는
프로게이머
1996년에
의원의
피츠
회부
##군단
##야만
##화물
##its
민간인
스카우
LED
Ver
개를
공손
매체
면제
조세
취항
##주택
##페란
##추진
##홀름
사람에
##amily
등장인물
정보통신
건설된
경상북도의
수행한다
자격이
북아일랜드
1주일
21년
Bro
Med
acc
간사이
모르고
시노
클릭
##생략
##노리
##ena
대한민국을
Ste
클럽인
포기하고
드물게
뉴저지
무궁화
rec
가환
가오
빈곤
수도를
여부
재차
적다
체인
클라이언
때문이라고
중심에
도입한
기반한
전국적으로
본래의
재판을
##ept
새겨진
Rich
국영
시호는
저격
총장
##유사
##달라
##강이
##벽을
역사와
변경을
임명되었고
학생들을
무엇을
활발히
교정
라쿠
수교
영역에
자작
##라트
##학적인
##계급
##빈의
위치는
예정이었으나
예술가
야마가타
##니까요
예하
##누스는
서울에
실시하는
1882년
캐릭터를
알렉산드로
스미스
1호선
Li
im
것이나
고토
말도
모서
민법
베드로
투어를
평화를
호족
##도마
##5명
##양으로
##풍의
##ford
중국인
표현의
공동체의
뉴욕의
위원회의
주도한
아나키
그레고리오
권총
마야
볼로
상원의
앞선
을사
지평
직책
탐구
플랜
1890년
전통적
영어판
서울특별시의
구와
끌었다
대왕
동점
쌓은
작가의
콤팩트
이동을
유래된
사라진
논쟁을
Hen
Mac
급성
기수
니코
동문
뮤지션
성에
수락
슬라브
악마
회로
##기니
##대륙
##밀하게
##루에
따라서는
임명하였다
받았던
출시한
스테이
성향을
가열
개항
관동
모용
선동
어워드
짓는
초연
##대회를
##법칙
##리아는
계획이다
500만
명확하게
레드삭
코무네다
2할
James
주어진다
직할
칼뱅
##다르
##관계에
##line
모두를
중앙아시아
2년간
분리된
왕국은
치열한
각국의
것의
공이
단말
세례
저하
##7명
##주자
##레가
##태를
##끄러운
시작할
알려져있다
기업인
건축가
살아있는
##선수권
우즈베
2골을
번식
법무부
식의
자선
장제
케냐
크롬
특집
##들보다
##번은
##히트
##체계
10분
그룹은
천문학자
것인가
경고를
대합
압둘
제퍼
취업
형상
##3호로
##해튼
목록은
스코틀랜드의
관인생략
넓게
룩부르크
원의
이천
인산
있기도
코코
##체고
##취를
##국적
##de
생각은
발표하고
이때부터
충청도
Instit
성격으로
느끼고
개종
규정이
만을
불평
영지를
##나오
##ress
##투로
##km의
성향의
##원숭이
von
보전
없는데
철폐
촉매
타인의
한계를
##1호로
##당할
되었다는
도시에서
너무나
크리스토퍼
50년
Open
TR
바와
정전
##eat
##빈은
##버는
##너가
정리한
1위로
Soci
미들
상담
아소
이타
창출
판단을
##받았고
연구의
내용과
조직은
##대학교에서
선택할
Ang
선임되었다
프랭크
경복
구형
남구
남인
농장
도키
양을
오비
올릴
장준
중견
##위성
##ij
여러번
##ional
연합군
Thom
대패
무쓰
비하여
전수
초부터
코치를
혹시
##전략
##무는
##거를
##탄의
현재도
필요합니다
프란츠
주어졌다고
고아
상급
유비
장택
통치를
플러
##이후
##호텔
##나에
생겨난
감사하겠습니다
저명성이
Ap
경질
나라는
데모
사신
살려
양호
인테르
항쟁
혐의를
##8명
##gy
##피의
##atch
한국방송
언급된
헌법에
이란의
카를로스
되돌리기
가독
데서
독일에
섬은
악용
엘리트
이룩
주니
##운이
##대구
##랑을
##국사
##ense
수비수
제정된
구스타
에미
자기가
포착
해가
혁명이
##히데
##1의
##조에서
##iro
##해줄
사용되지
추가된
사랑에
떨어졌다
열대폭풍으로
Sal
김지
더비
몸길
스킬
약혼
##8호
국가정보
인터내셔널
산업의
반응이
김제
끌고
도네
무함마
바이트
생방송
싸워
의약
청산
푸에르
형인
휴전
##네일
##가미
##연으로
##루스의
##노에
##elop
오카야마
암호화
2시간
경과
무척
사쿠
사카이
아돌프
진상
청나라의
파나
홈경기
##2명
##4호로
대한항공
##ret
대학교를
정도였다
전략을
비율이
6세
Kar
Mor
di
모티브
미치지
발착
부문에
안치
원활
표기를
품질
황해
##lish
아이콘
진행을
##CAF
선생의
프로듀싱
SNS
라이선스
SV
래퍼
붙었다
비타
임의로
출전을
탄도
##업으로
##여명의
##푸스
지역인
선수로서
##etter
학생들은
기간은
더불어민주당
바람직
2세와
어디까지
대단히
볼리비아
mm
강화를
당주
말기의
신상
암시
의문을
자아
전함
전국의
접어들
혁명을
협정을
##카리
##나서
문서와
들어올
시기에는
장애인
느끼는
Rad
순위를
심야
일기
쪽이
치루
컴퍼
##슬레
##숙은
##스트리
선수이자
생각하지
보내어
더욱이
1994년에
윤치호
추구하는
am
날이
뉴캐슬
메일
##네마
##티코
##해지자
##디를
보여준
변화는
의사소
King
구단은
동유럽
레스토
마일
미라
재해
##업체
##히코
##자라는
##락의
##노를
##cy
타이베이
운행되고
올라온
규모는
주관하는
Ser
강수
것과는
단원
신종
유료
은거
중퇴
##지라도
##ho
##EE
##붙이
##쉽게
열린다
1990년에
위험을
부근에서
1승
AG
게스트
관례
동등한
디트로
모나
반대를
식당
중서
##운영
사용되며
1월부터
상대방의
처리하는
프란체
##과정에서
격투
북조선
수녀
풍속
함수의
##atus
데뷔한
생산된
접근할
친일인명
##경찰서
미나모토
Europe
프로레슬링
가자
라마
마우
블루스
사림
성전
세기
영업을
원숭
##어지고
##히토
##터스
##행에
##나에서
##FL
인간과
클럽이다
Charles
4인
견해가
마스크
수성
수사를
오로
##공주
##타입
##형인
받았다고
##ument
지나가
입학하여
통일신라
rev
강동
군이
기고
무서
병기
본사를
속도는
일화
카르타
##중추
##언어
##풀이
##inn
기업이
북한이
용어이다
그레이트
격렬한
긴키
삼척
오기
합의를
##행으로
위치가
에서의
영화가
천황이
에스페란
콘크리트
슬로베니아
가수로
각색
보라
붙였다
성적이
영어를
장사
행하는
##츠크
##조한
##주의적인
이해를
세워져
Music
델라
비자유
스태
것이지만
차지하며
##une
어렵게
포켓몬스터
phi
CEO
AB
막시
물체의
법의
실무
악기
정월
조소
주위의
해마다
##work
##사들이
##정상
20만
사용되어
3년간
이번에는
참석한
본질적
유력한
##iction
디트로이트
4만
Air
have
거점
낸다
미친
버그
입주
장군은
장소로
증대
퇴임
함부르크
##1명
##론으로
위키백과에서는
만들어져
표현한
앨범인
cm
궤도를
더해
부도
여성을
##7호로
##화할
가지로
2013년에
서쪽의
이스라엘의
page
고인
국한
숨어
음료
점과
질환
포로로
##단위
##청과
참가할
뉴욕에서
헤르체고
글씨
김준
선원
시장의
인재
현직
##리면
##근을
##진군
##정적으로
##반은
##끄러
##uman
가족과
캐릭터가
남동생
##한국당
##기록을
돌을
아데
어의
재일
튀니
##루시아
##atic
필요성이
팔레스타인
Michael
2가지
그로부터
머리에
세션
승정원
에어로
유길
파기
휘하의
##감은
##루아
국가와
##대학교를
드라마이다
미주리
Fri
IV
do
기어
도사
드디어
모범
발병
솔직
##신에
##보수
##세키
1994
운행이
소련이
판매하는
주연을
거부했다
상소
연희
주시기
##트니
제국과
도쿄에서
유리한
5회
년간
모색
산의
설문
소식이
웨스턴
이강
좀더
종래의
짐작
회장을
##발로
##비평
##러를
##수용
##말의
##팀으로
들어왔다
정도에
제한이
1993년에
안정된
미네소타
고기
박원
법조
쉽지
싸이
입양
첼시
함흥
##스파
##심은
들어오는
1940년대
형성되어
텔레비
##가능한
비영리
over
둔다
맨해튼
물의
오크
죽인
침묵
##하되
##학교의
구간에
향토유적
Super
불필요한
2시
2명이
매매
부총
위그
장원
##ze
##2의
##la
##나스
##냈고
일본군의
##olution
스튜디오에서
프로세서
가옥
구해
못하여
##와서
##암으로
##olf
기여한
보호하는
어느날
제한된
아마존
취임한
경무
대기업
복소
상공
소문
왼손
전까지는
존스
헤비
확진
##호이다
##집단
사실에
기간동안
one
인디애나
지진이
지키기
일방적으로
시즈오카
AL
Ear
vol
간신
그럴
다비
덴쇼
시에는
용어가
카시
##교에서
##덕왕
##난을
선수들
문화와
계속되는
유지할
##aint
허리케인
Wind
공수
관악
난다
분은
우한
위촉
입구
장흥
제너
##작품
##피에
##피가
##브는
##urch
클럽의
태풍정보
죽음에
NP
정동
카테
##코타
##척을
##훈이
일본식
10월부터
않는다면
아무것도
십자군
과장
동사
맡는
병자
치른
탁월
해남
##9호로
##겠지요
##elf
##oman
변경했다
Af
국장
남게
전적으로
파병
##가수
##했음을
##준을
##rich
대표를
##해야만
상대방
계정으로
연기했다
경력이
계엄
그걸
라그
만이
별개로
자기의
지장
합스부르크
##전시
##lease
TBS
가축
그게
동력
러셀
로고
소나
입후보
조화
클러
타자로
##했음에도
출연하여
세종특별자치
전반적인
내무부
당연
사무를
아다
은신
이양
중엽
질량이
청춘
##액이
진행하였다
행동은
##ible
트로이
기하여
넘어서
돌격
리뷰
보이지만
의지를
전교
헬리
##되나
##사유
관련되어
##ural
Str
1889년
내각의
와이번
##테이너
AV
CG
강에
도박
무언
상표
원격
차용
토요
히메
##곡리
민주노동
유지하기
형성하는
그룹을
아키텍
비주얼
공습
교사로
신익
어촌
익숙
흐름을
##히지
##법률
##작이다
지구가
바이킹
가족의
South
Hy
구하는
구단이
귀중한
누적
데카
못했던
빠졌다
오르는
유라
전전
흥미
##졌기
##AI
##덴부르크
고려시대
음악은
1을
mod
가산
누나
다테
유목
전래
##노스케
##정부는
##할수
##글리
##하지도
일부러
##ille
요구에
1868년
아미타
경의
기대를
무성
시부
접한
풍자
하반
황족
##집의
##망의
7월에는
상처를
생길
연꽃
중합
증폭
캐서
##녀로
사람들과
가족은
스페인어
동쪽의
나누는
모르겠
가을에
left
고다
다투
마가
임의
전복
##유지
##복합
사용자와
역할은
노래이다
컴퓨팅
조약이
여겨지는
생긴다
갑신
명은
세네
전역에서
##2호로
##보와
##강과
##오던
##황의
##날의
한국을
요청하는
inter
다이아몬드
AE
성이
성명을
유산
재팬
한스
##노프
##명칭
##럴드
국가보안
프로젝트에
검찰은
##조참판
노태우
내어
무가
붙이는
우드
적발
죽어
케이스
##co
##당시
일본군은
1993
중앙정보
인물은
설명한다
1848년
탄핵을
크리스티안
work
거리는
경로를
그루
다윈
말하자면
숫자를
승무
왕실의
인원
재선
주창
헌정
힘썼
##aur
##OP
##e2
##셔야
도시에
연결된다
제3대
방지하기
안토니오
AKB48
9시에
Rock
낙하
러일
밴드를
봄에
싸웠다
초고
##조치
##사범
이동하는
아직까지
하루에
Associ
Bi
간첩
과일
국외
도널드
버전으로
베른
북구
정주
혼동
##티아의
##아스
##인지는
##해졌고
##더의
하나다
정보의
적용되는
위험이
참석하였다
silver
겪은
그보다
도왔다
마코
부에
사당
시어
연소
장인
전담
접하며
주입
퍼포
화엄
##선생
##창군
##됨으로써
공격이
설치하였다
남북으로
강조하는
중화민국의
후계자로
KST
군부
다쓰
미만
별이
비하
소극
신화의
체제로
##MP
생각하여
선거는
유럽과
서로의
논란의
1세와
비용이
가와사키
말미암
6번째
긴장
병원에서
불태
시립
아님
영산
장안
조에
칼라
##소이다
##부문
##교사
공개적으로
단체인
사진이
alpha
가격이
미야자키
미쓰비시
들려
버전이
사상의
없음을
일족
자책
정경
##통치
##9명
##야말로
##심과
##파르
##웠던
문화방송
국민들의
표현할
##iver
형성되었다
불가피
기억을
Mark
검은색
요새를
ag
거인
느린
대각
베토
수산
시위가
재상
전이
하쿠
후예
##역학
선수이며
방식에
국내에서
사상은
효과적인
물질이
국무총
조병옥
끌어들
대도시
산다
성적으로
유해
인가
읽을
체제가
치세
치환
킬로미터
행위에
##유예
##AE
계속된
정의한다
공간에
가족을
가르침
노르망
Ant
신뢰를
##도르프
Do
Mas
맞춘
메릴
모시고
보리
성곽
의회에서
차관
참의원
##90
##노와
##망에
##층은
지원하고
1592년
헤이안
북서쪽
부르고뉴
2배
국철
균형을
세금을
수도로
원인으로
##자에서
##합의
##ior
##풍이
##타우
##캠퍼
##hed
선수들은
출전하지
언론의
일어나지
마르코
1991년에
말씀하신
서양의
Die
Met
곡선
그들에게
루시
만난다
방글라
봐도
산둥
신원
창씨
##공연
##사한
##궁을
##수리
##NG
##된다면
단체가
움직임이
완성된
효율적으로
케임브리지
계시
국적을
라오
우르
자크
향년
##으신
##iet
##루이스
##클로
삭제된
연합의
평가가
반도체
성남시
MB
꿈꾸
리보
자세를
찬양
콘테스트
토스카
현상은
##에미
##ng
##적이라고
##3호
##별한
##능력을
##str
기여가
지상파
종목은
부적절
제주특별자치도
4개월
LP
교양
노후
데미
도루
박테
복소수
조사에
카프
타락
테르
피를
##토록
##다를
##조사를
##하임
##A의
지원하기
점령했다
쿠데타를
베네수엘라
재검토
거다
고집
당내
박종
수축
전화를
주머니
징계
하려고
##찬을
##날레
공간은
지휘를
##시켜야
기묘
단식
도야마
악성
종군
지부
##민과
##회의에
시간과
후반부터
##연합회
오이타
최연소
Aug
갈리아
개원
노인
영장
콜린
파손
현장에서
##8호로
##회사로
##웨이트
진출한다
갑옷
공과
도출
선천
왔으며
위배
의과대학
포드
해군은
##무장
##장로
##수에서
##RI
지배하는
##ondon
분기점
6대
감마
딸이
모닝
산시
여파로
자산
함부로
회화
히라
##롭고
기록으로
내용이다
한편으로
##apan
폐지하고
바뀌어
Mer
광양
당황
루카
모셔
분비
불분
서포
온다
인형
##폭탄
존재로
어려서부터
간이
고생
미디
열전
외부의
장미
지는
첨단
##동원
##요를
##적으로도
##ury
##ray
특성상
방글라데
더빙
발기
손잡
열람
이모
최성
프렌
##협정
##ype
##ux
발생하고
진행한다
영향력이
##irl
차례에
주민들의
직후에
설정되어
젊은이
4세기
경호
계신
당대의
대교
##재산
##4호
##무의
##me
##yc
##블랜드
자유형
성장하였다
불안정
4학년
rel
섬네일
실수로
올드
총리를
추산
##기자
##자르
##아래
##코르
번역한
가르쳤다
안전한
위안부
바르샤바
Mart
농산
누이
동의를
디비시
맡았던
복선
서원
선봉
염기
예컨대
정의를
##위기
##한은
##염을
11시
50만
##ander
방향에
오클랜드
교원
레온
생명을
왕가의
퇴역
허리
##토르
##더를
100년
5월에는
부모의
도덕적
1등
5분
감수
구하기
면적
사탕
소의
여우
요인
이누
인과
정종
조현
포스터
흥미를
##안과
##천면
##권에서는
##데라
로마에
한편으로는
교통의
Project
감옥에
North
Up
rep
광학
권위를
김형
뒤의
반전
시국
온도가
카사
##마디
프로그램으로
##민주연합
나타나고
페이지를
해병대
일제강점기
박쥐의
Serv
ac
hy
var
느다
문의
미쳤다
신해
일러스트
집정
회장이
##지거나
##보국
##사리
##프레스
참여하지
그룹으로
부르주
솔로몬
혼자서
베토벤
미세
수로
스이
우파
필드
##회사의
##제작
##독한
포함되지
설립되어
클리블랜드
곳곳에
고의
리베
여부에
여부는
충북
콜라
##속에서
##슬리
##링턴
12세기
인물을
멤버가
나카무라
3의
드라
문정
사설
선정한
신화에
정성
제의를
조차
한민
##요청
##수교
##반도
##훈장
30여
운영되고
##민주당의
시리즈에
##CACAF
간격으로
고대의
글의
금요일
백두
불상
비대
쳐들어
했었다
##지던
##절이
##OW
##yle
##삼진
##층으로
한국독립
리그로
않았는데
근거하여
1866년
출판된
드러머
마르세
집안에서
AI
DD
SO
남하
모른
사리
잡는
해에는
흔적이
##해질
시작하고
정당이다
통과하는
올랐고
Bas
Cap
Not
김인
벽돌
실버
요충
의사가
중등
학과
한달
혐오
##공개
##병과
프로덕션
활동하며
기준은
야구를
컴퓨터를
활발하게
##9966
플래시
우에스기
급속히
부드러운
CONCACAF
독창
마술
알기
인해서
직행
##미니
##애틀
##복이
##믹스
공산당의
350
CC9966
기자회견을
김광
미터
유희
유지를
조류
중공
호쿠
##편은
영국이
수준을
1992년에
23년
몰수
사각
오마이
이득
잘라
존슨
하동
##6호로
1992
경기장으로
어머니와
부족으로
분야를
스포르
강조했다
점성술
4천
7세
Good
가구
군산
맥도
절단
점수
지시를
##감사
##티가
##플레
##훈을
생산을
남쪽은
전달하는
책임이
알렉산드르
지침에
소프트웨어를
J2
Off
다목적
대니
둥글
반성
시호를
실은
억울
영의
장을
장면은
##메가
200만
반대하였다
에너지가
1989년에
생물학적
살펴보면
Sw
공방
김명
데일리
조인
축성
콜론
##통상
##위안
15세
8월에는
토론의
파견된
근본적인
Korean
Ke
잠입
적당한
키를
##85
##지지만
문서들을
활동하다가
6월에는
생각한
않았을
기관차
기념하여
세포의
English
Great
Il
강철
걸로
나이는
믿을
불신
산성
서산
신학자
아빠
원고
죽였다
지선
화순
##업과
##절에
##디와
##브르
##쿠버
다양체
컴퓨터의
거두며
증거는
고양시
그곳에
스트라이크
5시
계정은
고이
단계에
상파
수업을
순서로
최강
판정을
하시는
한창
##공단
##net
##브스
프랑스령
이동할
평가했다
형성하고
##ude
합격하여
방사능
##ency
무소속
옥스퍼드
London
두가지
세라
시애틀
여겼다
연못
오아
유식
자꾸
장소에
지적이
카우
##나시
##솔리
수록되었다
대비하여
ATP
3선
광고를
법에
세우는
없었지만
음모
##동이다
##미트
##정지
##있어
기원은
정의는
부근의
묘사한
##사관학교
Dev
Jo
reg
가기
돌출
띄는
무술
송도
앞둔
적시
제니
쪽에
차를
측이
황도
##라톱
##리야
##수지
##uel
문제점을
차량으로
소유한
##anguage
못했지만
분별
산스크
스홀름
아와
않으므로
양육
호를
##카쓰
##현대
##승의
20분
한국어로
경기장에서
목록이다
대륙의
늘어났다
##클리드
사쓰마
교회가
무리가
반격
봉인
상에서
성으로
워너
후기에
활동의
전쟁과
나타내고
음악적
건축물
친구가
Ann
고등학생
##문제연구
Wii
꼭대
대령
옮겼
전기의
카즈
##사단은
##답게
##오에
하는지
활약으로
시절을
국가대표팀은
대항하는
손해배
체코슬로바키아
라쿠텐
Val
대에
머리카
부대의
살게
생식
실재
이제는
정권은
총무
##양성
##작인
##창의
##DL
##더가
1970년대에
오른손
평안도
system
계정의
매직
미완
번성
분들
상단
성에서
알래스카
우지
이송
철종
##테크
발견하고
일으킨다
바다에
Arm
artic
예전에는
클레멘
외래어
Im
것들을
대영
서부에
신진
앞세
유형의
입지
##지아
##가쿠
##왕으로
##경비
##rol
##읍에
성립한다
전반적으로
항공모함
dis
가중
공존
문과
분지
아산
연락을
치는
하리
##감의
##루냐
공격하였다
독립적으로
교육에
제안한
안정적인
하늘을
##ission
올림피아
0이
7세기
서태
자진
##시안
##2호
##by
##담당
##린을
학생이
##학과에
오리온
대항하여
아라곤
상대를
플라이
##병은
2014년에
노부나가
아오모리
퍼포먼
6세기
Sing
리옹
먹이를
조로
지미
##M의
14세기
가지지
이탈리아는
왕국이
##브리엘
메시지
산스크리트
2연
게릴라
돼지
애리조
케빈
포획
프론
행선
헌신
전투의
발탁되어
비정상
가사를
미군의
싶다
은혜
조롱
지위에
토리노
##개는
##화하기
것이기
편집에
사유가
우루과이
일렉트로
40년
극장에서
당국은
연이어
유타
조슈
투항
##내려
##타이드
지정되었다가
수용할
사태를
받아들이지
3세가
능력은
두꺼
문무
섬이다
수복
육체
##공화
##지었다
##트레이
##레스는
##BI
##먼드
설립하여
이해하고
나가시마
추진하였다
명예훼손
생겨났다
지칭하는
마오둥
A3
두께
보낸다
생명의
설명이
여론이
자원을
컨텐츠
해태
화강
##학사
##분한
##결혼
있어도
일반적
1863년
침공을
비공개
##attle
유로파리그
Sam
link
그나마
장점이
착각
페미
##니코
##길에
##엘프
일부의
프랑스를
요청하였다
공간으로
서쪽은
대사헌
알렉산드리아
##ords
프로그래머
미나모토노
사형을
소나무
와세다
워크
일주일
종으로
지사
제25
앨범에
비율은
##다니며
나갈
냉전
맥락
배척
생일
우유
지자
##부아
##채는
##스트를
그러면
문화에
1893년
그렇다고
마음의
지난날
북쪽은
작용하는
관할하는
연산군
레스토랑
3명이
렌즈
번도
불량
사드
색의
요정
일식은
제천
지워
한데
##주간
##패의
4월에는
##백과사전
다양하게
역임했으며
United
충돌이
전략적
해안에
철저한
Christian
3분
Mil
UTC
동부에
압록
양심
원정을
중위
##어인
##ser
##퍼는
10개의
##들이었다
사이로
공격적인
그룹이
기관이다
1888년
전라남도의
이사벨
Soc
mu
공자
말과
버전을
성운
어리
##타워
##cess
12월까지
가능성
비롯된
걸쳐서
파견하여
필리프
당사자
관장하는
MTV
경주시
글러
돌로
면을
성실
압력
위에는
최진
크레이
평의
##가르
많은데
2015년에
도로구역
해결할
가져다
귀국한
대규모의
거절하였다
부임하였다
2분
7대
남성의
도르트
시신을
음향
이형
하원의
##발은
##위한
##전용
##클라
##온을
결정할
계획의
다이쇼
##방송을
귀국하여
벗어난
따뜻한
CA
대도
둘이
새정치
송출
연설을
있네요
휴대전
##평의
##승으로
따르고
Techn
각자의
김민
무단
시장이
안나
엄마
음원
저자
중수
즐길
탈취
해왕
##신인
##토쿠
##절의
##마크
##트루
##살에
##줄기
중요시
선언을
스스로의
조성된
아들이자
대량으로
no
size
롬바르
모았다
몽고
번갈
보며
소피아
여우주연
임원
크리에
퇴장
헬레
##로니
##서이다
##상도
15분
##els
공간이다
델타
동네
물체
석탑
성숙
없음
연립
위함
의석
장소를
죄송
파인
팬들의
##키아의
##인치
##res
##새를
공격할
이것에
가족이
단체는
명령에
물리치고
어렵습니다
회원국
지닌다
NE
감찰
쿠하
홍수
##히게
##되어있다
##시키려
스페인은
말씀을
상업적
Club
계통의
강대
뒤늦
에렌
전제로
함대를
##유도
##연대는
##요의
##세르
##ces
##ris
##올라
여러분
##하자고
발전소
분석을
##그룹의
하노버
3호
4가지
5세기
달한다
독도
랜드
럭비
송파
엔트
키보드
토크
파면
하비
##하로
##광을
##하게도
##이었다는
##운동가
국내에
클럽은
가로지
목소리
인접해
Pre
Time
계수
맞았다
쓰나미
앙골
오류가
전산
정당의
하급
해저
##모스
##용과
##바스
데뷔하였고
기관의
##ople
1864년
##선거에서
시도했다
광범위하게
말미암아
간혹
교회에
단층
볼넷
일대에서
전대
조만
청색
형법
황제를
##극을
16개
영화에서
이용객
##이었을
지나친
다니며
관제
끝나는
섬과
유체
인력
잃게
입는
총학생
키르
1990
발견되어
현대자동차
합류했다
트레이닝
OST
강하다
급히
나리타
세트
아쿠
종업
청량
##어리
##포와
##LE
리그인
도로를
제거하고
받아들였다
천연기념
상파울
같고
국사
길이의
당하는
문종
문장을
배운
보석
서정
양식의
주먹
##커를
##부산
##우로
##청으로
##바리
##죄로
아이가
영국령
러시아와
##하자마자
##기관이
2차원
1886년
동쪽은
들어서면서
##olee2
cons
다마
레일
수학적
안티오
##람쥐
##부원군
사용하게
사용하던
로마에서
인도차이나
도입했다
집합을
체결하였다
##일체유
고산
로비
롤링
막고
무대에서
생전에
아뢰
알맞
타케
판례
해변
##천사
##역까지
##련된
1991
그러다가
하나도
충청남도의
창설되었다
아랍에미
목소리가
API
##프랑스
IMF
결선
경인
노이
등번
설일체유
소울
예이다
자란
제동
페니
회사에
##로이드
##대회에
##키타
##나기
##루스는
##각으로
만들었고
요청은
보고서를
아르바이트
적용된다
완벽하게
Em
San
대접
모금
사의
스텔
식사
제대
##원수
##일식이다
한국사
서울을
1892년
대전의
예정이었다
대중교통
효율적인
놀라운
City
Sum
bar
갖춰
극도로
동정
번영
비전
손실
신당
오대
위생
인사를
정해져
천사
체계는
칼을
함수를
##절로
##장사
##bl
##메이트
##린과
##ross
배우고
결혼한
이해하기
선택한
1876년
장악하고
MSL
매개변
우즈베키스탄
IOC
달에
몸의
분출
유생
핑크
행성이
후세
##신학
##증에
##새가
205
3월에는
유럽에
기원후
##대학의
노동당
제시하였다
언론인
만들어진다
infty
GO
May
거점으로
공명
구니
구성을
단계로
벌이는
불규칙
세상의
신봉
율리우스
정상에
컨테이너
해독
16세
9월에는
확인하고
실시하였다
발전하였다
이적하여
비교하여
측정하는
##여자대학교
사간원
가던
가브리엘
교회는
두각을
병이
사칭
상연
숫자가
안중
의문이
체제의
패밀리
##노선
##정자
##브리아
##폐합
정치인으로
음악과
데뷔골을
##ste
역할로
이동이
대체할
1861년
독자연구
그만두
벨라루스
3시에
격려
딸과
명인
미성
박람
베리
일일
커플
키보
##카쿠
##편집
##현에서
##70
##부르
##tr
##복의
1887년
##시켜서
##지역에서
경성부
9회
cd
말아
양보
에디션
오락
조계
찾고
혼혈
화학적
##자리의
##보르
##확인
기록되었다
프리메라
가르침을
장악한
벨기에의
부진으로
3연
Dec
Japan
같아서
고원
고종의
비엔
적게
키예프
프롤
행사가
##기게
##ique
##TF
##규명
조직하여
후보자
##기관인
증가하고
def
1차전에서
내세워
철저히
6번
7시
Edit
pi
기인
끝내기
나간
빌라
사과를
상정
스노
우치
위조
일이었다
저해
전락
필터
##내었다
##지역을
##천리
조선을
경제를
참가해
스타일을
##시간이
있어서의
시행된
Fre
공장에서
유혹
이븐
재래
헬싱
##건에
##개에
##보리
##ham
##테랑
제21
출판되었다
북서부
어디서
명나라에
벌어지는
레지스터
##바야시
단계를
달리는
류큐
버스를
번창
본부를
아치
와일드
입장이
혼성
##어족
##들처럼
##물리학
##면적
##하길
##be
##퍼런스
1980년대에
이름에
선수였다
220
1년에
##정부가
유래하였다
##사무소
나노
예선을
작전에
전원이
지리적
총애를
##발사
##분해
##엔터테인
##받았으며
요청으로
구축함
##ambda
토트넘
##ournal
Jul
MA
굴절
궁전
별은
보낼
비자
성북
야외
연동
주전으로
중부에
지수
지내는
치즈
퍼스트
포럼
폭파
한가
##표로
##겐의
발표하여
받아서
등장하며
판매를
단체이다
입단하여
바다의
소말리아
4호
소생
심리적
원리를
유정
자결
파산
포터
##케의
##코딩
##득점
##ura
##rav
마르틴
1차전
패배한
하늘의
동원하여
정기적으로
24년
3시
4명
Jose
무역을
북유럽
자립
장관은
채취
청룡
코카
회장으로
##비언
##조리
##두의
203
시작되었고
개발하였다
21세기
잘못을
발탁되었다
분위기
버튼을
HTML
글자를
단정
산하의
시스
아유
직책을
철학적
화해
##군다
##분열
##쓰기
설립을
형식은
전해지는
남편의
##mann
올랐으며
WHO
강간
그후
김윤
노바
맹활
서열
순차
정형
총회
춘계
하코
##청장
경제는
기관총
나타나지
간주된다
평론가
Ben
거세
나를
내리고
동로마
레이스
야마다
조언을
죽게
청계
탈당
피할
##협회의
##년이
##닌다
11개
##레이트
##학자이자
경찰관
Inc
위원회는
강력하게
고등학교에
결성한
부진에
Group
College
도르트문
가문을
그렸다
용서
이게
장소에서
제창
차고
투르
한중
##천이
##야에
의미하며
통일을
그림은
제거하는
활용하여
오케스트라
주파수
gen
set
걸리는
고문을
동등
스칸
열을
이단
파란
##와라
캐나다에서
성립된
##ney
자발적으로
22년
경선
돌고
무안
별명이
전자의
지우
총리로
##처의
##회관
##림과
##쳐서
하나씩
감독에
존재했다
우승했다
조직된
수행했다
##주시면
스테이션
저항을
저지른
맞이하였다
스크립
투쟁을
Thomas
Po
길이를
유우
일차
전구
조심
축조
춤을
태권도
##사항
##노총
131
돌아가는
정책으로
mathrm
받았는데
마음대로
결합하여
계승한
유용한
주한미
도메인
관점
교수를
나미
높여
밖에서
아쉬
안철
없었으며
주조
직위를
천천
협업
##중이던
##자마자
##ger
##면에는
##르다
##화문
##강한
##왔으나
하나로서
아니라면
학생들에게
자료에
##ological
미토콘
업그레이드
##슬레틱
5명의
Av
각국
갔다가
밖에도
여인
증상이
취하는
코소
트렌
패했다
##게이트
##드릭
디자인은
##emplate
공적
메카
모른다
무솔리
사귀
시합
신기
입당
회귀
##소시
##공격을
##단체의
##정부를
1960년대에
7월부터
경제적으로
성장했다
남서쪽
##irect
2호선
family
단어의
라노
법안을
습득
아브
열려
자민당
##공과
##남부
##제곱
##복음
3월부터
이탈리아어
평가된다
어느정도
부정적
윤치호는
시에라
청동기
창씨개
Net
Pop
교수의
그건
나빠
모모
삼층석탑
자처
정이
주역
참의
하워드
행진
##zz
##예가
##m이다
##타고
##순의
방송에서
##다가스카
학교는
정의된다
기념하기
캐릭터로
패러디
이메일
1명이
검열
나비
두개의
복권
양측
완봉
이겨
장르의
전하고
주세
지에
##PD
##치면
##글을
##하기에는
의견도
이적한
북한은
제기한
등록된
야마모토
선고했다
북동부
세인트루이스
class
마라톤
마닐라
Pat
other
거리에서
목판
세습
수중
실각
오릭스
울릉
잎은
창녕
포격
##킬로미터
##하였으므로
된다면
노선에
사무관
보이게
콘서트를
Book
which
고장
군벌
늘려
마다가스카
성적은
성매매
자서
장관이
화제를
##화하였다
##바퀴
##십니다
도시인
##부분에
그것에
선정된
생성되는
처벌을
##로마치
KTX
August
Night
놓인
대출
보증
살라
시기가
윌슨
유닉스
절친
줄이고
퇴적
##신청
##보지
##막이
##클레오
##바가
##됐던
##itz
생활에
과학의
반응은
일찍부터
경전철
Out
대승을
독단
배달
성소수
세븐
알프레
진료
향상을
형용
##자문
##위반
##보장
##DA
##움이
##0년부터
베네토
코스타리카
개개
공으로
단장
번호를
법적으로
복용
산란
읽기
자국의
진수
초콜
##그마
##코로
##행은
##레스를
시작되었으며
##나라에
시리즈이다
마을이
도로가
가톨릭교
사례를
둘러싸인
갑신정
등에서는
리에
섭정
전학
코펜하
##야스
##ren
##청구
사회적으로
제24
결승전에
발달한
아키텐
붙여졌다
##고등보통학교
app
그만큼
김두
다니다
맡는다
세분
요원
추존
파직
##티시
##란스
##33
##놀이
실시한다
클럽에서
법률에
1988년에
인터뷰를
테스트를
결별
산에
석회
조장
차원의
찾지
평을
항복을
##리얼
##나파
##점인
##상업
##효과
관리가
선거인
##ider
1873년
가져오
성우이다
법칙을
히틀러는
경건
늦은
명이다
비어
이베리아
입장에
저를
칭송
하기로
##랑카
##부리
##년을
##버스가
##순은
작품에서
대학교는
서비스가
중재위원회
바뀌는
입학하였다
시각을
Arch
사항은
연고지로
총독부
유아기를
푸에르토리
Jan
결핵
드루
매수
손실을
쌍대
조회
파는
한의
##토로
##oo
##대비
##자동
##ero
사망자
열차로
개시했다
한번도
몬테네
Society
가군
걸고
공양
기성
남베트남
박성
원통
원소의
정선
취한
커서
타쿠
태국의
피오
허난
##로워
##림은
##집은
##RT
##억원을
##ister
공개하였다
##ella
의도적으로
간신히
뒤늦게
무로마치
복수의
수단을
안도
왕과
쿠웨이트
한림
##여단
##ks
프로야구
##oul
##문화의
오늘날에는
허용하는
미래에
순서대로
신한은행
Sol
도래
머리가
무자
미키
비중이
양대
와인
지출
평상
현악
##네티
##례로
기록이다
이용된다
구간에서
언급했다
투표에서
체결했다
남편이
선고받았다
이순신
조반니
길러
김구는
남용
도이
병사를
온난
자메이
줄을
친한
##처분
##다와
##포에
##ION
##훈의
##런은
##었다는
프로모
중심을
이론과
##르타뉴
발발하자
발족하였으며
CBS
기법을
밀란
베풀
브르타뉴
왕에게
우두
조의
주권
##공작
##님에
##DS
아이들을
종목이다
후지와라
중소기업
Port
가령
동창
레슬링
비치
빛나는
요하
유러
일각
있기에
자와
출동
캐시
크라이
파우
평민
##왕복
##하우
##녀가
##브가
사이에서는
연구에서
##대학을
그것의
올라와
초반에는
##방향으로
줄기세포
애리조나
각료
같지만
끼쳤다
높이가
버린다
서스
알베르
에레
용암
정적
평평
##매김
독일군
##ague
초기부터
인민군
프레데
종류로
미래를
News
호소카와
영원히
부드럽
Richard
천천히
el
끼고
머신
배수
삼는
선으로
실리
저그
핵무
형의
후유
##종교
##견에서
##추고
##박이
경우와
주장으로
306
언어가
밝혀지지
최소한의
제출한
만주국
J리그
Your
납득
되므로
상대의
아프
이스탄
자행
하므로
했기
##지않
##가족
##문제를
##UN
##든가
##께서는
##되었음을
##이었습니다
아이폰
공격은
추가적으로
항공사
기관이
1872년
보이는데
아이디어를
인신공격
X의
마법을
의회에
주주
죽기
중용
##공으로
##리쿠
##임의
##TR
경기인
필요하다는
##omen
확인된
1891년
주변에서
출판사
고유한
달라진다
메달을
공안
면담
안기
영역에서
자위
재벌
카이로
##나가의
##광이
12월에는
개발했다
발견되지
서로를
보통의
생성하는
승리했다
작업은
해석을
회의에
반란이
고종은
나뉘었다
방사선
Brit
쓰러뜨
연루되어
가타
금호
마비
매킨
몰두
부평
안고
연행
연관이
우왕
일베
일었다
있은
지점에서
팔꿈
함은
##fl
FC에
오사카부
당선된
네트워크를
에이전
George
7번째
Lou
use
당장
묻는
사거리
장이
적당
전역을
카바
##라니
##티를
##마귀
##음으로써
##큐슈
이해하는
이뤄진
호르몬
들의
미에
본문
즐거
피드
핵융합
##말이
210
##ures
후보의
밝혀진
죽음으로
프란치
프란체스코
Association
레즈
미상
스레
아카이
오게
원소를
증상을
지름
##공화국의
##리사
##처는
##직원
##봐야
대한민국이
시간대에
##ival
2016년에
##umber
시대는
이론이
파견되었다
설계되었다
여겨지고
str
카메룬
함경북도
필수적인
##ypoly
서초구
애틀랜타
name
범위가
부채
사신을
샌드
서부의
심화
##기본
##적이라는
##마스터
##테의
##ule
##판사
아이언
제23
이전에도
의미이다
민족문제연구
어머니를
수준이
제13대
Cup
과테
광물
서임
실수를
우아
은폐
투여
폐렴
##창은
##B의
##쿠로
##갔으며
이름도
##ush
설립하고
판단하여
개통되었다
캐릭터의
주인공이
##ship
그랑프리
미카엘
##주식회사
강하고
공성
다행
못하도록
묘지
부다
성도
예선에
최장
퇴직
##모음
##간으로
##LA
##백의
활동했으며
통합을
지붕은
대다수의
지극히
Kl
조정을
##미치
##문인
##제인
##거의
##수소
활동과
동안에는
##하려던
만들어서
삭제하는
주변을
헌법의
요시다
무엇보다
크리에이
격추
급격한
때와
안방
앨리스
지날
##호대
##타수
##목과
##품은
19세기에
지도자로
수행하고
##ody
국내의
담당한
사업이
누군가
용인시
객체
명목으로
법안
볼티모
살짝
열릴
좋다고
타는
테네시
표기가
##문서를
##ka
##UC
##테른
것이지
활동으로
##igital
여기고
집합의
이주한
집행유예
느끼게
##고속도로의
수요가
수익을
7번
DF
but
공세를
불변
원본
원종
유클리드
자음
장치가
정화
주임
쳤다
퍼즐
##위에서
##포시
##하키
##였습니다
##말은
##시키는데
기술과
##운동장
반복하고
비정규
데스크톱
4시
KO
out
vs
고든
공군의
급증
매거진
문자로
부러
뿌리를
상에
위스
유령
파랑
허블
##곡동
##속도
있는가
사용자들은
국제적으로
기술로
민주당의
##unction
국립공
들어가게
발행하는
몇몇의
프랜차
개수
데에는
들지
몰랐
우세
유스
책에서
허드
##니오
##표의
##디아의
##손이
##테스는
##증권
대한제국의
지역에는
##ume
사업의
접근을
부모가
한반도의
코로나19
TC
min
남조선
농어
두지
따돌
법은
사소한
서자
선에
이봉
재난
##신보
##이야
##토모
##서비
##sy
##오자
##칼리
##lement
제2의
결정이
240
그녀에게
담당하였다
결승골을
if
김덕
남미
넣을
능동
세레
제로
증진
타르
호프
황제는
##리라고
##버스를
##익스피
##금과
##저를
##ama
나타날
##시키면서
작품인
설치했다
##ada
뛰어넘
확실하지
트위터
스트라이커
부르주아
Bre
Sim
공영
공휴
기지를
날려
링크가
만장
변동
사영
상서
염두에
종묘
투자를
흐르고
##26
##45
##전달
##르면서
##거가
##수단
##입니까
##질에
##arrow
중심지로
대상에
단체를
설비
애슬레틱
월남
##로프
##다드
##생은
##bo
##치히
##질과
기술이다
앨범으로
유지했다
1865년
이사장
옮겨졌다
##단체인
신앙을
4로
Live
has
거칠
반입
받던
서귀
스와
실체
연달아
예는
우월
철강
해부
##서스
##현실
##포드
##근은
##ya
현재에
##olic
거쳐서
근거한
선언하고
명령으로
바탕에
form
권유로
##교통부고시
불확실
Alex
고추
도청
듣는
불사
아들의
연안에
임사
자생
카지
파나마
하프
##대대
##양에
##약이
##위원에
##urr
과정이다
개최하였다
생성한
1867년
3남
Wal
격리
남의
무기로
불행
소식
이조
직계
침체
후진
##자리가
##복은
구성하고
여기서는
31일까지
입학했다
케이프
내놓았다
라파엘
때를
말에서
보이기
승하
시가지
시신은
안재
어지
조형
줄이기
청소
표출
##들리
##안보
##ias
##타도
##함수
##프턴
##버스는
##LS
##킨스
상태는
2009년에는
모습이다
소련군
30일까지
규모를
설계된
체결된
밴드이다
박사학위를
윤보선
인테르나
2위로
도스
동위
선에서
예가
장래
차세대
코호
키는
협회의
회상
##어스
##운수
##서야
##락에
##m에
##렉션
##색과
##짐에
10월에는
영국으로
역할이
지하에
이르게
프린스턴
명백히
유니버설
치명적인
EBS
Sl
남매
낮다
느이
리조
박사는
블레이
손상을
신자
연도
접해
제인
편을
효과는
후작
##다니는
##부에는
##타점
##버의
##냐고
##망은
##직이
사용하기도
5월부터
번째는
드러냈다
유니언
대사관
확정되었다
간단하게
아나톨
명명되었다
Science
##rown
아인슈타
루이지애나
6량
교류를
짧게
컨디션
켈트
틀의
파열
##비용
##군주
##체국
##척이
##후가
##평론
##활성
##isch
위키백과토론
필요하지
따르지
##style
1881년
임시로
강력히
##지역으로
일으키고
공헌을
심지어는
비스마르크
2가
기에
대위
뒤에서
배반
선조의
승용
이같은
전적
정자
##서인
##비오
##체제를
##버린다
가능성도
##ets
만들어낸
스타일의
개최되는
제30
1860년
분리되었다
작가가
##ensis
수여받았다
##박쥐과에
화재가
How
관세
막스
맛을
쓰이지
아스카
알을
프리스
##누마
##바를
##샤오
주장도
구조에
기능에
공간에서
소유의
명의로
배치된
사례는
끌어올
친일인명사전
9세기
Dream
경순
많아서
불만이
조부
지을
표본
하타
##zy
##들만
##스투
##료는
##한지
##버른
##페스트
##살을
시즌이다
사회가
확인해
Church
제품의
이바지
초콜릿
이스탄불
App
성문
요격
전자는
제임
칸의
클레이
하단
핵무기
##학으로
##관인
위키피
이루지
2005년에는
교황은
40여
조지프
국왕이
일치한다
카탈루냐
거치면서
김연
깨고
남자가
도피
마키
매력
미쿠
배터리
불완
시속
여단
전봉
천왕
칼로
페트로
펼친
##카드를
##회원
##회사가
##궁에
##붙였다
그리는
1988
off
이적을
비교해
정당이
##만으로도
BM
Dan
OB
bul
man
so
개선을
고을
남을
월요일
자사
정권에
주소를
패럴
편성이
##라나
##거든
##저는
##렸다는
##겁니다
마이애
연합군은
자연의
노래로
명령했다
자리하고
1862년
가르치는
촬영한
되돌리
아랍어
전설의
##라에몽
##미사일
초등학생
XP
거리의
공장을
반역
방어를
병력이
비해서
산지
열쇠
종은
택시
화랑
##민스터
##보았다
##만명
##순이
##승이
한국이
등장하지
진출할
발전과
개정으로
합류하여
핵심적인
유러피언
9개의
su
구독
매리
박상
브셀
성동
셀레
요절
이사를
있음에도
지분
##누스의
##등은
##클래
##ince
다시금
대상의
어려울
도로이다
이사회
고향으로
선생님
미토콘드리아
Mad
귀속
극한
마셜
순위가
신임을
온라
올해
이겼다
자릿
주부
찍어
편안
##루에서
##cript
##테는
##캠퍼스
##푸르
##팀과
##때는
프로축구
음악이
설명한
모델의
인식하고
학문적
연예인
영원한
숨겨진
4위를
DM
Ret
경작
글씨는
노론
숙부
엔터
오자
중학생
직을
집단의
파시즘
폭이
현대에
##네를
##공립
##천은
자유와
임명했다
승강장으로
제시했다
물리학자
무너뜨
##스테르담
세네갈
되살
무리를
사슴
삼중
아끼
안전을
콘솔
클리어
테라
##히사
##미스
##센스
##천으로
##루엔
##바나
##ola
9월부터
##ason
임명되었으며
귀국하였다
제정되었다
##obal
항목을
토너먼
몸무게는
겪게
결제
남산
당신
반납
식물의
연말
유망
인정을
일진
장벽
팔작
형제가
##는지에
##지오
##으러
##방식
##강은
자료는
즉위하자
##iff
##스케이
건조한
익스플로
기장
매도
멜버른
명나라의
범위는
복장
본사
쓰기도
알폰
의류
인식을
출국
한족
##현으로
##당하자
##봉은
##arg
가운데에
분류가
조사한
UEFA컵
부임한
페이지에
편찬한
신분으로
라노워
3위로
각지에
격렬
금산
단국
쉽다
슈고
예산을
오디
왕조가
의석을
일리
질량은
포토
해킹
##원자
##처가
##여우
##간지
##출력
10세
##리아를
지정한
2008년에는
실행할
삼국유사
홍콩의
인도네시아의
미드필더로
##타나베
미루어
Institute
같다고
막대
목성의
바울
밴쿠버
실록
운수
전기를
정정
투신
##지법
##지검
##7호
##참여
##제철
##수입
##급으로
##져야
##팀에서
11세기
구성요
나타났
정의된
노래가
해결을
주민의
탑재한
##사이클
프로세스
USS
어디까지나
West
cap
가졌고
이륙
자카
진을
카타르
필연
##러드
##트맨
##충은
##읍을
소속기관이다
##ady
유래했다
여겨졌다
기초한
가르쳐
노력하였다
아사달
중립적
만족시키는
##계획을
엑스박스
중성자
공직선거
잃어버린
병자호
3점
End
거룩
블로
쇠고기
##och
##ness
##제1
##69
##함대
##있습니다
사용했던
10일부터
국가들은
독일을
내용도
중앙의
1일에는
반대하여
제목이
누르면
계단
발해
쪽의
차르
키스
##도스
##통과
##통은
##약의
##진한
##책이
하였다고
프랑스로
##대학교는
한국어판
거부하였다
결성되었다
##ference
살아남은
감정이
교회에서
구한
던진
따왔다
매번
예멘
이기고
준보호
##포타
##한데
##녀의
200여
사람인
반대하고
거두어
유래는
우크라이나의
프리미엄
노스캐롤라이나
펠리페
코펜하겐
라노워엘프
개미
도라에몽
반죽
방대한
양력
의식이
정여
징수
추리
펜싱
##왕국
##판매
##질러
##alth
방송에
관계자는
##르트의
##ayer
대립이
마법사
공헌하였다
볼로냐
1시
GDP
가격을
강의를
구금
김승
높이기
단발
법이
신약성
자명
지류
##기갑
##놓았다
##머는
##정에서
##언론
##좌를
##밴드
영화배우
아이즈
방송의
로마로
열린우리
대체적으로
##프로세
소재한
홍콩에서
##차례의
생명체
분위기가
Cy
나가지
넘치는
노드
농부
매끄러운
부실
안드
여는
왕조를
인적
지탱
질서
##기아
##기둥
##티드
##관이다
##봉의
##왔는데
14세
제작하는
가능합니다
관련해서
운동과
프로그램에서
태양과
선언한
입단한
아프리카계
근본번뇌
아리스토텔레
DR
Top
가늘
각성
구호
맞습니다
별을
별자리
옮기는
요제프
적외선
전력이
정제
카세
하츠
##가게
##대리
##상황
##까지를
##ird
표기한다
소프트뱅크
발달하였다
전해지고
##페이지를
합리적인
##conom
1조
가드
글에
다이라
대전에서
마요
의령
의회가
조례
주신
치우
##재와
##통에
##88
##스레
##ye
역사비평
결정하고
프로그램인
국회의원을
처리할
협력하여
열대저
포도주
Soul
5명
7회
값은
예종
위를
은하의
장치는
코시
##라며
##여야
##진구
##피오
##샤의
성공한다
##ster
2005년부터
인천국제공항
법률을
지식인
스타디움에서
어려움이
이데올로
Gal
USA
경량
공로를
대군을
마누엘
부시
분의
산을
셰익스피
파고
피라미
하르
향했다
회원이
##시설을
##비한
##팅을
##창이
아니기
구성은
지원이
요구하고
##르트는
dev
시험에
당선되어
집중되어
합류하였다
레오폴
미하일
감리교
1에
Bu
Math
Rh
대량의
버스가
보였고
분수
시점에
아델
원소는
의논
잠실
철학의
##인간
##벨트
##탄이
##움의
##퍼레이션
이용하고
가리켜
아프리카의
청나라에
콘스탄티
의거하여
교단
군용
동형
마리의
버린
변증
샌디에
위원으로
이례
징집
추억
헌납
힘의
##하곤
##극의
1989
위치로
이상은
##스카야
주인공인
주최한
시마즈
모로코
bold
겐지
관해서
급여
라오스
문명의
시몬
신석기
안정을
여배우
오미
오와
이언
정읍
직업을
캄페
희곡
##내면
##요가
##우스와
##종에
##복무
##심에
##itch
아이들
##reet
발견되며
시스템으로
진출하여
시민의
요시쓰
이승만이
복귀한
결합을
라이브러리
아들이며
신시내
쓰레기
2는
4량
관음
미요시
버마
석권
전위
패하였다
프록
하려는
##기보다는
##노부
##태가
##돌은
##뉴얼
##웠으며
지방은
출연해
그렇기
가문이
제4대
금지하는
명예를
현실을
동작을
패턴을
메트로폴리
네이션스컵
케네디
JTBC
할리우드
##디나비아
Pal
국기
다리가
로타르
만년
믿었다
밀도가
바스
부추
부담을
블레
실증
쌓았다
초안
탄자
##군인
##먹는
사용은
##ano
##나라가
정의에
대중의
##aker
달러에
개편되었다
채널을
##시험에
오케스트
2점
RT
Sun
경매
브랜
승부를
시중
아리아
이빨
일일이
##네르
##스퍼
##집권
1990년대에
활동했고
시즌에서는
##바이러
보수적인
지명되었다
투수로서
오브젝
출마하여
사도세
피렌체
해밀턴
1점
2단
Nov
당하여
동서로
되게
문경
복직
봐야
설계를
않거나
지린
한계가
회유
##로스의
##고에서
##케라톱
##비치는
##대군의
##하느냐
##초가
##령과
##arm
설명하기
수행하였다
아시아의
일어나기
바다를
임금이
3집
겪는
대사를
라치오
로페
로컬
상품을
암스테르담
취할
컨트리
파푸아
폭주
하의
##래도
##하는지
##에게만
이후인
필요에
이론에서
기관을
공화국이
그림이
조약의
교회와
교체되었다
아내가
머물렀
플레이오프에
Journal
circ
감상
내릴
덮여
도봉
드레스
로버
없도록
외국의
의원으로
잔존
팬들이
포로가
회장은
##민들이
##대서양
##불이
19세
10세기
시작을
조직과
구조와
전문적인
움직일
주도이며
노력했다
##호선과
채택되었다
올스타전
요르단
제너럴
6회
90년대
Hot
공정한
구두
맥아
몰고
바라는
별세
비중
시찰
신을
영의정
요시아
일산
중생
콜레
##가들이
##료가
##청사
##박을
12월부터
아이디어
스트레스
천황은
총선부터
메릴랜드
Hol
MM
관절
남성이
문맥
부교
씨앗
여타
외환
이항
##라드
##고도
##지스
##9호
##호르
##연금
##ling
##uv
##콜라
##ars
사이먼
아니므로
기반이
제기했다
가톨릭교회의
물러난
Tom
Wil
박사가
손녀
스기
왕정
정말로
해주는
##공무
##으려는
##임에
##ca
##외교
##저의
##GM
##알라
##리아와
6월부터
사실과
##km에
표시하는
정규리그
예술의
영토로
유래되었다
##스키의
보존되어
무엇인지
해체되었다
도미니카
극단적인
Micro
1사
격하
냉방
대덕
유머
제주시
줄곧
중공업
환자가
##시으로써
##대성
##트트릭
##프에서
##규는
편집자
##대학교에
라이너
학교가
제안하였다
1878년
신설된
투입되었다
건강한
절대적인
사유로
CIA
God
ret
대포
맡기도
벤처
서거
속이다
지식이
철도를
쿠로
튀르크
##로폰
##공사의
##장에게
##제사
##루브
##반대
##쓰는
12개의
##als
11월에는
감독인
2월에는
2006년에는
통합진보
직후부터
내각이
후계자
스탈린은
##clop
imp
거꾸
누리
민감
보면서
부회
새긴
수만
알리고
오스카
전하
포스
행사에
##요는
##경쟁
태어날
##ids
음반으로
자체적으로
##기관을
적용할
에너지의
출생하여
종류는
대표팀의
휴대폰
이노우에
about
Rel
이길
정체를
펼쳤
함대는
혜성
##더러
마지막에
도입하여
지나면
컴퓨터에
내려졌다
없었다고
반발을
ref
여의도
농림수산
Ma
간격
납부
미합
부진을
북경
북부와
예약
은메달
조이
후루
##가이자
현대적인
증가하는
국립공원
인기있는
콘텐츠를
클린턴
차가운
스튜어트
탁월한
1은
Hel
NT
Peter
규정한
다발
대담
모란
밝히는
서면
에반
예의
책으로
치른다
형제는
##사다
##춘추
이어지고
2007년에는
소속사
2006년부터
배우는
언어이다
구분할
이외에는
않을까요
편성으로
##데이터
무산되었다
궁금합니다
메소포타
Che
개로
군중
군함
꾸며
마니
만인
요소로
재료를
적힌
전멸
제도와
조정은
천수
털이
확충
##네오
##O의
##모노
##나지
##데일
##질환
##으로만
사용되기도
##이라서
일반적이다
제작하였다
문화는
이전하였다
고려에
서비스는
1870년
##ipp
스테파
반복적으로
##ource
비율을
인상적인
스칸디나비아
Girl
남았다
단군
등등
부풀
빅뱅
뿐이었다
유능한
이바라
자랐
작전은
점도
점진
침범
##기계
##셔도
사이언
13개
이탈리아를
비판하고
조건에
출처로
300만
Alb
##TV에서
창설된
후손으로
사운드트랙
포스트시즌
키프로스
Elect
XX
듯하다
바보
소외
애완
월트
책이
철학을
초에는
프레이
##선형
##마케
##집에서
##6호
##파리
##광년
자신만의
##lev
이상적인
러시아가
발매됐다
방향이
방문했다
표기하는
자치체로
침략을
연관된
##이닝을
##고등법원
황태자
아틀레티코
5개월
디에
떠나는
루돌프
리서
마스코
물과
보았을
시크
안경
앤더
일과
직사
추축
판의
패스
품은
##요일에
독일군의
존재는
##위원이
편집할
2007년부터
출전하는
과정의
영어의
적용되었다
국가대표로
배치되었다
직후인
공유하는
컴파일러
프란치스코
1편
2선
가토
가쿠
거쳤다
끝났
나트
모신
문학의
팔아
효력을
##시브
##제도의
##정주어
##틀을
12시
자신에
15일부터
##rew
진행할
편집한
2004년에는
전라북도의
시민들이
무렵부터
1985년에
구체적
전설에
선제골을
분당선
전성기를
어촌정주어
GF
SH
고흥
만날
박용
분단
색은
어우
적었다
청취
평탄
##그러
##메트
##D는
##있는데
활동하면서
##들에게도
경제적인
##ident
보고를
분류에
학생을
부산광역시의
교황이
##cept
1874년
##aceae
브리튼
연관되어
와카야마
아이치현
Aut
김학
깊게
나무를
뉴턴
단점이
배터
법원은
수페르
순식
의용
조치가
튼튼
황실
##토에
##니크
##2는
##100
##블릭
##암동
##섬의
문서도
6월까지
방송은
##ays
사무라이
히데요시
희망을
대대적으로
김규식
3억
Ob
공리
광주시
근래
다수가
디비
모스
수비를
시도가
질량을
켄터
##적과
##28
##자로부터
##S는
##ues
##배가
##셨다
1월에는
영국인
러시아에서
차단은
##운동은
전국에
##이어야
조선인민군
알제리
4세의
AF
Green
Mi
NAT
날을
당연한
많지만
부제
상록
영천
예시
의상
카네
푸아
##제이다
##BL
##저가
위치하여
진행되어
충청북도의
Class
빠져나
탄압을
##에너지
거꾸로
3세기
과잉
교리를
김장
독서
뜻에서
붕어
비준
빠르고
산이
서지
쓰일
올렸고
지적을
체조
폐차
##공사가
##성인
##화되고
##후이
##몬트
##피탈
##틴은
##컵을
지방과
러시아어
참가한다
유니콘
국왕으로
##하시고
오세아
피츠버그
Song
TN
log
교장
군대와
규합
너머
당하였다
부파
신세계
융희
이의를
일원이
타마
후방
##성장
##지리
##미네
##D의
##농민
12세
독립한
고려해
민주당은
시스템이다
추천으로
줄어들었다
UC
극락
눈치
말입니다
모임을
미칠
배에
불상이다
사물
소지가
정령
해피
해트트릭
##는지를
##지어
##키로
##러와
##경부터
##광의
##변호
결정된
요청한
앨범이
레이싱
과학자들은
MLB
이산화탄
팔작지붕
2일부터
Bus
First
Gold
경원
머릿
불에
불려
스드
자비
잠정
종식
즐기는
질의
총을
충무
활주로
후원을
##되다가
##전대
##받기
제1대
확인한
내려오는
추진하고
세력에
세력과
##기술을
이주했다
부모는
누구도
산맥의
대수적
##식품부
외야수
어촌정주어항으로
공세
광대한
국회에
김은
사대
숨을
오르게
위구르
철도는
친족
터보
퍼트
페로
한꺼
호기
흐른다
##양과
##심사
##QL
##쪽은
##onic
##스트가
리그가
2010년에는
2008년부터
사랑과
역임했고
1987년에
크로아티아의
확률이
디비시온
GT
구획
그밖에
농경
아약
앞바다
영암
##어사
##유로
##전에는
##요리
##랑은
##창조
으로도
##acing
기관은
하이퍼
종류에
위반으로
Roy
4세는
AA
Kim
동인도
못하였고
분명한
삼은
상고
원반
유수
정리를
종신
주계열
중이며
##중공업
##라호
##선수로
##다테
##림으로
##분류
##C는
##초는
##활동에
중국으로
조직으로
제공할
인도에서
유사하게
Real
작가이다
유니폼을
더글러스
순식간에
1이
RS
기와
내재
듭니다
맹세
산티아
시장은
쓰게
어업
오산
전방
좋습니다
증상
체계가
촉발
편으로
함수는
확고
##천년
##분간
##노마
##타점을
##정사
##언이
##출장
1980년에
사이트에서
3월까지
개최한
2004년부터
도입을
나오게
뉴욕주
예정인
불리던
다르지만
생물학
몽골의
탄생한
아침에
상하이에서
복음서
한꺼번에
Bel
남방
리베르
묘소
싸울
역도
철학과
측에서는
통폐합
트롤
하카타
휘발
##발생
##정부에
##희와
##택이
##ita
우승으로
지금까지의
만들어지는
##대학으로
##emb
레이디
활용한
득점하였다
감염된
Commun
실시간으로
신천지
GNU
구역으로
굴복
기법
노력이
문하에서
미군이
소행
양조
왕인
집현
총사령
최용
충칭
통하는
평야
##za
마을로
프로젝트가
해결하는
불교를
가입한
인사들이
사후에
머물러
의무가
아테네에서
성능이
노르망디
Web
궁중
다마스
방침을
불만
외부에서
워드
이니
이철
줄일
확장을
##했으므로
##움과
##좌의
##ines
사이트에
세계로
아이들이
참여해
개발하여
사무총
통과한
바람이
참석했다
니시테쓰
성폭행
스칼라
부에노스
Work
sigma
감자
공예
기니
동탁
마시고
모차
번역을
보도가
세례를
양념
온두
완결
잉여
잡을
재료로
전차를
좋고
천명
토목
패하고
##설과
##ious
##화했다
##즈와의
##든다
##암의
##친왕
##ating
선수단
감독이었던
제27
대학은
계속했다
계속되고
설치할
중앙아메리카
##ope
출생하였다
훼손이
강조하였다
엔진의
Sport
박정희의
정차한다
거짓말
아이템을
Sub
du
id
과시
기밀
담임
씨를
에볼
예로는
오시
조영
종이다
주저
죽이는
##29
##다오
그러다
제작하고
##idd
개인용
##ives
Champ
저작권을
촬영을
미디어위키
북서쪽으로
수원시
남서부
개칭되었다
간접적으로
두개골
비타민
Big
Tour
bas
나일
데는
부부의
비스타
빠지게
새마을
성질이
외할
음주
입어
적법
죽는
중개
지오
항성의
현장에
##EP
##데요
국가인
차지했고
월드컵의
40분
도착하여
확실하게
출범한
유벤투
집어넣
만장일
코호몰
8세
Mal
co
기피
단속
동급
동메달
밀리
바우
시오
앞뒤
재단의
제헌
종영
측면을
##리라는
##버리는
##데자
##탄은
일본군이
이어주는
시스템에서
활약하며
경찰서
기타를
소설이다
부여하는
본래는
편성되었다
얼굴에
weight
Gamma
cent
경계에
말소
반대의
병렬
보은
엇갈
위주의
조화를
좋게
주일
지분을
한서
##히라
##립의
20개
30만
프리큐
이론이다
차량에
State
2차전에서
시민들의
세포가
1984년에
당초에는
1칸
Nat
Pet
고찰
괴물
글에서
김희
단거리
박중
신들의
유감
윤원
이홍
정계에
중원
팀이다
##티와
##암은
##필을
국가이다
제작했다
돌아오는
행동으로
말씀드리
비율로
##상태에
아세틸
카카오
1세기
time
갈래
강은
로키
박해
베테랑
봉화
생모
연대를
오류를
우간다
의도를
자란다
케플러
황폐
##료의
##헌법
진행한
##ists
인터넷에
아내인
8대
PA
뇌물을
성행
손님
영리
절충
패망
표절
##소녀
##기만
##집으로
##바위
18m
당시는
연합하여
##세포의
조선민주주의인민공화국은
가격은
대성당
used
Jean
8세기
Win
끼친
둘다
말하기를
맥주
보행
부당한
영덕
왕래
직속
친히
회담을
##기하
##스전에서
##리이
##다스
##for
한국일보
독일군은
확인했다
##민주당은
자동적으로
이와테
조건은
승리하였다
인터넷을
캐릭터이다
파일의
즉위하였다
라이브러
프톨레마이오스
위스콘
AU
가공의
걸프
관보
규명
날인
도산
말린
매진
미만의
사정으로
상부
시키는
에른
예문관
정계
##동성
##찬성
##주곡
##증과
##돈의
기록하였고
중국에서는
구조이다
찾아와
통합되어
기념하는
대중에게
보수주의
Unypoly
베르나
시청률을
스케줄
유격수
일행은
낙동강
3일부터
가루
강호
고온
드립니다
믿는다
발산
비중을
상점
실효
저주
첩보
통역
##정동
##실장
##피아의
시작되는
기록과
세계적
영국에서는
반대했다
50여
종교적인
수행하기
삼성전
노르드
체포된
10년간
신앙의
받아들여지지
주지사
하느님
쿠르드
매카트
##cyclop
lambda
계정에
구에
금전
묻혀
벌이고
본관
살아가
수정을
슈타
이지만
자라는
청도
필두로
허베이
##층에서
이용이
대표되는
##시키면
##이드의
명칭이다
바로잡
컴퓨터가
제시된
식민지를
집합이다
혼란에
거절했다
대표팀에
완공되었다
앤드루
LCK
3주
Acc
Kh
건널
김천
되풀이
릴리
만화를
맛이
서바이
스플
이코
혼다
##기병
##들고
##문과에
##흐트
존재한다는
있습니다만
2009년부터
이야기의
##시간에
북한에
1869년
이주하여
원칙으로
중반부터
##ibr
##노동조합
자녀를
카스티야
충렬왕
미성년
##데자네이
NL
kn
공사로
공주시
김선
동부의
떠났
떠날
맡겨
사명을
서프랑
우위를
의회를
전조선
절망
칠곡
틀에
폼페이
행위로
행해진
##공장
##1은
##구미
보통은
1880년
고종이
1986년에
개시하였다
시티즌
체계적으로
몰아내고
대다수
헤르체고비나
Joseph
Bab
니켈
매립
변하지
비리
비아
위상을
태생의
홍성
훈장
##을때
##트레
##바인
사용해야
10위
생각에
11월부터
조직하고
시리즈로
오래전부터
좋아한다
어디에
자극을
유치원
프리미어리그의
오바마
5차
Da
Free
Mont
견디
산으로
솔루션
요소는
의심을
저에
쪽은
찾았다
초까지
토모
픽처
##하네요
##사자
##폭력
2003년부터
살해한
발발한
폭탄을
오디션을
날카로운
힘썼다
1과
거치지
내에서도
노란
다국적
당나라의
버스는
수인
아브라
정진
직원이
짧고
치유
##남에
##선인
##부대를
##li
##상공
##즈마
도시와
대학으로
설치하는
결정한
최고인민
어머니인
집중적으로
삼국시대
적절히
화재로
##press
나름대로
Windows
클러스터
Back
iOS
배워
소용
아드리아
양상을
어웨이
없었습니다
정문
증조
편의를
형제의
혜택을
##민정
##잉글랜드
##례의
##숙이
##iter
산업은
마르티
다카하시
가정용
자살을
그만두고
Id
무색
물결
부왕
상이
서진
신전
없었으나
왕조는
응급
일가
절대로
주제는
줄이는
체력
카피
해준다
##례가
##ities
정치의
제공한
제공하기
플레이를
그래미
공화국은
국가대표팀에서
##지방법
파견되어
성장한
가르시아
대비해
가담한
650
Battle
Fil
J1
끼워
드레이
믿음
생계를
시발
자리는
증오
찰리
탱크
##와도
##해지면서
##사단의
##iness
사람들에
15개
14개
영국군
##acy
계속하여
실시하여
조사에서
아무래도
불리한
파괴되었다
이슬람교
집안은
Progr
Pres
한글로
국토교통
익스프레스
포유류
포유류의
아이스하키
미스터리
가나가와현
Best
Jr
객원
미츠
바오
번씩
베오
변하는
보름
불릴
산호
여당
옥수수
외척
재앙
타지
##대체
##물리
##락은
##열은
##십니까
사용에
지방으로
##이트를
##리스가
##adow
보고했다
바이어
도쿄의
대체되었다
마드리드의
탈락했다
표제어
시외버스
2세기
Found
Sigma
권력의
떠돌
에다
원전
인식이
장소가
정예
정일
쳐서
추후
##토프
##운은
##했으면
##부시
##각형의
##태수
##볼을
17세
이용되고
일반화
##ote
인도유럽
노래의
사업은
결승에
베이비
분포하고
우려를
다스리는
우에노
프랭클린
1번째기사
Award
ass
web
고창
높았다
영락
이문
있겠
종을
편견
##히드
##러시아
##아로
##손은
##할만한
##승은
##젤로
##adem
기관으로
방향의
1875년
밝혀져
발언이
보도되었다
공항으로
에도르
필리핀의
명확하지
철저하게
히타치
리우데자네이
손해배상
결사
관상
그라운드
돈이
문자가
미식
복역
수염
수정이
신분을
워낙
이서
조조는
지음
총회에서
하겠다
##46
##95
##르카
##피크
##맥을
대통령에게
2012년에는
그녀와
연합군이
음반에
보호하고
사상에
자리매김
부정하는
결합한
규칙에
고정된
우루과
NGC
Dep
가우
구경
기원을
대를
대나무
문자는
반기를
사수
양평
주시면
집적
팀내
##설계
##케는
##문자
##왔지만
1973년에
하였습니다
부산에서
사업으로
영토가
즉위년
플랫폼을
브리티시
오클라호
볼셰비키
Aust
YG
게리
날은
남자의
두뇌
레버
실권을
에픽
오우
있지는
절감
절벽
차라리
출사
통솔
패스트
호랑
##니티
##행사
##임과
##레와
##ones
사회적인
연합국
생활의
판단할
애니메이션의
수준에
스위치
다음날인
이바라키
6일부터
80년대
more
갈리
건전한
내주
마디
마운트
목재
바흐
박진
불균
사내
스쿠
심상
쓰던
전주시
히브리
##니버스
##자료를
##절도
##만인
##바브
##됐지만
사이트를
사무소
애니메이션이다
승리하여
여름에는
디지몬
대항해
Lee
32년
NS
She
gl
길로
달했다
번이나
법령
아디
암모
엑스포
유방
책록
총리의
최순
화면에
##리드
##다양
##right
역할에
##ocal
##시간을
올라가는
스트라
공화국을
사진은
유래한다
완성되었다
출입문
예수회
히틀러의
전년도
Service
GM
GPS
SR
TS
던지는
도로는
문장이
싶다는
않음
없거나
여주
전자가
첫날
플리
##원칙
##니언
##대지
##회사를
##35
##손의
##희를
##악을
##GA
##먼의
처음엔
##reg
비판적인
적용된
구분이
통과시켰다
##지방검찰청
채택하고
등판하여
바닥에
고마
고트
끝내고
뇌물
북벌
옆으로
이보다
집의
치르
판명
##조각
##그라운드
##립을
##직과
발표한다
국민투표
출연을
##ather
유지하였다
대전차
이론적
그룹에
지배하고
사상이
삼성전자
근대적
사항이
모스크바에서
단백질의
주최하는
마음작용이다
교과서
프랜시스
무승부를
Di
Power
가결
갑오
권리가
꽃이
목회
밀가루
설정을
영역의
옥타
왔던
유독
죽일
체제에
헤센
##도상
##길은
##편성이
##구간
##노조
주장하여
참가하지
운영에
대상은
지나가는
생성된다
방문하였다
대중적인
국립국어
지켜야
분노를
Ha
sim
관점을
군데
등단
먼지
생리
원균
이덕
절도
진리
컨설
타도
푸젠
##아과
##ball
##진상
##pos
##족으로
국가적
참여하였고
구조적
여성과
인터위키
2017년에
거두었고
치료에
개막전에서
겨울에
끝나면
주어지는
취득하였다
무사히
단행본
Company
4명이
공국
단어로
분사
상자
요인이
음이
지다
청송
코린
획기
##참찬
##피안타
##최고
##ful
부분이다
마이니치
건물에
살아가는
충돌을
얼굴이
성우로
후쿠오카현
유효한
대결을
착공하여
불분명
6명의
남작
내며
방안
빨강
선조는
속성
전장
진한
초음
파리에
##기상
##마켓
##씨로
20일부터
조선이
2011년에는
여성은
이동하여
예정되어
결성하여
이번에
발행한
스테인
Prot
건립된
피아니스트
파라과이
자랑하는
모티브로
hyolee2
Sur
뒤따
밀레
복수를
사와
섬이
셰이
암석
였던
음모를
의병을
인증을
집단이
특성이
포츠
횡령
##했기에
##하긴
##임금
##입을
##막의
##NN
1983년에
제공했다
교통사
모여서
##ears
##ences
총칭이다
2를
대여
동요
러시
분들의
불경
불타
수위
첨부
최남
현립
##동지
##으론
##두리
##실점
##탑을
##느라
##슨을
##짐을
국가들이
중국이
편집하는
유럽연합
올림픽을
소련과
수행을
제기하였다
바탕을
발언에
엔진이
##재판소
로그인
주축으로
코트디
##ography
6000
FK
WC
겸직
공시
과목
기적
말에는
미카와
쓰면
예정이
우상
친왕
태화
포섭
향하여
흑백
##아트
경우의
가능성은
Stand
##리오스
표시한다
종료되었다
목적에
신성로마
입장에서는
천안함
성직자
보편적인
Research
750
Vir
gu
개기
날로
놓아
레스터
로타
무어
부인이
열두
외무부
의정
이들에게
찬사를
채소
형을
형상을
##전력
##했는지
##아들로
##달의
##uter
##외로
##둘러
##eration
1980
##라이드
우승과
기술적인
상황이었다
개최하고
기타큐슈
개통과
금지하고
고등교육
빅토르
정교한
2군에서
갑작스런
페르난도
##네티컷
2번째로
Ter
cell
나르
내지는
동전
물체를
배경을
번호가
선우
수식
신곡
장병
처리가
하려
##측이
##토키
##공파
##스키는
##발에
##천과
##제어
##주도
##명도
##ats
모두의
제26
편집은
국민이
발전했다
증가했다
회사에서
이주하였다
남동부
취소되었다
Frank
급격하게
히데요시의
6만
8회
Hell
가도
노보
말라고
배타
불의
심포
차이나
할인
행해
##조작
##사사
##초로
##움에
##좌에
##왔다고
##학교는
모두에게
##회의의
제2회
260
임명되었으나
언급하고
거두고
물론이고
기초가
확대되었다
전용도로
1972년에
##산업의
매장되었다
만드는데
스카우트
Ta
거처
끝을
남부에서
대책을
도도
뜻하며
문단에
번은
보이스
색상
수퍼
슈투
안됩니다
여자가
여자를
오해를
정관
조수
총기
추론
크기와
형벌
후백
##어류
##기시
##토바
##ois
##ware
##교류
##삼존
##받았으나
##pect
##브와
##련을
출연한다
발전한
Chong
추정되며
공항은
모터사이클
중시하는
객관적
NBC
first
may
궁내
남송
내포
눈물을
대머리
도구를
도구로
뜻에
송환
시네마
신문에
써야
와는
의성
인체
자코
줄리
중랑
차로
코네티컷
##설의
##작업을
##노미
##등과
##순에
##숙의
경우이다
문제삼
등장하여
클럽으로
단체로
정신과
정상회담
나와서
힘들다
세계대전이
European
5인
9일부터
K3
YM
귀여
내전이
무제
박찬
살면서
안된다
오가는
이랜드
참배
최영
출제
평원
폭력을
함양
##남의
##개정
##역인
##걸이
##I는
##치카
##후는
일본서기
만들었으며
포함되는
영국을
국제선
인정받았다
정의하는
찾아서
일반적으로는
조지아의
성격은
가입하였다
유로비전
받아들일
조정에서
동의합니다
현재까지도
웨스트민스터
인테르나치오
GR
RC
Tor
기입
반도에
셀틱
옮기고
의자
체제는
타인
##개미
##미래
##주사
##배치
##피트
1970년에
행정부
내려와
투표에
1877년
안전하게
안동시
이마가와
콜론타
5일부터
Div
Ir
공적을
내린다
비는
순서를
음운
피살
한자를
형이
회사로
##표준
##하이드
##사들은
##EA
##버가
영화제에서
가능할
관리에
230
출전하면서
드라마의
알렉스
라틴어로
Blue
신화에서
디자인이
캄페오나
Digital
Max
것들은
공로
나우
보령
살기
오일러
왔으나
윤선
정박
제명
탐정
호투
##지였다
##호에서
##려야
##box
##arn
1981년에
조선에서
있었으므로
사회는
이상인
연구로
리그는
축구단
러시아에
지원했다
지구로
기여할
지지하였다
##적이거나
2001년부터
저작권이
조약으로
거주하던
1859년
000년
프란시스코
##인가요
복음주의
General
뒤집어
바빌로
맥스웰
토스카나
오마이뉴스
1주
Dis
kt
군과
두터
떠난다
소작
원심
유영
입자의
작위
장녀
중에도
크기로
##카게
##시인
##포인트
##BN
국가들
있었기에
사건에서
연결을
태양계
유니폴리
거두지
소개하는
북서부에
나폴레옹은
누군가가
마카오
By
간결
구명
기가
대진
몇가지
방공
복속
세번째
신학적
염소
일정을
##네임
##군수
##구스
##주머니
##31
##작전을
##몽골
##때까지
##혁신
##컴퓨
생각하였다
2월부터
선거구로
교육이
요구한다
그것이다
근거는
선출되어
떠나게
1982년에
지식과
김정일
현상이다
논문에서
효고현
요하네스
27년
Human
PL
드레
무도
이만
인테
인재를
정변
치아
##그는
##강도
##EST
##당했고
##급이
##품에
8월부터
아이의
지원하였다
생산되는
형식이
##oung
전설적인
플라톤
대의원
무죄를
장로교
홈경기장으로
##sych
켄터키
2승
wik
능력과
다뤄
보기도
브룩
상식
유태
이호
장본
##적일
##지향
##보이는
##여지
##탈을
##lor
##협상
##ration
##황은
##급은
##워즈
시작했는데
활동했던
연구하고
##위원장을
##입니다만
나타냈다
결정은
변경된
발전이
##ops
국회의원이
달성하였다
증거로
인수하여
광복군
김종필
알고리즘은
브레멘
마르크스주의
플루토
bullet
1권
Ever
Ros
건안
규정은
기이
기차
능력에
독살
마에
만루
발로
불거
손오
수하
스몰
신지
에페
유이
전면에
정세
주었고
직교
취리히
페레
항만
혈관
혼잡
##메드
##0년까지
하나님
spec
계약에
사랑방에
지배하에
히로부
also
공부했다
태어났고
이뤄졌다
가끔씩
##훈련을
Fe
line
omega
구약성
기권
넓고
노랑
당수
말리
비토
생선
외삼
재편성
재계약
점으로
주동
질서를
채굴
휴양
##소방
##제조
##구장
##rt
##브러
14일부터
13세
가능하도록
부분과
언어와
전해져
교체로
임무는
##ruct
IRC
꼭짓점
역사비평사
Rem
UR
With
가졌으며
것만
기종
산하에
아들과
알림
양식으로
위법
의금
족의
청문
행한
##이시
##짓는
20세
만들지
기술에
출전했고
적용하는
시행되었다
복귀를
조각을
출마를
##eek
싱가포
솔직히
모닝구
3라운드
Doc
Law
간사
반려
사비
주며
지식의
##선택
##달이
##노르
##uf
##악단
##메니
##급한
##VA
위치에서
생각하자
사회과학
나라로
##기관에
##ersion
교황청
제시하고
드러난
달성한
브루클린
홈페이지에
Carl
##텔레콤
1남
Tw
부리
부조
사교
에글
와타나베
완비
외손
이창
적자
팬들에게
히노
##여행
##묘한
##빨리
##하기까지
아니냐는
incl
민주노총
표현한다
확인하는
시리즈가
##주시기
소설의
재판에
수학하였다
textstyle
GFDL
2위에
4승
KD
뒤덮
모를
발자
비긴
자부
제왕
지켰다
질투
토미
풍경
하실
회원으로
##길의
##마리의
##burg
##광고
##런의
등장하고
000명이
그것도
환경이
사라지고
작용한다
발언은
떨어진다
제도이다
매일경제
USB
그랑프
악의적인
##무스메
MD
Media
disc
강성
것들
구원을
글과
끊어
반민
사생활
서리
속보
육군은
임기는
직무를
파충
해군이
해안을
##학위
##이론
##적한
##현동
##예수교
##tain
##국도
##차트
##때부터
1986
16일부터
가능하고
##시키려는
제국주의
개념의
모양인
##htt
주도권을
출발한
성향이
세웠고
보냈고
조용히
폭넓은
저렴한
Martin
내구
도장
별명으로
설교
시켰다
없어진
요양
자존
종파
충성을
치뤄
탑신
파시스트
휴가
##업자
##신앙
##리스는
##구니
있다며
대학이다
참가를
데뷔했으며
임명되고
파일은
초반부터
종목에서
얼굴은
고전적인
공부하였다
이시카와
높아졌다
근본적으로
간행된
여운형
게오르크
인플레이션
클라이맥스
경복궁
몸길이는
천연기념물
pe
객실
거란
구례
국의
네모
다우
로테이션
마테
배양
변수를
복위
부르게
선양
에이지
원동
인코딩
제재를
##IX
##빈이
##배의
##리아스
들어선
발표하면서
전투로
상대방을
유명하며
항공사로
비슷하지만
사고의
마법의
강점기의
할아버지는
그외
김도
물체가
박재
백만
보도를
스어
인위
조조가
황색
##티미터
##절도사
##방법
##데스는
##태는
##Dae
10량
활동할
감독직을
아이젠
구성되며
불과하다
아름답
사가미
메디치
프레임워
German
3단
Dem
결렬
과다
다수를
볼프
빈민
소를
쉽고
신숙
영역은
이석
인하
일생
화면을
회장의
##지상
##남면
##전에서도
##생인
##코어
##EX
##변경
문제점이
##리그에서
사망하면서
제공하였다
이승만을
준비가
준비하고
슈퍼컵
고속버스
450
1세대
증명하였다
6699
해운대
##슬라프
hist
공지
과는
나면
마에다
며느
모라
무네
밝고
부인은
선대
손해를
수군
시원
시대로
열거
예로부터
완도
잔여
전범
집이
천체의
청일
##역이며
##OK
##졌습니다
##cus
##형사
선수와
대학이
설치를
이루어질
인정할
투표가
친구로
결승에서
조약은
모르겠네요
불안정한
연대기
Adv
1인당
아나운서
위스콘신
4분
8000
back
기분
리쿠
발송
브루스
상세한
일주
임기를
입장은
캄파
패하여
##S의
##크레
##타리
##탐정
11일부터
프로테
이용하면
발매되었으며
이미지가
임명하여
인정한
##ula
행동의
이끌었고
분야는
판단하는
League
신체적
자택에서
브란덴부르크
J2리그의
오세아니아
에른스트
오클라호마
6699ff
8번째
B의
East
House
Jack
Post
가가
거병
건네
낮고
녹음을
능가
땅의
랜덤
로트
맞배
못하면
변모
빨라
성인이
세바
조동
처한
효력이
후베이
##곡면
##관한
##두가
##실점을
##독일
##북면
##era
자신들을
당시부터
국가들의
활동하였으며
개발하는
사실상의
문화예술
로마자
기능과
오른쪽에
##illa
시설이다
종목에
고전적
Def
blue
거래를
##조판서를
What
메트로폴리탄
31년
NAD
Ul
근원
낙랑
라울
미친다
반감을
배재
별도
사나
사정을
상사
얻었고
취향
포천
홈페이지를
힘에
##통감
##모어
##먹고
##웨스트
운동으로
##unk
언급이
제시하는
미술관
경우에만
주둔하고
Heart
BL
PP
김우
나서는
동적
맞물
명왕
발포
소선거구
싸운
연대는
종래
측량
캐논
패트릭
##미나
##EFF
##링의
##광은
1970
공격한다
교육부
학생의
##드리게
증가하였다
사라져
근무하는
부모를
일치하는
무게를
준우승에
##홈런을
무실점으로
##거든요
E23
격자
고층
무찌
백지
복무를
##고지
##노카미
##오게
##검을
##주의자들은
관리자를
영향은
형태와
운영한다
없다며
인정했다
2000년부터
부족을
2세대
어렵다는
범죄를
포지션을
북동쪽으로
부진한
747
받아들이는
문신이다
브레이크
하노이
0의
금환
대전에
도약
모던
바쪽
변이
오사
완수
출구
치다
퇴위
##로쿠
##쥐는
##OU
##36
##농업
204
발생하지
로마를
있어서도
지속되었다
데이터의
김일성은
펼쳐진
본질적으로
화장실
대단한
회고록
인터페이스를
##ictionary
7일부터
ev
간도
금액
단계의
따위의
목요일
문교
삭감
생물의
온실
적분
팬들은
호모토
##기반
##지스터
##가며
##처에
##처벌
##회담을
##달마
##분쟁
##수송
##언은
##덕여
##바와
프로방
제1항
연구소에서
2010년부터
시리즈에서는
##unt
서비스의
헌법은
그대로의
들어가서
##센터는
원자핵
##ffect
박정희는
스탈린의
저술한
mon
간파
곳이었다
꽃을
막강한
만력
믿음을
비추어
성경의
양자가
유역
익산
재가
천장
헌종
홍익
##절은
##블릿
##품과
1949년에
연구한
표현으로
보고되었다
##모토는
Ref
##회사인
##스키가
정착한
오리건
##ulture
Grand
피아노를
##청년회
캄페오나투
6천
Tri
your
노골
당신이
듀오
병과
알프스
앤디
원소가
인류가
입지를
재회
함을
호랑이
후대에
##비안
##개와
##법적
##갈색
##텐셜
1987
2010년까지
만들어내는
멤버는
명령어
결성했다
등록되어
위험에
나무로
탑재하고
##전쟁이
평양에서
격파하고
원내대표
국가정보원
8번
LS
Ox
ge
기질
다치
단결
로런
버라이어
생원
여왕의
영월
쿠빌
타임스
피치
해시
후자는
##기며
##1동
##인터
개발자
참가하게
기능이다
판단하고
추정하고
임시정부의
IP를
장애를
로스쿨
다니고
문헌에
선전포
멀티미디어
띄어쓰
COM
가설을
강변
교부
기사에
내다
당신의
무방
변광
순종
실정
쌓고
입찰
지위가
총사령관
파업
확대를
##75
##찬은
##체계를
사용되었으며
연구소의
대표의
프랑스군은
만들어졌으며
인물과
대체하기
1999년부터
집합은
야마노
다카라
작가로
넘어갔다
##상태가
돌려보
##레타리아
2사
거머
걸맞
결론이
높이고
대주
매스
병력은
성리학
수년
순찰
신군
아들은
연료를
오우치
진전
천태
출자
합당
##건으로
##aff
##룡의
20세기에
가지를
##회의가
##omb
##ington
자유가
2013년에는
이곳의
나누고
맞이했다
끌어들이
패럴림픽
샌디에이고
7개월
Russ
가량의
결장
계의
공국의
공장이
녹화
됐고
물은
본작
부름을
세키
신민당
에노
집단을
코리
##보도
##무와
##골이
##열차가
##암이
##더와
##헌은
##백화점
세계가
##ison
방송통신
상대방이
Station
점령하였다
규정된
마련하였다
심각하게
##투쟁을
550
ES
If
Und
its
강렬한
면모를
모리스
몸은
아레
월터
이조참
장관으로
칭기
팔을
##션이
##스프
##남매
##무관
##아미
##오면서
경제에
평가하는
Street
종교를
정당인
규정되어
식민지의
도착하였다
##하시기
5년간
센터에서
마리아의
문자열
플레이오프에서
체계적인
그때까지
함경도
306EFF
Are
Hall
거창
골짜
나바
도우
목사가
바야
세키가
시선
쓰네
위백
일입니다
재개발
주식을
포식
##대통령
##m로
10억
1979년에
대회인
##ental
운동가
대해서만
제공된다
자연과
지배권을
표기법
비행을
지침이
재정적
올리브
장착한
함수이다
##유가행
Island
세종특별자치시
8량
FBI
강사
눈의
단사
당한다
배의
성화
속하게
신경을
인프라
입자가
지그
책에
한두
항생
##집이다
##복과
##철학
제199
상태입니다
2011년부터
##imedia
노동자들의
표시된다
대응하기
세력으로
8강에
캠페인
홈구장으로
안재홍
5가지
구을
릴레이
아편
월경
자궁
질량의
차차
통제를
필살
한가지
한마디
##운송
##비크
##디자인
##배에
##메스
##능력이
##없다
대해선
자유한국당
##정보를
지적하였다
설계한
바뀌게
##나무는
모르겠지만
계산할
논쟁의
후손들이
북동부에
플레이오프를
승진했다
나왔고
동성애자
용산구
아닐까
https
브래드
영등포구
Henry
2세를
ON
간을
국문
규장
다닐
답을
매표
바쿠
보로
삶에
소현
소부
수증
없으니
예수가
우의
윈난
작다
제도로
중거리
콜럼
포화
혁명으로
형이상
##어머니
##아니
##aut
##사르
##버스의
##금속
##학교로
선수인
역사학자
경제가
##ota
변경이
##ump
건설이
월드컵을
마음으로
데이터가
에이즈
행사할
##정책에
카메라를
신성한
남양주시
##해주시면
마천루
헬싱키
26년
4일부터
BB
구역은
기를
동거
버리는
보자
사생
상가
상습
원장
임금을
체스
파주
표결
휘두
##지라
##대행
##보존
##구락
##구조를
##리그에
이유에
계획하고
280
적용하여
구분한다
해석하는
회의가
Enter
헤르만
파생된
카디널
유식유가행
랭크
민중의
순항
신은
영사
이계
작중
재구
풍습
##링이
##율로
##질서
##규의
관계의
##이스케
여성들이
삭제하고
설명하였다
오늘의
예정이었지만
가로질러
정체성을
지바현
객관적인
글래스
##elopment
프랜차이즈
Let
letter
개정을
기자로
부자
분파
우쓰
전단
정거
주선
지대에
침례
코드는
##원사
##리기도
##력도
##아노
##해로
##노세키
##상인
주장하면서
인물에
마르셀
자동차를
아내와
글로브
도서출판
취급하는
트랜스포
갑작스럽게
영등포
ap
po
겨냥
과제
금정
시도는
장점을
접두
좌천
투수를
호찌
황소
히브
##동쪽
##공정
##ih
##ira
209
1984
사회민주주의
지방도
추가한
개념에
500여
서비스이다
정상적으로
천안시
마이애미
신시내티
가선
강진
기마
대인
루키
면적이
분홍
사안
설정이
세조의
진단을
출루
한산
흡사
히카
##지에는
##그의
##그림
##목사
1975년에
국가에서는
9월까지
방법과
##agement
공연이
제한하는
불구속
복귀하여
중재를
다르며
엄청나게
두꺼운
##진상규명
CT
Land
Mo
감동
과감
광년
귀순
깨어
노원
님은
뛰는
모아서
바젤
방에
상단에
않으면서
앨라
열리고
예일
전자를
할지
##건과
##유와
##기동
##가야
##보며
##장치를
##제일
##교인
##명에서
##압을
##잡지
##질적인
##값이
고려할
결혼식을
통합되었다
2000년에는
단체에
국립중앙
결성하였다
연기한
성립되었다
##고등학교와
아내를
기억이
수입을
1789년
##other
제17대
under
스리랑카
transl
치렀고
안드레아
hPa
non
결여
덕에
로써
루도비
마세요
면직
생도
성악
세울
속하지
속성을
스즈
원효
입상
정재
진실을
쿠퍼
후자의
##설로
##타니아
##할린
##욱은
##끄럽
기록했으며
위키백과와
구성한다
##시키거나
인도양
항공우주
사상과
저작물
분쟁에
아시겠지만
위치해있다
부탁을
남서쪽으로
저명성을
도쿠시마
주기적으로
영혼을
##appa
Mov
act
근사
났다
동물을
병에
성수
소아시아
양은
정칙
천하
청사
표창
현무
현이다
##소리를
##로에서
##44
##gen
##강화
##오닝
##규가
사용해서
제작되어
발생하자
추가하여
음반인
경찰청
Information
추진했다
결합된
독립운동을
비틀즈의
##duction
가락
갖가지
마구
볼록
부대로
아열
연주를
와이드
왕궁
외부에
이들과
죽여
지시에
취했다
크기에
틀어
패해
##운전
##란과
##다발
##천에
##포럼
##구단
##ms
##작업
##E1
##째인
##슬라브
##있을
##혔고
그러고
들어서는
개발은
사실로
조직한
정보에
생산이
거부한
성격에
나타나며
임진왜란이
열대저기압
플루토늄
가했다
거미
김치
내에서의
넓혀
도르
면도
백업
변한다
사단은
아츠
임계
정려
풀백
##성향
##스틱
##연과
##문화를
##해석
##타에서
##정적
##형문화재
##링겐
##빛을
##ori
시작해서
사람들도
아이티
게임과
민주공화
런던에
##사회주의
갈라져
다녀왔다
제15대
아즈마
Fried
유라시아
리베르타도
1단
Lab
MT
것에는
국공
디나
변한
보한다
손쉽게
아이다
왔고
의장을
휴게
##신당
##타에
##링크
##0년에는
생각해보
발표를
방송사
their
선거의
유럽에서는
데뷔하여
방법의
대학교와
발전된
##적이지만
작곡을
거부하는
드래건
보여주며
바라보는
코로나바이러스
##anced
연평균
보헤미아
캐서린
탄자니아
ChongDae
5명이
공기를
관성
나츠
넘버
단위의
도리
드나
미군은
백신
법적인
사투
석불
시위에
실사
죽임을
청탁
취직
학력
함대의
휘하
##표에
##행위에
##버려
12일부터
##km로
군사정
2002년에는
분야이다
변화하는
자료로
의원들은
왕국과
1858년
블루어
동원해
니콜라스
화합물
비잔틴
라이프치히
5호
결탁
고후
나인
농축
미수
벌써
법원의
비지
안겨
애드
위쪽
준동
쥐고
질병을
털어
테란
투하
평형
##건축
##소인
##단체가
##범이
##방과
##방지
##청소년
1974년에
아이들의
개최했다
상대가
바이마르
##unn
그림의
파견하였다
주인공의
##ights
태풍으로
정차하는
양자역
등급을
싸움에서
꾸준한
심사위원
선제후
Global
허드슨
8개월
가면서
마포구
반동
반탁
실어
야전
요리를
의도가
일인
주십시오
질소
튀어나
한자로
함대가
후난
##유전
##내면서
##미아의
##마니
##아비
##근과
##익은
##외국어
##CO
##할지
조선공산당
##회의는
돌아갈
언어에
영토에
지하철의
배경은
확보하고
보아야
것이라면
적합하지
최하위
Pan
뇌의
단계는
대백과사전
변혁
부전
사민
서구의
수다
스스
심어
오만
오르고
유위
진주시
커리
퍼블릭
행성은
##개념
##예정자
##생성
##투데이
선거에서는
참가자
드라마는
##cm의
2개를
관찰사
목적의
김성수
화성시
생기게
##ittle
##ification
안장되었다
히브리어
Camp
Sound
감추
걸었다
고노
군림
기금
뉴잉글랜드
동진
듣게
민감한
북중
영상이
일체의
출정
태도가
테베
팀들은
하워
한참
##기부터
##네트
##란데
##무에
##모양
##디드
##ram
##율과
##리아가
조선후
사용자분
진행되며
제공되는
차지하게
제3의
2002년부터
선택하는
방문해
권한은
주민등록
영토의
접근하는
재판에서
바람을
##201
나서서
사항에
김일성이
동성결혼
파악하고
로스앤젤레스에서
대법원은
갈릴레이
##아파트
에글린
Les
Rob
ob
공사에
교량
까다
논산
박은
보너스
성산
언젠
일행이
전리
주기로
초당
학자들이
##P는
##안타를
##조사에
##머가
##64
##너와
##투표를
##좌랑
나타내기
방식과
메이커
폐지된
주도하는
등록이
나뉘며
1812년
도와주
읽어보
무함마드
Fed
Lo
가혹한
공의회
노무라
동향
물류
벤피
보이기도
식년
오미야
외면
집전
착취
해역
##보스
##술이
##노트
##레븐
##ua
##충의
##M은
##궤도
##죄를
사람이었다
이름공간
중심지이다
대회로
##대학에서
비롯되었다
도쿄에
통합된
산업이
500m
일제히
소개되었다
언제든지
전설이
차별을
선보인
컴파일
Radio
세키가하라
28년
4층
Sn
Vis
계룡
고도의
글리코
닌자
못하며
보였으나
삼림
섰다
속편
엘레
##누아
##플을
##버스와
##저널
친구들과
제5대
에스컬
가로막
붉은색
지시했다
##레인저
보건복지
시상식에서
방정식
휴대용
MVP를
박헌영은
천도교
쇼핑몰
인플루엔
이규완
Ep
KC
hel
다닌다
달라는
당진
대차
리바
많기
못하자
무차별
문단을
산업을
시이다
싶지
약사
에인
에두
여고
외관
원조를
이걸
장자
재구성
정호
창고
초의
추궁
힐베르트
##라디오
##1계
##우스를
##파일
세계는
변경되어
이해하지
증가한다
시민권을
개혁의
연주하는
없어졌다
배경이
지키지
베를린에서
단단한
2남
Cat
EF
RA
군인이다
남부와
셔틀
신간
신학교
어시스트
여주인
이숙
취해
침수
학문의
합하여
행하여
후추
휴식을
##중계
##전철
##부에서는
##일식은
##레스트
##바에
##딘은
##arch
1963년에
비판의
##osoph
전국에서
1879년
유대교
어렵고
대항하기
요코스카
##지정문화재
백악기
평균자책점
Times
sur
거라고
고로
구내
구슬
눈물
리포
명제
목욕
무분
바리
세컨
여자의
온도는
왕자의
이별
접합
파문
학파
호스트
##토에서
##번역
##지로서
##스텐
##크리
##베스트
##째로
##록대부
미국과의
##oma
교육은
##ida
##스크립
2003년에는
형식이다
뉴욕에
시민단체
방문하는
그림자
에너지는
발행된
나타나기
종목으로
나카노
White
##출판사
풀려났다
##줄기세포
A는
ED
sec
가든
근교
당은
등지에
밀도
베컴
서류
실력이
썼으며
알리기
온대
운전을
전과
출항
편성의
한문
협회는
호모
##기소
##카에
##시트
##부키
##임시
##독재
##날을
경기이다
하나에
데뷔하였으며
사망한다
라이더
기능의
출시하였다
만나고
중단하고
반복되는
합의가
오리엔
공통적으로
빼앗아
Franc
급속도로
시직경이
무서운
조소앙
모닝구무스메
공군은
그릴
꼬마
남로
뉴올
대우를
때만
반항
오인
옥천
이요
이희
집회를
파리로
학회
향신
화염
##화도
##버리고
##칸의
##oria
프로에
경기장은
1978년에
제작자
##aster
아닌가요
학교로
언어에서
태양이
유전자를
그린란드
윌리엄스
##스럽고
단백질을
장착된
조카인
일본국유
클레멘스
소현세
att
데다가
리비
명과
복식
부지에
싶다고
쌍성
오일
용해
의주
전에서
친환경
칸은
키릴
타츠
힘은
##전국
##거리에
##ination
참여한다
##시키려고
자유민주당
항공기를
기독교를
저작물의
재직했다
Encyclop
고문으로
##왕후가
자랑한다
테마로
모으는
서스펜
다행히
메소포타미아
2량
Jac
공덕
루비
명성이
범람
열렬한
웨인
적에게
증강
지체
판이
해보
##번지에
##개소
##전서
##화에서는
시작은
대한민국에는
대표적이다
요구되는
정의하고
내각은
1854년
개봉된
마쓰모토
혼란이
포도당
임금의
어깨를
두드러진
1급
FR
Lim
Pap
공병
금천
등에도
불로
붙이고
상한
에마
유선
잃어
자수
장치의
조경
피사
항등
화북
희귀
##55
##층과
한국프로
역할도
시절인
노르만
출생하였으며
은퇴하였다
세운다
인종차별
고고학
곳곳에서
YMCA
에글린턴
Bon
cor
격상
귀가
리프트
보정
어나
어든
에나
울프
이므로
인생을
절약
쪽을
초중
총애
커져
크메르
##oid
##아에
##격의
##퍼런
##ering
계속하고
생산하고
학생회
건설에
노동자의
싱글은
정신이
의원들이
시도한
##시키고자
45분
1801년
확정된
일시적인
알찬글
개그맨
부에노스아이
검사가
그들과
나간다
낮게
내었다
대청
땅이
땅에서
백혈
법원에
본존
서클
자리가
장시
판을
##학습
##2동
##조사에서
##화합
##술은
##영사
영화와
사회인
차단의
##osQ
FC와
기관지
사업가
초대칭
전해졌다
왕국에
여객철도의
비난했다
측정할
트랜지스터
기소된
장르를
서사시
3기
mus
sq
도저
두번
반론
센서
어제
온도를
유스티
은둔
이브
자객
카오
포에
해전
##이은
##가락을
##문서에
##제도가
##urs
부족의
위원장을
320
마련한
집단으로
원작의
표제어를
고성능
원숭이
상파울루
7명의
A와
CV
대좌
메틸
명륜
민원
산인
쇼난
안토
오자와
용맹
조항을
주성
중신
진언
징계를
총통
타우
##민속
##렌의
##티넘
##란에서
##보조
##산염
##ora
나오는데
바로크
선택하여
출판한
이야기이다
연주자
사령관으로
김일성의
한반도에
파악할
지내다가
펼쳐져
예전부터
여론조사
발라드
스파이더
동치이다
파푸아뉴
최고인민회의
##바브웨
버라이어티
앨라배
2번의
3량
Bill
Way
강으로
골로
공상
날씨
넘지
둘의
머리와
상설
순례
시체를
시멘트
쓰이며
아핀
이대
짐바브웨
##번호를
##관측
##루트
##경보다
##B는
##효율
##린저
##먼이
##주의로
1985
##ico
만들게
대학과
추가하는
인물이었다
2021년
스페인과
대중음악
인용한
제6대
연맹의
선생이
추천을
##기간을
전공을
Cons
압도적으로
마찰을
Social
Louis
곳도
관용
내로
박경
빼고
생년
소시
원자가
월북
유재
페드로
평가는
픽셀
현에
##리거나
##위치
##사도
##근무
##타라
##TN
##빌리
##들이나
아이오와
작품들을
우승팀
1일까지
##uring
언급하였다
선출하는
##plic
프린스
초신성
해트트릭을
GL
Oper
end
골라
구도
근위
논리적
렌더
리히
배향
선별
성분이
세토
유족
이견이
친목
친분이
해명을
##편성은
##군도
##본에
##루크
##yth
##수학
##철도가
##겁게
##냈으며
11개의
시작하게
조선은
이적료
친구이자
대응을
해석이
활용할
맞이한
이후로도
침입을
소프트웨어의
금강산
제19대
##ridge
강서구
스트리밍
9세
데드
동위원
볼을
북대서양
어딘
에치고
염증
영역이
이효
저런
카니
##학술
##범의
##O는
##yt
##정류
##쳤다고
1200
만들기도
다시는
구성하여
토론란에
인정된다
졸업생
과거를
50m
top
사무실
바다로
출입구
붙잡혀
그레고리
시트콤
em
감축
강타
거시
구부
다는
문하시
바쳐
불충
서위
수번뇌
스은
여긴
정조의
제리
피처
##결의
일본과의
18세기에
시작하며
1968년에
문제도
사회민주
##부분이
발생해
아버지로
다이빙
선발되었다
##riev
구분하는
가문과
제품은
Alt
넘어가는
사례로
무엇보다도
남동쪽으로
##축구연맹
테러리스트
공헌했다
지칭한다
엄격하게
자릿수
Just
Long
괴뢰
금동
능력으로
민요
바비
반감
발리
배로
배분
버진
서예
소사
않기로
역학
완행
종친
찬반
태조의
퇴출
호로
호날
##시프
##2가
##지배
##71
##다람쥐
##ky
문제입니다
##ents
자연과학
올라갈
우주선
세포를
인민해방
아르헨티
한때는
멸망한
당사자가
싸움이
텍사스주
##프라이즈
3승
9번
Que
av
two
마태
민씨
반격을
버드
비싸
손수
슬램
아지
않는데
알마
오차
유카
테살
파격
##란한
##E는
##레에
##봉이
##혈을
##헌의
##쇼에서
##하고도
되었기
받았다는
분류한다
##경기장
수록예정자
수비수로
수립을
상징으로
받아들인
조정에서는
1793년
이자겸
대승불교의
##직할시
3번째로
Over
kappa
것부터
곡인
기계를
삼위
에히메
위나라
일하였다
창덕
추세
콜드
통신을
함수가
합천
##2회
##림에
##탄올
##온과
##값은
##쾌한
##lection
들어있는
##ros
지구로부터
##raft
종교는
관리자님
##overn
지적하고
유니버스
하이브리
남서부에
이민을
##시설이
승진하였다
##플레이오프
사냥꾼
방정식을
초록색
농어촌
고르
긴밀한
깨한
날개를
노다
라벨
리믹스
물의를
심해
운명을
음의
잡기
적에
절차에
정언
테무
편이며
훈민정
##화산
##투어
##왔을
문서들이
개발과
중앙집권
승강장의
분야로
클럽이
투표로
네덜란드는
제기되고
세포는
자동차의
교수와
방해하는
패키지
미야기현
뉴올리언
EA
Ju
데쓰
부부는
불문
비를
스킨
신안
어차
외동
정명
조준
할양
환관
후미
##방정
##3계
##거와
##채의
##극이
##갔다가
생각되는
##oud
25일부터
시스템과
내려온
추진하는
포르노
분석한
영토는
경쟁에서
4년간
무엇인
합의했다
반발하여
포항시
엘리자베
브레이브
노트북
부다페스트
슈투트가
간판
같으며
계략
담양
대면
둘을
마애
명분으로
밀고
박인
세대의
소홀
왕가
전류
코퍼레이션
평소에
형편
히가
##지이며
##합성
##hr
##각에
##순으로
##필레이션
##뿐이다
##듭니다
중심부에
지방선거
##urt
발전해
생성한다
시도하였다
##ians
개봉되었다
개막을
한번에
##로그램
선생은
호텔에서
Road
##ING
##살이풀
모노이드
로맨틱
4의
8일부터
Leg
구가
군주의
권력이
그도
남성과
네브
독려
동호
마도
몰도바
벽을
복종
비하면
스바
양국은
잔인
필하
하후
##원장
##소나
##모르
##협회가
##탄에
##탄과
##셨습니다
##DC
##쿠르
##멕시코
##5년에는
발견할
결정적
스타트
데이브
나오기
싱글을
지지하고
2001년에는
비교하면
Inf
##센터에서
비용은
중립을
뉴질랜드의
잇따라
Summer
한가운데
Cop
Dictionary
교우
길드
내기
무과
미생
변질
봉기를
성지
셀주
손자인
아저
일하던
입구에
정했다
카보
탄수
테리
##oom
##른베르크
##본부는
##영상
##끼리의
이후는
17일부터
##olit
아이오
23일부터
싱글인
선택을
좋아하고
은퇴했다
1851년
남편을
불과한
##기간은
##통합당
로렌스
행복한
망원경
America
서재필은
자메이카
2에
Fin
가두
기구를
다짐
로드리게
무수
문자의
수험
신촌
싸웠
아킬
압수
양재
조우
커먼
통로
행성을
##of
##위도
##란으로
##인구
##사항을
##화경
##겼으며
##ality
30대
음반이
체결한
1857년
게이초
편입된
올리버
삼각형의
이성질
세르비아의
개찰구
##ethod
한양대학교
최성기를
##플레잉
60년
SG
il
가스가
구강
노르트
롤플레잉
마켓
막판
많을
민영화
서광
소탕
시미즈
작게
줄리아
직관
하류
호가
후견
##캐스트
공격하고
##rov
확인을
100명
드라마로
수행한
기업은
기업으로
교황으로
판매하고
활용하는
재직하던
1839년
소수민족
병사들이
취득했다
장난성
Organ
허위사
##스러워
news
일조했다
알렉산드로스
국가보안법
아랍에미리트
5억
8천
Econom
같다는
곧이어
공소
구루
띄게
라자
부주
생생
소음
어미
작전이
장단
찾은
키르기
피셔
##곡과
##시미
##츠에
##일스
##면허
##IF
##답을
##록에
##파운드
기록인
들어가지
사회학
중국공산당
위키백과에는
관리한다
프랑스인
참여했으며
진행되었으며
분류할
요구한
지난해
국회의장
부정적으로
##사업에
탑재된
공유하고
승진하여
##개혁을
히틀러가
정체성
신도비
가로지르는
크리에이티브
도저히
2경기
Ast
Mill
his
교사가
누락
뉴클레오
다고
다채
대하
따랐다
변해
병원으로
샤이
아칸
전선을
전선에서
페라
학업을
휘는
##속은
##마뉴
##경궁
##레네
##막에
##눈에
1971년에
문제들을
5월까지
##inger
이유도
분리하여
물질은
출생으로
가능하다는
조성되어
학문이다
사단법인
연습을
프로이센의
전두환은
부처의
박헌영
기공
대광
동두
리모델
백운
성희
스커
스나이
알비
여론을
원했다
저조한
줄이
쪽에서
초회
컴필레이션
포스포
##전화
##제도는
##랑의
##거스
##차인
##후로
##바오
문제점
운영되는
이탈리아로
돌아간
출연하는
운행된다
2005년까지
건설한
판매되었다
제기된
규정하는
물질로
공항을
##mm이다
동료인
비난하는
베스트셀
번갈아
절친한
Camb
관문
관철
낳는다
내게
농성
드로
레몬
머리는
벽에
봉수
봉황
아드
없네요
에그
영미
유계
의례
전당에
지점을
처칠
충당
코이
하네요
학문에
##로스는
##했듯이
##cil
##MosQ
##백여
18일부터
시대와
형성되는
소련에
1998년부터
정당은
수록한
귀족들의
나무위키
내부에는
갖추어
##은행의
무장한
중반까지
건강이
출간된
송파구
위키피디아
어차피
1심에서
7000
Sant
car
list
sum
견지
높이의
도의
물자
밴드가
법으로
원세
이우
일한
전술을
지킬
초자연
취미
평화의
##장교
##E의
##실업
##RNA
##갔으나
경기장을
들어갔고
일부에
1930년대에
이전까지는
22일부터
인물인
보고하였다
유명해졌다
기본적
사고는
공연에서
요시히
결승전은
출처는
제4차
바다에서
계급은
1776년
Paris
말레이시아의
CoA
테크놀
푸에르토리코
long
공조
놓는
뉴시스
소령
수뇌
숲에서
스의
아쓰
인원은
체르
최전
판별
##자리는
##름의
##인구는
##하리
##격인
##본기
##버스로
##데스의
##돈을
##첩을
시작되면서
##ala
대표이사
참여하게
부분도
1900년대
000명을
반대한
생산한다
임명하고
환경의
불가리아의
비교할
멤버들이
##크로스
공작이
제출했다
밝히지
필요하다면
돌연변
상응하는
송진우
대웅전
아나키스트
1세를
5세는
DB
IA
가변
김석
김부
남는
넘은
단호
미트라
비석
사치
연좌
오닐
웅진
일대는
최규
허락을
##시카
##티야
##츠에서
##터이다
##문고
##우병
##해준다
##교섭
##파괴
조선중앙
1979
1976년에
연구원
하고자
변경할
270
##운동과
확인하기
설명은
적용한
관리자에
정당으로
가입하여
보수당
귀국했다
현실적인
확보하기
베이징에서
무너져
##조차도
사다하
호흡을
석방되었다
모으고
휴대전화
Network
하츠네
Pi
관내
국악
대장군
돌이
리즈
많다는
사네
샤프
성당의
스택
이도
중점
진원
추서
출품
타오
토성
한시
##아지
##준과
##eed
구성이
##부분을
소련을
##연구회
주변에는
소유권을
오르지
노부나가의
조종사
타율을
시나노
나폴레옹의
세웠으며
일방적인
클라이언트
컴퍼니
나미비아
29년
2단계
6명
DA
경종
고쳤다
군단은
데포르
띄고
림프
방면의
배아
백화점
뱅크
세르게
옹정
왕당
위축
이그
재빨리
절을
증축
창을
채플
천지
코로
현미
현상에
홈에서
##감염
##소유
##도호
##부대의
##일인
##ales
정치국
리그에서는
제2공화국
로마는
여성주의
표현된다
이야기로
유일의
도로의
불리었다
유전적
재판부는
1856년
Space
1597년
분명하게
양성자
일치하지
##해져서
치러졌다
미드필더이다
해협을
포인트를
깨닫고
방글라데시
맞배지붕
3위에
기도를
단판
담보
러닝
마나
맡겼다
문학과
미러
식사를
신학을
야권
원에
중상
짝사랑
철수를
친박
태도로
템플
##다코타
##부사로
##방식을
##38
##패스
##EF
##청고시
1969년에
1935년에
##스타운
전통에
피해자의
자료이다
관리자에게
부여군
Union
기후는
원정에서
받아들이고
자리잡았다
화장품
시직경보다
MR
가계
고개
누에
느슨
다쿠
달을
로우
매디
명단을
못합니다
받으면
방호
부대에
스트로
운명
일단은
장차
좀처럼
풀이
하키
한영
##단체를
##98
##요원
##행과
##화되는
##각과
있었음을
존재한다고
선발되어
피해는
실패를
구분하여
귀족의
귀족들은
달성하기
기사단
분포하는
##해주고
사유는
##노동자
체제에서
shadow
##님께서는
프톨레마이오
헤라클레
A가
Luc
feat
고기를
곡물
그간
글씨를
길어
김보
김주
나나
눈으로
닛칸
등산
막았다
불합
숭실
앞에는
애초
양서
양국의
의사의
인솔
인질로
조석
조문
직류
추계
퍼텐셜
홍명
흥분
##동물의
##소재
##연승을
##법에서는
##수면
##윤리
제작하여
역사학
형태에
출연하며
28일부터
요구가
나오며
이때의
출시되었으며
수준에서
개혁에
노력하고
공급하는
장교로
알고리즘을
선호하는
히어로즈
Special
팔꿈치
앨라배마
AH
Gi
Ig
꼭두
박사의
반하는
배드
보루시아
성적인
수와
싶네요
아루
양주군
연중
우스
유적이
체계의
카와
폐지를
포스코
한하여
혈통
훈장을
##공로
##편찬
##연하게
##조약을
##해졌으며
##ple
##바람
1983
1948년에
공격형
##omm
##리그로
##기관은
헌법이
지적한
페르미
출생한
##lymp
겨울에는
늘어나는
앞으로도
ext
장난을
예외적으로
Edward
Records
일렉트로닉
1심
과제를
뉴스를
대방
미인
바를
방탄
소원
소가
심문
와중
왼쪽에
용기
유틸
유학자
이황
카다
학업
헬로
##부대가
##격투
##엔진
##균은
##귀족
##엘은
생각하며
일부분
리그와
사실이다
인구를
진행되었고
모습과
언급된다
##모토의
##학년도
중재위원회가
제품이
다루었다
주인공은
4000
이하로
##사건을
취득한
해양수산
추대되었다
김해시
윤보선은
이오시프
RedMosQ
구스타프
군으로
궤도에
당상
마운
모조리
무르
바을
바치는
소도
승자
엄밀히
이한
지의
지위는
총격
치르게
특혜
협상이
홀수
##니우스
##적이었던
##처로
##마라
##관계의
##부도
##상한
##빈을
##쿠의
조선시대에
들어섰다
2월까지
중심지가
2012년까지
spacing
자연스러운
유일하다
공연은
최종전에서
##ape
##모토가
주민들을
고등학교의
강조하고
베르나르
종류이다
2층에
4대강
마그네
add
밝혔고
차남으로
9개월
Gar
Mel
med
개점
고모
골절
광화문
군자
남지
내에는
노리고
부문을
브롱
블리자
비핵
비옥
사에
열렸으며
중고
중이었다
지성
차장
참수
측면이
확인이
##키에
##게도
##천동
##bit
##놓는
##맨의
##섬에
사용되었던
21일부터
이것도
차단하는
추가할
표현하고
배우기
레이더
개념과
소설은
시민들은
종료된
네트워크의
##ysis
어떨까요
June
KS
가하는
구장으로
기호를
다방
박씨
본초
상계
은평
자사의
정리에
좌완
짝수
천마
출력을
피가
##부아르
##방어
##환과
##해지
##담은
##암에
##있다는
##룡은
15px
1950년에
고려하지
라이베리아
인정되지
상당수
언론사
2022년
물리적인
스스로가
내각총리
파이프
투입된
증명할
승객이
저널리스트
폭넓게
몽고메
여우주연상
6차
7천
MIT
괴멸
교내
교제
극적인
김문
꺼내
뉘른베르크
뉴멕시코
당했고
대타
대정
라디
백성을
삶과
신기록을
여부가
외모
의화
인버
있느냐
장대
정면으로
준플레이오프
태생
화약
##이동
##이신
##토지
##달을
##르스
##망원
##난에
그리스는
유럽을
변경하여
과정으로
아래에는
요구하며
평가받고
찾아온
마련되어
편입되어
묘사하고
March
##제국대학
장난감
내세운
자이언츠의
만장일치로
fil
과이다
더한
머니
사적인
악화되어
압하지
열성
오면
있겠지만
적재
지니는
초점
##라르
##공학과
##화해
##본과
##데다
##철을
##inus
##시아의
문서입니다
정치와
이탈리아와
노선과
즉위했다
벗어나지
강릉시
이념을
동영상을
총선거에서
스폰서
시부야
CB
FTA
귀신
기사는
대입
때로
몰타
무을
물었다
부응
사장이
성경을
속했다
쌍의
앤서
이선
제나라
죄로
중상을
칸이
하강
한민족
황보
##원주
##번과
##헤드
##테일
##너를
##암리
일부로서
존재하였다
이어받아
##합니다만
##이트의
레이크
기관에
데이터베이
공화국에
드러내
300여
일제에
인근에서
산맥을
3세와
신속하게
이케다
동점골을
글러브
알폰소
4세가
DOS
TA
가역
가사는
강압
계량
관저
단양
대제
마우스
면에
밑으로
버티
보육
비둘
비늘
순양함
안을
안산시
앨버
여권
오슬로
운하
의원에
인가를
인연을
있긴
잠을
제지
지브
크지
피력
##학기
##키스
##루이
##계승
##칙을
##질량
##느러
사용자들
4월까지
13일부터
이루게
방송되는
발견되고
추가되어
진출하게
프리즘
제외되었다
1995년부터
폐지되고
센터백
박정희가
의존하는
조선총독부의
기다리고
제이슨
주축이
성폭력
나눈다
세비야
몬테네그로
프로모션
1항
5위를
tri
경보
글렌
낙향
늘었다
범위에
분들은
세무
수구
영역으로
일행을
장소는
정황
중세의
진나라의
참사
캐나
퍼뜨
환자는
##이글
##도움을
##S와
##3의
##익이
##록의
조선어
활약하는
발전의
야구의
##리오는
지지했다
스페인에서
의원과
소재를
##센터를
공작의
개정된
부터는
어렵다고
레코드를
예비군
737
플래그
##장로회
산스크리트어
5km
Game
Mem
map
pop
공기업
니케
도치기
따랐
부결
부인의
사할린
수은
수단이
야수
입시
장은
전미
천리
최강의
코스트
코끼리
##네프
##gs
##만원을
##불상
##충이
##링거
##00여
##ester
세계보건
만들었는데
정치가이다
공격하기
돌아올
출전하였고
인정되는
연합을
형성하였다
지도자가
다이에
대체하는
판단이
출시했다
외교적
오늘날까지
반복하는
1849년
기계적
##사무관
Party
잡아먹
음식이다
프로토스
서해안
정유재
친일반민족행위진상규명
압록강
Ca
고승
과실
다자이
도큐
록히드
사흘
속을
억류
열도
유서
일제가
자판
자원이
재보
최경
친위
친화
캐슬
코민
타타르
특성에
##어하는
##네와
##카테
##가면서
##현감
##세력의
##사상을
##황후의
##불의
##균의
##닌의
있는지를
사람이나
제1호
##ilon
경제학자
아닌지
공동체를
지휘자
추정되고
파견했다
1800년
조선민주주의인민공화국이
전사한
늘어난
지향하는
내야수
플러그
마다가스카르
성소수자
Light
VV
개월
교대
구석기
군마
로만
말단
반정
발상
발음이
부위
분자의
불화
서고
쓰며
엔젤
연안의
오도
옮길
작가는
재조
책정
트램
##니즈
##가서
##천문
##si
##술과
##kt
##송을
독일계
설립에
2012년부터
생산한
상대성
공동체가
##ago
다이노
과학과
담당하게
##rix
판단에
통일된
주민이
Rep
##사업의
혁명에
상업적으로
남동부에
##order
16강에
백성들의
안드로메다
Karl
8만
IF
극작가
나도
내면
대서
덮어
매트
목사의
벤치
봉헌
사산
성찬
영적
예편
원나라의
정현
지명은
캐리
케르
퇴계
히토
##지수
##ki
##심판
##후를
##틱스
##콘티
하나하나
영국군은
##acter
##스와프
Stev
애니메이션을
그림과
##ava
가르치고
크리스탈
이렇다
내각을
스테판
대륙에
참석하여
새벽에
소프트웨어는
교섭을
이화여자대학교
4강에
특허를
LCD
입각한
하이드록
에스페란토
프롤레타리아
##rieved
ESP
Ol
가에
걸렸다
대종
대파
명중
베일
보상을
보도에
비약
사주
삼는다
새뮤
시우
연호이다
와다
일기로
전선에
정승
카드는
호전
흐루
##재해
##과에서
##강원
##수정
##혈압
##됐다고
##채와
경우로
활동한다
1966년에
##부분은
생산되었다
삭제할
이동했다
우선적으로
근무하였다
전개하였다
검찰에
아이디를
총선에서는
이벤트를
확산되었다
루마니아의
종사하는
시마네
콘크리
대니얼
실리콘
속보치
5층
6위
Sa
가창
강에서
과격
기자가
기체의
기온은
당을
뒤부터
많았던
맡을
백화
병마
숙명
양천
우물
인자
제철
주필
토양
##ges
##X는
##방해
##수석
##직하고
##좌파
프랑코
사회와
일부이다
축구의
관계에서
##리스와
지나고
위원회가
후반에는
소유자
예술적
수비형
근무하고
합의하였다
Show
좌우로
남아있지
##관찰사
제14대
##IVE
하얀색
techn
비단털
의약품
다이라노
Disc
Fred
ME
Mot
Ze
남이
묘는
묘비
버터
보기에는
브리지
빠뜨
사커
세련된
슬럼
조교
크며
호화
##히기
##양구
##담이
##명사
##암을
##송이
사이트의
1962년에
10월까지
알려주는
##이트는
자체로
변화의
대하여는
강화하고
논란에
드러난다
##지방의
마르쿠스
허용되지
##생활에
합병하여
##차례에
##리우스는
공군기
부친의
남극을
##해주시기
Corpor
한사람으로
Foundation
BY
곳이기도
끔찍
끝난다
넣지
님께서
믿지
삼한
새천년
수요일
신체의
심왕
쌓여
완투
왔는데
일당
중후
집은
토오
특산
퍼졌다
편성을
표트르
하세
##시드
##누스가
##절차
##해결
##사우스
##상대
##바도르
##팔렌
##됐으나
##혼의
##ani
문서에는
관리자로
공식전
확인되지
상대는
전국을
##했을때
파일이
중재위원회의
방영한
해외에서
암살을
위협이
1814년
페르시아의
부친은
절반을
타입의
##등록문화재
제16대
상세히
유벤투스
디자인의
헬레니즘
키르기스
1무
Fer
dec
곤살
까마귀
내적
라면
말투
미우라
벨리
부회장
여순
왕권을
우산
재신
잭슨의
주인이
지명이
클럭
티저
##렌스
##5호
##자리에서
##츠카
##개선
##제비
##겠습니까
##주면
##모습
##책은
##틴의
##섬유
10명
1965년에
사회당
참여하였으며
출전하며
지구는
플레이어의
Inv
아시리아
가입했다
사령부
거절하고
병사들을
800m
APG
발각되어
초고층
산티아고
프리큐어
##http
네브래스카
강연을
국기를
기의
기호는
더더
머큐
무오
민진
서신을
악기를
에바
유상
차트에
참패
탈삼진
테일
토로
편성은
표적
홀리
히트를
##업무
##도감
##스탕
##너드
##외의
##평이
##에게로
##enz
것으로는
독일군이
이용되는
##rey
행정동
열차도
작성하는
판매량을
강화군
법률의
해석할
가져오는
내각에서
강원도의
의사결
학문과
been
1623년
민주노동당
우쓰노미야
DL
경계가
구장에서
네바다
대선에서
더하여
따를
만으로
면적의
모시
모드를
발차
보였지만
북상
사명
소크라
승낙
시킨
시조로
예속
울주군
익명
임대를
잭슨은
존엄
청교도
통감
튜링
파주시
펠로폰
해왔다
##단백
##스로부터
##던가
##총을
##평의회
##ME
##것에
한국으로
기록했지만
포함하지
존재에
30일부터
이루어졌으며
States
지휘했다
파괴된
분쟁의
슈퍼스타
대륙에서
##cm이다
채택한
마드리드는
규칙은
##ender
트로피를
기다리는
일어났을
일어났고
지방자치단체
하이브리드
Please
See
Vf
Young
some
가정의
공은
과천
김구의
남기는
도가
마차
본부는
봐서
뽑는
산과
스터
승선
압송
엔리케
주루
중건
탈레
팬터
흥덕
##시각
##오르
##영업
##테가
##효과를
##곳의
##틀리
##혁은
가능해졌다
##해야할
삭제가
오스트로
산업에
##시킨다는
베트남에서
1996년부터
금지되어
근무하던
전시되어
탄생하였다
any
##슈타인은
소장하고
2번째기사
메모리얼
상호작용을
블라디보
압박을
다비드
과테말라
##ibrary
유틸리티
1명의
ver
골은
국호를
모을
목에
무과에
문구가
불복
삼형
새만
수능
아그
원유
유화
유익
이륜
인생의
입에
타밀
탁구
핵탄
혼용
화요일
##남은
##편에서
##그와
##일간
##당하게
##봉과
##ato
국가등록문화재
발표하였고
정보와
분류하는
그리스어로
노동자들이
2003년까지
클럽을
표시를
아시아에서
캐릭터는
주도이다
작가인
패배했다
무렵에는
남편과
버전이다
자리잡은
플래티넘
클라크
From
원로원
캠페인을
갈릴레오
다카라즈카
1달
1골을
HK
talk
가정을
가디언
거는
검을
공과대학
내쫓
내몽골
높으며
덕수
데니스
띠는
멘델
모형을
배트맨
버섯
법과
사신으로
오른다
요리는
이었던
죽는다
체인지
협약을
##중대
##기원
##측에서
##시장에서
##2를
##호부터
사용되기
일본어로
모두에
국제사
전투이다
000m
만들어야
결국은
생성할
##이로쿠
##지방경찰
파괴하는
살해하고
##정책의
개편으로
아우르는
절대적
급제하였다
이승만과
쿠데타로
파스칼
3경기
Dist
PK
VS
갔고
개수가
객차
계투
고압
공기가
균일
니카라
매슈
바트
버퍼
부득
부천시
북조
아흐
오영
원하지
육지
자갈
적는
정해졌다
주체가
주석을
증원
추밀
패퇴
펠릭스
현을
호치
##고스
##고로드
##내로
##무대
##광장
처음이다
##시키기도
사망하는
인정받고
##agon
전국적인
특정판
비밀을
시각이
만화이다
업무에
취급을
검찰이
3세대
법칙에
합쳐서
개칭하였다
ICBM
더블린
골키퍼로
분데스리가의
에디터
칭기즈
Gra
ja
rangle
걸린다
격침
구문
구역을
극중
달랐다
도난
메신
바늘
방면에서
세브
수서
시아
양쪽에
예금
인계
인질
재학생
조정이
진심으로
천년
테헤
프루
학창
##민들은
##도도
##티보
##타자
##ci
##오지
##총회
##렸기
##봅니다
일본군을
따라야
여러해
형성된다
정의가
적용되지
정규시즌
부여받았다
제거한
떠나고
남북조
상징적인
현실적으로
채택했다
변형된
사우스캐롤라이나
언덕에
KAI
개정에
걸그룹
구단을
느리게
덴분
멀어
모시는
묵살
미워
백남
부등
부지를
북베트남
안락
예부터
우디
유자
직렬
큐슈
흡혈
##설에는
##들였다
##문제에
##득점을
##정비
##씩을
##빛이
서울과
연구개발
방송인
선거로
가운데에는
한국어의
28일까지
사진과
국가대표팀으로
##거리에서
노력으로
합의에
장애가
부인인
일으켰고
다니던
구별된다
직전인
경유하여
플로리다주
힌두교
설일체유부의
디에고
새뮤얼
2종
Get
Hal
Nav
val
가닥
내성
단과대학
루프
모빌
묘소는
무비
물품
비야
성종의
악마의
양수
어벤
영수
이조판서
작사가
정시
티아
팔로
펼치
표면의
하얼
핵분열
호리
##카시
##부작
##였기에
##루스가
##HC
##백이
##2년부터
활동도
이용을
이탈리아에
생활이
멤버들은
500명
##ability
접근이
성격과
알렉산드
남편인
##기간이
##ugh
##oney
다이묘이다
스틸러
People
엔트리에
반민특
EM
HP
Little
Vict
견고
고난
되기를
벨트
소아
소양
송준
순위에
신분이
얼룩
예수를
오메가
위패를
정실
지대한
충실한
카드의
편에서
헤아
환자를
##신청을
##커와
##나드
##거부
##che
##페라
##쿠는
##곳에
##박람
##쳤던
것이니
##하다면
사용자들에게
1960년에
주장이다
개발도상
판단됩니다
예정된
파견한
황제인
일종인
위협하는
SK텔레콤
샤를마뉴
출간되었다
##rick
일원으로서
재능이
cdot
자카르타
Royal
코트디부아르
강우
관료로
규제를
길은
데르
레스
박태
살다가
새우
성분을
스을
시제
앙드레
애기
양양
잡지에
충주시
카미
폭포
학대
##업무를
##77
##은하
##하늘
##화되면서
##용에
##UI
사용합니다
시작됐다
15만
사용자들을
1964년에
1946년에
2007년까지
##해야한다
성공하여
제3회
15일까지
모양은
프로젝트로
들어가면
시설은
인사들을
제출하였다
1815년
탄생했다
에드워
건립되었다
예비역
사퇴를
기울였다
자원봉사
촉구하는
시그마
##플렉스
죽이려
5세의
BO
CL
Miss
gamma
sch
고성군
공사는
글자가
김시
낭비
당국
문묘
본디
비의
산은
살피
소노
습격을
영도
컬렉션
팔린
헌액
형광
희귀한
##동면
##라카와
##공에
##go
##34
##분리
##책의
##벤션
##율의
##3년에는
지역구로
프로필
존재하지만
가능하다고
유지되었다
운행하기
민족적
지상에
표기되어
비행기를
결성하고
신라에
동의하지
무시하는
중립성
국회부의
사퇴하였다
나왔으며
스케이트
오카다
commun
분당선M
호모토피
5천만
8명의
Bad
Dom
Rain
간편
경덕왕
고갈
곡들을
구비
버밍
범용
비변
서문
선물로
소라
송병
신약
안식
양성을
어사
영위
요금을
원자의
이을
이매
인스턴
출근
출혈
##머리를
##화나
##화된다
##강에서
##프셔
##실점으로
##윤이
##록은
##TE
##날에
그리스와
##로서도
256
선거구가
수도가
임명한
이끌던
반응하여
유전자의
베르사유
행성이다
char
후쿠시마현
서대문구
튀니지
##부산지방국토관리청공고
Under
2TV
fact
같군요
개축
남자는
단위는
덕흥
미미
수치를
신라는
심법
아놀
알았다
올레
일환
증발
지청
카드가
타일러
태블릿
할로
##발트
##국이다
##ror
##eum
##영에서
##있다고
##쳤지만
한국어를
한국경제
생각하면
2008년까지
사망할
계획이었다
유지되고
개인적으로는
모델과
컴퓨터와
우주를
통과할
회의는
끝나자
전후로
서술한
모토로
시모노세키
이화여
대조적으로
증후군
article
앞세워
공직선거법
더더욱
Oct
da
가시마
국세
대수의
데에서
독실한
동산
동프랑
방을
백범
번영을
부문의
안개
운임
종족은
주권을
칭호
한복
화력
활을
힘과
##시계
##비우스
##연장
##IST
##워스
19일부터
1967년에
서울신문
이용되었다
대표작
지방산
등장해
차량과
행동과
기타의
마음은
제품에
다르기
만족하는
상품의
지리적으로
메모리를
사범대학
Delta
라그랑
서포터
3번의
template
검사는
고졸
기지로
미켈
별명
불펜
블랑
스펜
영예를
오트
임종
조연
주제의
질을
처방
통킹
페인
현상으로
홍건
##스카이
##화한다
##반으로
##레로
##쓰키
##극은
##귀를
##WA
200년
포함해서
공격의
공격한
음악으로
발매한다
이것들은
27일부터
마을은
제안된
1993년부터
등록을
나누었다
바람의
330
1836년
하늘에서
사유를
한정된
requ
고립된
왕세자
내걸고
경희대학교
일각에서는
Na
now
가솔
각지를
곳에서는
도발
딸의
말려
말아야
모이
목이
반일
베를
병풍
사학
생제르
시비
시인이다
식물을
신과
왔지만
장군을
재야
찾는다
타자를
퓨처
하였던
핵실험
##시도
##대회는
##키지
##부족
##하진
##노이
지역별로
1958년에
발표했고
기술적으로
조직하였다
2006년까지
##ado
기여하는
열차와
유일종이다
받았을
##apt
움직이지
부르봉
가져올
허용하고
국왕은
참고하여
수립된
1600년
Princ
중립적인
하드웨
개조한
아카데미상
Conn
다운타운
상하이로
가슴에
김규식은
AEK
거치며
국산
당에
도끼
둘로
말해서
모잠
변성
북부에서
불투
서신
속에서도
수목
시신
연호를
예견
원주시
이기는
정중
조니
죽었고
지석
최북
##중으로
##라로
##내를
##뮤직
##과장
##선발
##문헌
##즈미
##버를
##태자
1981
1976
선수단은
##itte
생각입니다
사회민주당
이전과
2013년부터
이론으로
수상자이다
민족이
##시간은
변화와
떨어지고
베이시스트
확장되었다
이듬해에
황제에
only
지진의
업무는
규칙이
주관적인
실질적
##시험을
에어버스
내세웠다
오다와라
게시판
##ische
개명하였다
늘어나고
4집
7만
Fest
Hill
op
강이다
광서
구세
균등
기업을
단면
도어
루손
막지
문이
법과대학
분쇄
산체
서강
성추
성우는
세상에서
안후이
않던
알로
앞을
없으
오슈
완산
이등
줄임
토리
해군에
##동기
##공사를
##무덤
##사적
##수호
##수염
##상수
##폭격
##됐다는
##질라
존재한
##ouble
작품들은
조직인
프로그램과
계약으로
보내졌다
시행하고
##akes
시청자
만큼의
##ized
참전했다
과도하게
패러다
순차적으로
볼티모어
농림수산식품부
세컨드
1골
Mur
User
hom
sl
감히
건지
구역에
국적의
꼬리를
꾸미
너비
둥지를
디케
무정부
문장의
보나파
불렸으며
사장을
산청
수류
않겠다고
애착
에리
열강
의인
인피
인연이
정조는
조나
처해
출격
카슈
트레일
표면을
황산
##연대의
##센은
##나가와
##객이
18대
국가지정문화재
아이작
구성되는
235
상황과
지원하지
아닌데
모습에
종교에
##istic
TV의
교수이다
1855년
분포를
장착되어
말이죠
보컬을
살펴보
pres
추증되었다
이회창
거룩한
1개를
3시간
Olymp
Tim
my
가모
거점을
귀를
내연
냉정
논설
논리를
눈부
라미
리프
마늘
못한다는
무단으로
범위의
본따
불순
삼가
서적을
안되
약을
에로
올랭
왕릉
윤석
윤곽
자리로
정글
정체는
족보
카드로
플러스
회장에
##모임
##바꿈
##살인
##icht
##ams
독립군
설치되었고
조직에서
타이밍
지원으로
이동해
구간과
FC는
데이터는
1999년에는
교통국
정신병
작업한
자치권을
말씀하시는
K리그2
연맹이
오토모
사냥을
혁신적인
흐름에
일렉트릭
고인돌
x86
강판
김택
남경
낮에는
모피
몸과
뷰티
세군다
윤리적
의지가
일자리
조승
청각
친절
친위대
통찰
후사
##도우
##지지는
##대항
##행렬
##술에
##루즈
##수준
##반과
##YP
##명령
##바우
##톤을
##채로
##왔다는
##2년에는
##raw
아르테
동일시
여기저
오늘에
##aking
패배로
적절하게
부활을
이익이
project
거짓말을
가나자와
패턴이
1호선의
Wikimedia
바빌로니아
URL
6호
Sept
data
거스
그늘
누워
두게
루나
문장은
반하여
발광
방한
버클
사죄
산이다
소중
소중한
수있는
애프
원료
적정
적으로
중첩
청하는
축산
카리
타점
행해지는
화상
##히며
##선교
##보전
##예산
##부정
##교원
##레앙
##심리
##훈과
##순을
##쪽에서
10회
1947년에
문제이다
필요했다
제28
대통령인
대학원에서
교육과정
개최하는
활약했던
모델인
법률이
승격하였다
정착하였다
행사하는
타고난
장치이다
날짜를
착수했다
어드밴
##III
암모니아
af
공대
권제
나이를
대사로
돼지고
리본
몰입
무례
문성
병인
비참
사장으로
선인
신구
쓰루
씨족
유보
율곡
음절
일선
장신
전역의
캐치
큐브
클랜
태종의
패미
포격을
협정에
##운드는
##처에서
##회사는
##계통
##국립
##프스키
##책에
##uff
##불은
##태의
##평면
##녀와
##저작
##vin
도시형
개발되어
사실입니다
설치해
사망자가
항공의
Stad
일어나게
##ift
다카사키
위반한
교토로
아테나
##국민당
레오나르
불편한
##stein
외삼촌
70년대
Der
FS
Home
OF
Rail
Roman
aut
function
tv
강구
맡으며
무루
산책
숙박
안톤
없이는
온화한
위태
죽지
진리를
천상
침대
크라우
태워
티에
판문
합리적
##PM
##시이다
##서리
##비어
##범으로
##예의
##사라
##륜구
##변으로
8월까지
구성할
theta
비판적
Story
수상자
월드컵과
판매가
요시토
정신적인
제40
세종실록
공부하고
채용하고
부임했다
공통된
Conc
개별적으로
보니파
시상식이다
김영삼은
온타리오주
플랑크
셀주크
3호선
Down
River
Test
high
red
괴팅
국수
귀의
나시오
누렸다
대일
디펜
목동
상으로
색소
색으로
스완
시호
용량
입는다
재적
종별
캐롤
키리
탈북
##라쿠
##던지
##전설
##님에게
##ios
##나무를
##레에서
##덕은
##슬레이
##렬히
18개
문서들은
중심핵
동안은
26일부터
대학교로
2018년에
현대적
기업에
국내선
만나서
건너갔다
현실에
하늘에
계급의
정교회의
오버워
없애고
스크린도
오가며
막내로
충실히
브로드웨이
익스플로러
팬터그래
블라디보스토
vis
가급
게스트로
광장에서
구애
기압
까에
끝냈다
낭독
농작
매듭
모형은
못하다
미코
배리
선회
승을
용기를
음양
있기는
자정
전파를
절제
착안
피카
피쳐
해지
흡입
##원들의
##중독
##wood
##대원군
##되기에
##오기
##오세
##배로
##충을
##혼을
##택은
##ices
예정이었던
소개로
##rant
출생하였고
게이한
수여하는
##ART
이르러서는
당사자의
Johann
쓰러져
##OVE
기자회견에서
매사추세츠주
태평천
호쿠리쿠
레즈비언
##urrent
2km
BA
Bern
C의
M의
Omega
Sup
거처를
고즈
고바야
까지의
노브
논리학
매춘
바덴
보리스
본다면
부피
상동
선한
순천시
엔하
엘튼
영조의
원만
이극
일자리를
적인
종말
주상
차내
출병
현역에서
##유공
##도나
##예방
##협동
##손을
##립은
##교과
##쓰고
한국계
고려대
편집자가
이것으로
분류하고
아래는
이동한
공동대표
##ulation
##카이치
보통이다
TV에서
표준을
32비트
후쿠이
설정된
지진으로
맞이하여
삼각주
항목에
한정되어
타이완의
법칙은
지내며
보관되어
분노한
감옥에서
놀라게
영광을
현저히
바실리
2등
Kr
MG
Public
dist
가졌던
뉴턴의
단락
대본
듯합니다
먹이
밤에는
살며
않겠습니다
오징
요건을
우대
임오
절차가
찬탈
총선을
행해졌다
흔적
##시온
##서면
##걸로
##우정
##사진
##오밍
##초와
##WC
##왔습니다
20km
서울역
1950년대에
표현했다
표현하였다
공동의
운행하며
드라마에
##경기장에서
##rie
가문에
바뀌었고
##iffer
##ateg
나무의
좌우에
접촉을
싸움에
레닌은
가리키며
영유권을
한국철도공사
페르디난트
##정상회담
Single
셀레우
Line
Mir
거리로
경멸
끊이지
던졌다
도리어
멜라
명탐정
바스크
사악한
생성을
성간
센타우
숙주
아역
안경을
압니다
연화
옆면에서
오즈
장점
주황
탄약
태도는
퇴진
특화된
파파
펼치고
한진
향한다
현황
흐름이
##유격
##성면
##문집
##체험
##면체
##금에
그러면서
그러니까
하나만
있었음에도
아이스크
공격수로
진행될
they
돌아간다
상황이다
모양이다
##rian
다카우
IP로
아내로
주교가
검찰의
도와주는
승객을
매킨토시
펠로폰네
2급
