[PAD]
[UNK]
[CLS]
[SEP]
[MASK]
!
"
#
%
&
'
(
)
*
+
,
-
/
0
1
2
3
4
5
6
7
8
9
:
;
<
=
>
?
A
B
C
D
E
F
G
H
I
J
K
L
M
N
O
P
Q
R
S
T
U
V
W
X
Y
Z
[
\
]
^
_
a
b
c
d
e
f
g
h
i
j
k
l
m
n
o
p
q
r
s
t
u
v
w
x
y
z
{
|
}
~
·
é
–
‘
’
“
”
〈
〉
《
》
「
」
『
』
・
一
三
上
中
事
人
使
元
公
北
南
君
國
地
城
大
天
子
學
安
宗
寺
山
川
州
平
府
成
政
文
新
日
明
書
會
本
李
東
正
氏
法
海
無
王
石
義
行
軍
道
金
長
院
高
가
각
간
갈
감
갑
값
갔
강
갖
같
개
객
거
건
걸
검
겁
것
게
겐
겠
겨
격
겪
견
결
겸
겼
경
계
고
곡
곤
곧
골
곱
곳
공
과
곽
관
괄
광
괴
교
구
국
군
굳
굴
궁
권
궤
귀
규
균
그
극
근
글
금
급
기
긴
길
김
깊
까
깨
꺼
께
꼬
꼭
꽃
꾸
꾼
꿈
뀌
끄
끊
끌
끔
끝
끼
나
낙
난
날
남
납
났
낭
낮
낳
내
낸
낼
냈
냉
냐
냥
너
널
넓
넘
넣
네
넬
넷
녀
년
념
녕
노
녹
논
놀
농
높
놓
뇌
누
눈
뉘
뉴
늄
느
는
늘
능
늦
니
닉
닌
닐
님
닙
닛
닝
다
닥
단
닫
달
담
답
당
대
댄
더
덕
던
덜
덤
덮
데
덴
델
도
독
돈
돌
동
돼
됐
되
된
될
됨
됩
두
둔
둘
둥
뒤
뒷
듀
드
득
든
듣
들
듬
듭
듯
등
디
딘
딩
따
딸
땅
때
떠
떤
떨
떻
또
뛰
뜨
뜻
띄
띠
라
락
란
랄
람
랍
랐
랑
래
랙
랜
램
랫
랭
략
량
러
럭
런
럴
럼
럽
렀
렇
레
렉
렌
려
력
련
렬
렴
렵
렸
령
례
로
록
론
롤
롬
롭
롯
롱
뢰
료
룡
루
룩
룬
룹
뤄
류
륙
륜
률
르
른
를
름
릉
리
릭
린
릴
림
립
릿
링
마
막
만
많
말
맛
망
맞
맡
매
맥
맨
맹
맺
머
먹
먼
멀
메
멕
멘
멜
멤
며
면
멸
명
몇
모
목
몬
몰
몸
못
몽
묘
무
묵
문
묻
물
뮤
므
미
믹
민
믿
밀
밍
및
밑
바
박
밖
반
받
발
밝
밤
밥
방
배
백
밴
뱅
버
번
벌
범
법
벗
베
벡
벤
벨
벼
벽
변
별
병
보
복
본
볼
봄
봅
봇
봉
봐
부
북
분
불
붉
붕
붙
뷔
뷰
브
븐
블
비
빅
빈
빌
빙
빛
빠
빨
빼
뽑
뿌
뿐
사
삭
산
살
삶
삼
상
새
색
샌
생
샤
서
석
선
설
섬
섭
섯
섰
성
세
센
셀
셋
셔
션
셜
셨
셰
소
속
손
솔
송
쇄
쇠
쇼
수
숙
순
술
숨
숫
숭
숲
쉬
쉽
슈
스
슨
슬
슴
습
슷
승
시
식
신
실
심
십
싱
싶
싸
쌍
쌓
써
썼
쓰
쓴
쓸
씀
씨
씩
씬
아
악
안
않
알
암
압
앗
았
앙
앞
애
액
앤
앨
야
약
얀
양
어
억
언
얻
얼
엄
업
없
엇
었
에
엑
엔
엘
여
역
연
열
염
엽
였
영
옆
예
옛
오
옥
온
올
옮
옷
옹
와
완
왔
왕
왜
외
왼
요
욕
용
우
욱
운
울
움
웃
웅
워
원
월
웠
웨
웰
웹
위
윈
윌
유
육
윤
율
융
으
은
을
음
읍
응
의
이
익
인
일
읽
잃
임
입
잇
있
잉
잎
자
작
잔
잘
잠
잡
장
재
잭
쟁
저
적
전
절
젊
점
접
정
제
젝
젠
젤
져
졌
조
족
존
졸
좀
종
좋
좌
죄
죠
주
죽
준
줄
중
쥐
즈
즉
즌
즐
즘
증
지
직
진
질
짐
집
짓
징
짜
짝
짧
째
쪽
쫓
찌
찍
차
착
찬
찰
참
창
찾
채
책
챔
처
척
천
철
첨
첩
첫
청
체
첼
쳐
쳤
초
촉
촌
총
촬
최
추
축
춘
출
춤
충
춰
취
츠
측
층
치
칙
친
칠
침
칭
카
칸
칼
캄
캐
캘
캠
커
컨
컬
컴
컵
컷
케
켄
켈
켓
켜
켰
코
콘
콜
콤
콩
쾌
쿄
쿠
쿨
퀴
큐
크
큰
클
큼
키
킨
킬
킹
타
탁
탄
탈
탐
탑
탕
태
택
탱
터
턴
털
테
텍
텐
텔
템
토
톤
톨
톱
통
퇴
투
튀
튜
트
특
튼
틀
티
틱
틴
틸
팀
팅
파
판
팔
패
팩
팬
팽
퍼
페
펜
펠
펴
편
펼
평
폐
포
폭
폰
폴
폼
표
푸
풀
품
풍
퓨
프
픈
플
피
픽
핀
필
핑
하
학
한
할
함
합
항
해
핵
했
행
향
허
헌
험
헝
헤
헨
헬
혀
혁
현
혈
혐
협
혔
형
혜
호
혹
혼
홀
홈
홍
화
확
환
활
황
회
획
횡
효
후
훈
훼
휘
휴
흐
흑
흔
흘
흡
흥
희
흰
히
힌
힐
힘
##출
##의
##연
##합
##니
##다
##L
##G
##텔
##레
##콤
##으
##로
##덕
##제
##와
##스
##티
##아
##에
##1
##손
##수
##는
##라
##리
##버
##서
##t
##e
##p
##h
##a
##n
##i
##청
##자
##기
##가
##클
##음
##대
##인
##과
##학
##철
##사
##비
##를
##좌
##3
##8
##명
##혜
##석
##본
##방
##송
##협
##회
##일
##렌
##토
##타
##카
##교
##달
##즘
##행
##괴
##이
##역
##g
##r
##s
##전
##현
##고
##여
##주
##며
##촉
##M
##P
##H
##T
##톨
##미
##정
##든
##4
##을
##악
##도
##어
##야
##하
##렬
##그
##트
##6
##발
##은
##았
##느
##면
##파
##적
##부
##경
##화
##증
##반
##군
##무
##원
##게
##내
##문
##브
##분
##체
##래
##l
##u
##m
##럼
##우
##드
##계
##씨
##말
##색
##됩
##심
##상
##K
##동
##통
##신
##녕
##성
##세
##보
##한
##봉
##된
##활
##0
##년
##까
##지
##중
##o
##y
##d
##거
##산
##록
##시
##간
##르
##메
##실
##물
##v
##z
##접
##조
##개
##설
##론
##베
##데
##바
##즌
##안
##슨
##났
##진
##왕
##박
##절
##담
##효
##소
##쇄
##응
##러
##뜨
##렸
##숙
##직
##페
##키
##뉴
##창
##뢰
##프
##였
##테
##추
##온
##장
##선
##j
##루
##마
##금
##건
##됨
##김
##호
##관
##위
##근
##양
##람
##노
##오
##츠
##2
##번
##c
##5
##7
##b
##했
##만
##C
##딘
##9
##되
##었
##울
##백
##점
##득
##k
##특
##입
##켰
##냥
##량
##포
##능
##해
##혁
##들
##태
##등
##업
##목
##I
##D
##A
##N
##터
##쇼
##핑
##앙
##홀
##존
##법
##급
##흡
##후
##류
##퍼
##른
##맨
##님
##낙
##랑
##국
##할
##식
##민
##졌
##구
##배
##나
##E
##유
##액
##x
##취
##뿐
##요
##작
##멘
##움
##력
##불
##B
##변
##골
##종
##킹
##순
##U
##R
##영
##생
##령
##재
##육
##술
##형
##봇
##크
##초
##탁
##패
##것
##약
##환
##려
##왔
##팔
##책
##훼
##당
##측
##향
##처
##받
##센
##탄
##습
##너
##션
##f
##던
##켓
##공
##핵
##코
##용
##권
##먼
##웅
##네
##알
##련
##광
##독
##치
##벽
##남
##싸
##준
##륙
##럽
##암
##모
##차
##멸
##됐
##쿠
##W
##Y
##풀
##겠
##히
##킨
##늄
##속
##맹
##예
##곡
##쓰
##판
##볼
##천
##폭
##룡
##딸
##란
##살
##함
##않
##항
##월
##셀
##채
##웨
##O
##퀴
##잡
##층
##쳤
##케
##팅
##틴
##단
##벨
##V
##띠
##흥
##져
##덴
##삼
##복
##런
##즈
##램
##빌
##린
##겐
##랄
##롱
##랫
##족
##각
##룹
##셨
##넬
##벌
##플
##집
##총
##염
##틀
##S
##료
##임
##뒷
##워
##턴
##읍
##므
##름
##Z
##례
##결
##필
##펠
##탑
##표
##올
##꾸
##균
##승
##률
##촌
##운
##억
##망
##열
##머
##째
##캐
##묵
##림
##택
##옥
##쟁
##침
##줄
##투
##두
##더
##봐
##F
##께
##핀
##디
##팀
##농
##섭
##앞
##X
##황
##때
##있
##념
##품
##친
##헤
##폐
##길
##튼
##롤
##콘
##픈
##윤
##돌
##빛
##섬
##피
##립
##애
##끌
##잔
##튜
##갔
##휘
##락
##녀
##몽
##뷔
##링
##Q
##질
##범
##죄
##엽
##낭
##병
##압
##털
##저
##견
##검
##납
##외
##희
##슬
##별
##쥐
##확
##붙
##랜
##딩
##평
##엔
##극
##축
##컴
##퓨
##죠
##익
##듀
##쇠
##곳
##험
##척
##탈
##춤
##릿
##댄
##눈
##걸
##귀
##슈
##큐
##킬
##켜
##폴
##델
##언
##혔
##못
##둔
##짝
##편
##럴
##템
##격
##쪽
##웰
##블
##욱
##곤
##릴
##틸
##북
##칸
##빼
##섯
##곱
##칠
##맛
##규
##율
##난
##곽
##q
##새
##끼
##막
##감
##쿨
##닌
##닝
##꼬
##w
##따
##텍
##강
##앗
##높
##찬
##혀
##롬
##괄
##겨
##읽
##벤
##롭
##낸
##갑
##융
##폰
##힘
##밖
##홍
##충
##봅
##켄
##찌
##룩
##논
##값
##윈
##듯
##깨
##릉
##될
##밥
##큰
##칙
##첩
##칭
##써
##돈
##겁
##펜
##냈
##커
##십
##객
##쓸
##답
##없
##빈
##엘
##뱅
##놀
##폼
##숭
##얼
##짜
##징
##맥
##춘
##죽
##헌
##둥
##잎
##컷
##몬
##싱
##젠
##누
##퇴
##젤
##럭
##칼
##착
##완
##냐
##훈
##몰
##벼
##샤
##궁
##켈
##참
##및
##땅
##콩
##뤄
##젝
##혈
##셔
##캠
##랙
##슴
##웃
##덜
##톤
##첼
##텐
##셜
##팬
##갈
##솔
##날
##뮤
##허
##믹
##찰
##흰
##굴
##떤
##매
##넣
##렀
##잇
##글
##풍
##붕
##겼
##쳐
##J
##옹
##섰
##쉬
##픽
##륜
##랐
##밤
##최
##혼
##닉
##맞
##헬
##뇌
##찾
##녹
##밀
##널
##틱
##큼
##먹
##븐
##랍
##캄
##릭
##략
##랭
##셰
##혹
##잉
##빠
##뒤
##é
##끝
##콜
##흑
##놓
##묘
##뷰
##흐
##돼
##획
##푸
##몸
##밴
##짐
##톱
##컬
##첨
##얀
##컵
##춰
##꽃
##앤
##삭
##빙
##짓
##힌
##힐
##듬
##졸
##휴
##뿌
##탐
##탕
##욕
##늘
##많
##듭
##엄
##긴
##같
##넷
##겸
##뛰
##잠
##탱
##렴
##멜
##쿄
##낼
##헨
##흔
##렉
##좋
##혐
##썼
##룬
##닥
##왜
##씩
##렵
##웠
##둘
##덤
##넘
##숲
##쾌
##꾼
##궤
##몇
##끄
##멤
##좀
##낮
##엇
##닫
##흘
##즐
##셋
##숫
##웹
##옛
##컨
##냉
##팩
##홈
##횡
##멕
##숨
##쉽
##뽑
##씀
##찍
##쌍
##떨
##즉
##렇
##튀
##듣
##맺
##롯
##뉘
##닛
##멀
##촬
##잘
##잭
##밍
##벗
##씬
##옷
##또
##닐
##슷
##끔
##믿
##앨
##뜻
##벡
##넓
##펴
##엑
##붉
##봄
##밑
##꺼
##깊
##빅
##윌
##옮
##빨
##떠
##팽
##묻
##닙
##겪
##샌
##쓴
##옆
##짧
##꿈
##덮
##밝
##맡
##쫓
##떻
##캘
##뀌
##챔
##꼭
##첫
##헝
##곧
##싶
##갖
##쌓
##잃
##띄
##굳
##끊
##왼
##삶
##늦
##얻
##젊
##낳
##펼
##으로
##에서
19
##었다
20
##이다
##하였
있다
##하는
##했다
##하고
##하였다
##하여
##으며
##니다
200
201
##한다
##에는
##되었다
있는
##부터
##지만
대한
##0년
사용
##에게
##적으로
##적인
##er
##까지
10
##되어
##면서
##들이
##on
##하기
##an
일본
##8년
##에서는
##하게
##5년
18
199
이후
##7년
##국의
##6년
##9년
##4년
한다
##2년
##들은
##이라
##1년
12
##3년
##습니다
##으나
##in
##는데
##았다
##at
##or
##였다
##00
그는
위해
##되었
11
##학교
시작
되었다
##리아
경우
##주의
때문
##en
##들의
다른
##들을
##ar
그리
미국
##al
같은
지역
##스트
프로
한국
사람
##된다
따라
##이며
##하지
경기
198
함께
자신
##하며
15
##es
##이나
대한민
당시
##라는
그러
조선
것이
것을
현재
##하다
16
##되는
이름
사이
때문에
위치
##he
##시아
##해서
문서
하나
##에도
또는
기록
또한
##라고
가장
세계
하는
그의
##기에
있었다
197
##레이
국가
것으로
17
에서
##ic
##기를
##지는
활동
된다
선수
##le
그러나
들어
했다
##is
##리는
##기도
##일에
##스의
있으며
사용자
의해
아니
##it
##대로
만들
196
##졌다
194
프랑
문제
통해
그리고
##하면서
##리를
14
##ol
영화
많은
4월
여러
3월
12월
있었
위키
서울
8월
##되고
다시
7월
가지
##다는
5월
##사를
10월
##하였고
6월
생각
##스는
##로서
1월
9월
것은
처음
포함
시즌
13
모두
##ion
##했고
모든
사회
주장
##지를
대한민국
독일
##는다
것이다
##이었다
##성을
정부
11월
일부
##자가
제1
195
##거나
##회의
##랜드
이상
이용
연구
##이라고
등의
중국
대해
감독
존재
##백과
있어
으로
위한
##이는
자신의
전쟁
##다고
##이었
##력을
하였다
2월
이루
대표
##위를
해당
다음
##위원
##ou
일반
##어진
##이고
아이
제작
##상을
##대의
알려
정치
##입니다
##도로
가능
##개의
##도의
도시
##장을
위키백과
##am
##el
내용
등이
관리
관련
하고
##통령
리그
구성
193
##하면
##나라
필요
##니아
중심
##re
기준
제2
프랑스
새로
##도록
##부분
되어
##라이
축구
##이자
사건
##시에
나타
라는
공격
##리에
##정을
참여
##as
영국
발표
##om
30
등을
토론
동안
##0년대
대통령
##이지
##자의
##ed
게임
##보다
##ing
방송
##이라는
##들과
개발
##nd
발생
##시키
192
##il
of
부분
##기는
이어
라고
이는
사실
##로부터
##et
##기의
##났다
인구
진행
역사
##와의
##성이
하지만
##us
the
##기가
이를
문화
##ac
##리가
##합니다
국제
태어
대부분
지방
일어
##스를
2010년
대학
이전
위치한
번째
##했으며
발견
최초
##자를
##군의
영향
관계
##도를
##에서도
이에
작품
자유
##자로
##세기
##명의
25
설립
##들에게
의미
전투
##인의
##므로
191
##자는
대회
##이트
독립
##리그
##km
이러
있습니다
시간
##사가
이유
우승
계속
되었
선거
##하였으며
대한민국의
특히
결과
설치
이러한
##되었고
##란드
고려
##가지
결정
##로는
없는
있던
받아
##명을
##ro
##리스
새로운
##리카
등장
아니라
##대를
상태
아버
지정
기술
21
형태
경제
편집
수도
##했던
러시아
음악
중앙
유럽
교육
프로그
##스가
이다
##번째
##원을
인해
주로
##인이
##르는
요청
조직
##과의
다양
참가
##전을
2007년
2008년
##으로서
##리의
##화국
이탈
중요
##렸다
소속
##부의
##ch
##식을
##되지
in
##이스
출신
운영
가지고
2011년
22
2009년
발매
같이
로마
##사의
있고
데뷔
구조
##기로
않고
사망
##ent
##하자
##으로는
##에서의
##다가
##해야
1일
23
아들
매우
이미
##되었으며
이것
##스터
##디오
운동
24
받았다
2012년
##권을
190
정보
국민
##드는
##명이
않았다
##프트
계획
미국의
없다
방법
##대에
차단
##대학교
##도가
##처럼
##도는
이탈리아
##리즈
그녀
##장이
##ig
성공
##하려
##학자
##이션
프로그램
##간의
추가
의견
타이
행정
돌아
많이
##ot
하여
출연
라이
##위원회
##하던
대해서
##FA
여성
지금
아버지
##등학교
##운데
##부에
##수를
따르
##id
변경
##림픽
000
##ation
##전에
28
26
2006년
않은
##화를
2013년
인터
직접
주요
않는
##비아
최고
sp
The
##원의
정책
만들어
##수의
##st
##ur
역할
상황
2014년
이라는
##르크
일본의
지원
##군은
출전
반대
후보
##사로
##서는
가운데
아닌
공식
생산
민주
##였던
27
##스템
되는
##사는
##장으로
한편
기원
전체
##음을
##운동
##스로
표현
##수가
##력이
제공
##선의
모습
##스와
거의
인물
##제를
차지
##ad
이루어
열린
##자인
보고
스타
##어로
##ty
##라마
이라고
각각
앨범
##으로써
올림픽
확인
임명
##남도
가진
##리고
##머니
연결
##제로
100
##점을
기능
##ath
과정
다양한
##원이
유지
##어를
##하기도
##가는
##스크
않았
##전에서
월드
##민주
분류
어떤
데이
29
인정
아래
2015년
##나는
이야
##으로부터
개인
##지에
대신
스페
개최
상대
삭제
##인민
요구
유명
따르면
##iv
##스타
시리즈
이동
공동
않는다
##냈다
##ec
운행
실시
and
2005년
기본
##ter
공개
##대학
시스템
관한
대상
##사에
2016년
##문화
##im
span
##의를
활약
##성의
기존
##으면
결국
##장은
##em
##이가
##시켰
있는데
일으
지구
원래
##지가
제국
##왔다
마이
있을
##um
##대표
영향을
방식
비판
높은
학교
대학교
마지
졸업
##했지만
말한다
##선을
남아
시절
##군이
31
##부를
##들에
진출
그리스
나라
##지의
시대
이름을
##수로
##ag
배우
플레이
그것
연합
##지고
기여
철도
생활
##시의
2004년
발전
서로
##문을
비롯
구간
##상의
학생
##인을
##os
크게
있다고
마지막
음반
##었고
##호로
##치를
동시에
##업을
만든
##치는
바이
계약
##계를
시작했다
건설
경상
##우스
189
##세의
인도
그가
대전
정도
프리
군사
평가
보여
역시
드라마
후에
제외
##일부터
##임을
2017년
##회를
하였
따라서
부산
처음으로
FC
##대한
거쳐
중요한
##ut
과거
##ia
##되면서
##위에
알려져
항공
제3
혹은
##원은
##하였으나
##ra
도입
도쿄
##ul
작은
언어
브라
##이드
##이었던
##제가
아르
자동
건물
##인다
자연
특별
50
##쪽으로
야구
결혼
math
노동
이론
##장에
##부는
나오
기간
2002년
##원으로
##르트
경기에서
오스트
사랑
완전
형성
차량
정의
##라도
동일
##정한
##장의
자체
행동
##북도
중화
##지로
##un
보호
사이에
여기
##제의
##군을
여자
##인은
그룹
St
2년
이적
지도
지하
##ir
##수는
달리
의한
2018년
##시는
수상
다이
초기
민족
인간
역할을
설명
없이
기원전
명칭
##장에서
##있는
현대
소련
##카이
바로
##하는데
어느
열차
위하여
##주는
종교
##있다
수행
보통
##자와
##인민공
되고
모델
##운드
공간
##트로
기업
##시마
##특별
2003년
어머니
##od
##단의
기준으로
최초의
경찰
##소를
##성은
to
##역이다
##독교
##트를
레이
##격을
있다는
##적은
##대는
##어는
기반
##BS
col
이끌
##ay
##이의
하며
##기관
##대가
기관
이때
지나
##했으나
전문
선발
지정되었다
국내
##됐다
인구는
##되며
##정이
과학
노선
##정에
##레스
전통
##동안
영어
##마다
찾아
##적을
##무를
이르
##op
##ers
##과는
승강
이해
비슷
보내
##갔다
##하거나
중심으로
노래
통합
##중에
##연구
적용
일반적으로
##혔다
##하지만
##서를
##리오
피해
태어났다
##체의
##th
Ch
##ow
##이를
지배
애니
전국
##당의
마을
컴퓨
경기도
##단을
##물을
사상
이런
월드컵
담당
자신이
작성
서비
##가와
2000년
사업
교황
그렇
##프리카
특징
받은
##진다
##리지
15일
상당
##ist
FI
##리와
기독교
40
1년
유일
태양
##른다
그래
부족
##도에
싱글
##드를
##oc
##시간
올라
연방
개의
그런
자기
지지
있지만
하지
받고
##적이
##all
좋은
근거
##광역
이라
분야
##어가
기타
2001년
##체를
지역의
지휘
변화
##BC
##시켰다
##트의
##르게
##위로
##and
##스탄
##호를
선정
환경
3일
##정부
##주시
##리로
방향
사고
##나다
개념
컴퓨터
생성
활동을
클럽
언급
##개월
판매
##어서
2차
합니다
받았
있어서
##tyle
그를
어려
불가
##사와
##드의
공연
##학과
##피언
모양
##린다
주변
10일
##드리
TV
대체
문제가
##원에
##스에
나가
##경기
##드로
##ri
##조의
두고
##한다는
비교
188
##명은
##회는
##종의
##per
##메이션
style
선택
##이기도
##시켜
관심
어린
북한
##ce
예를
##계의
등에
##디어
20일
역임
##군에
km
산업
충청
##제는
30일
한국어
3년
##키는
현재의
마음
이유로
소설
##세는
우주
실패
##트는
지속
##했다고
멤버
프로젝
문서를
FIFA
##역을
떨어
전라
##했는데
이것은
공산
가족
##og
가까
선출
건축
##성에
오늘
대하여
특정
국가대표
이상의
5일
##이지만
아직
스포
##으므로
자료
사무
In
제시
##움을
25일
판단
##르고
##야마
28일
데이터
##류의
기념
스트
언론
연속
##구의
##네요
최근
단체
선언
증가
도로
출시
##인데
전에
##일보
제가
##회에서
애니메이션
2일
등으로
##트남
##인으로
규모
헌법
걸쳐
##상이
대부분의
챔피언
내려
형식
최초로
##세가
관리자
않아
제안
제한
##부가
1999년
조사
최대
먼저
7일
것에
뉴욕
2019년
뛰어
202
다음과
스페인
##성과
##만을
시민
속하는
최종
아무
1998년
##시킨
##쪽에
##구를
color
16일
17일
21일
공화국
12일
18일
불구
지상
사진
##이로
사용하는
되었고
##하도록
인천
##관을
정당
##크로
##주에
4일
##치가
위원
##시키는
26일
27일
##세를
예정
목표
8일
##ap
이와
입단
사람이
##스코
주의
##쳤다
##방송
23일
우리
##단은
대해서는
강화
전기
통일
후반
##회에
추정
##학을
29일
##인민공화국
고대
6일
점령
14일
22일
서울특별
그대로
##글랜드
정확
가리
번역
##호는
알고
없었다
있었던
##내는
9일
때문이다
추진
##비를
##모토
11일
등과
밝혔다
##겠습니다
개통
수록
투표
방문
##자들이
##관은
명령
이란
지난
##겼다
물리
국회의
1997년
표시
해결
##가의
자리
논란
하나의
13일
수는
##기와
친구
그림
정규
186
요시
메이
유사
##어의
##ov
분리
권한
처리
##했을
##ie
##면에
24일
반응
결승
구분
##명으로
있게
모습을
조건
표준
##관이
##지지
캐나다
##만이
소유
##광역시
임시
작곡
##정의
##ess
이름은
500
승리
경우가
효과
오른
획득
교통
##ct
##학적
19일
불구하고
제2차
더욱
다만
정신
##회가
##버스
실제
베트남
##소가
베이
영화이다
내용을
##화가
전자
##ub
잉글랜드
##함으로써
표기
##메리카
##되기
부여
##인지
단순
##이에
##ab
에너
##프로
위에
저작
아시아
나온
##덜란드
1995년
##법을
##전의
##km2
##계에
##자들은
목적으로
##정은
중에
##단에
출판
##사카
##렀다
네덜란드
스스로
가문
드러
통과
대구
감독의
##릭터
187
##교육
자주
조약
##민주주의
##당은
##단이
제기
육군
차례
하나이다
인터넷
경험
주인
##금을
이름으로
##골을
##라의
##체가
##난다
작업
##물의
세포
마찬
가수
##부로
##원에서
1996년
마찬가지
명의
거주
##웠다
##위가
스포츠
정도로
포르
##전이
수준
##직을
바탕
것이라고
캐릭터
대중
법률
##ht
##선이
국가대표팀
##ang
##ame
그녀는
외국
하다
##정보
##점이
##치고
폴란드
소비
de
국립
소프트
확장
포함한
UE
이사
보인다
##없이
##지방
지적
##명이다
##상에
##지와
출처
갖고
오래
실험
있도록
알려진
정식
##ity
서울특별시
##ard
##철도
UEFA
사이의
##스턴
##상으로
유니
##가를
하나로
##한다고
움직
1994년
의견을
시행
이듬
만나
##학의
##비전
규정
##시대
##식이
주민
##들로
영국의
과정에서
분석
제조
강력
식민
##과에
##문에
##했다는
거두
적이
고등학교
히로
개혁
##었던
##스카
배치
조지
##었으며
##인이다
##ill
예술
1992년
파일
직후
폐지
비롯한
크로
이듬해
##형을
물질
##로의
바꾸
세워
##est
부르
##주를
잘못
대응
##상은
##지역
##나이
회사
##까지는
이승
아마
해석
일어나
맡았다
60
복귀
사람들이
##장과
##톨릭
비해
완전히
인민
이들은
텔레
##av
##트가
##학년
파견
1990년
비행
중재
것도
설계
주연
불리
Re
부정
영토
##ik
##드가
마르
가져
세력
##소의
상대로
발달
1차
자치
##경을
불교
##안을
##선거
그들의
불리는
1991년
##산을
페르
##부에서
들어가
31일
없습니다
북쪽
관련된
##이기
제작된
이곳
있지
##ine
외교
의하여
##학생
##ph
##동을
거부
결성
##하다고
결합
##들도
시작하였다
##스에서
##신을
시설
오늘날
##선에
##일랜드
즉위
35
##우는
##랐다
의원
##고를
제품
32
##구에
남쪽
##하의
주도
##인과
##거리
유래
초대
바뀌
충분
여겨
##오는
##로를
특수
의하면
##아의
남자
것과
제국의
경쟁
물론
널리
보다
##세요
보면
현재는
위해서
접근
필요한
일을
방영
##if
도착
##나무
##와는
##감을
##군과
##소는
성격
##위의
우승을
##되었으나
밝혀
좋아
##ell
제4
계정
이야기
1993년
##orn
##려고
준비
##ber
##님의
하이
##소년
4년
집합
제목
##ak
##레일
1945년
너무
다르
##라인
전해
##부르크
##관으로
가톨릭
같다
면적은
##전은
더불
##베이
사용할
연기
등록
파괴
때는
유전
중간
성장
문제를
런던
다루
야마
##행을
1988년
어떻
300
있으나
나머
스웨
##카와
지역에
##하기로
기초
경우에는
##되자
마찬가지로
시도
경영
##아가
for
이번
치료
더불어
가르
신문
다중
##부와
독일의
계열
브라질
동아
만에
##ip
##라스
훈련
수용
##규모
수정
##지에서
1989년
신청
왕국
다카
##식은
##니까
얼마
##받았다
##ack
비슷한
못했다
##동에
##러스
##이어
##하였는데
팀의
작가
조선민주주의
광주
크리스
따른
많다
##만의
##자에
동쪽
아프리카
자동차
바다
분쟁
##구가
스웨덴
##하다가
##스티
목록
회의
##위는
##스테
프랑스의
동물
시험
이외
여객
일제
본래
알렉
가능한
사라
우선
슈퍼
오스트리아
작용
발언
취임
패배
##ew
어떻게
생각합니다
금지
여름
##ont
##하라
##진을
발행
주인공
삼성
아시
##관의
##식의
필리
##스토
지하철
사용자가
##리에서
않을
근처
가입
이렇
##다면
##선은
##시를
일이
Al
##회사
##바이
##베르
th
허용
가정
황제
디지
이들
##사업
##많은
mathb
이루어진
위의
것이었다
귀족
여기서
체결
##으면서
유명한
소개
있기
반란
참여하였다
##art
##웨어
제거
##기술
형태로
평균
내각
##주로
##시코
##형의
##ran
선수이다
상호
동맹
##도와
스테
스위
미국에서
##구는
##크의
말을
70
존재한다
재판
그해
천황
노르
활용
교수
체포
수많은
편성
##메달
소재
##선에서
##조를
##르의
몇몇
일종
##량이
서쪽
##함을
못하고
##지게
노력
이로
만들어진
때까지
고속
연주
하루
출생
적극
보도
사용한다
##권의
##어나
##사에서
##문화재
만약
간의
보수
기존의
##의로
가능하다
##점으로
말씀
##ight
##교회
##ud
성립
##지도
전혀
2020년
정보를
##ian
통치
중단
##시로
오후
반복
떠나
##일을
못한
##센터
##롭게
종료
##연합
동생
이래
있었고
##리트
An
공작
정부는
후쿠
한국의
##졌고
나누
수가
달성
디자인
이름이
떨어진
시기
이주
##체는
은퇴
혁명
교회
공항
강원
기자
##페이지
##계가
국왕
##트워
##면을
##ue
IP
##오카
##자리
포르투
않다
글을
달러
##NA
오사카
유로
##조는
##과학
중에서
##작용
종합
##oun
##차를
##시키고
지역을
##화된
항상
살아
##인들이
##론을
한다고
구조를
제주
##나가
전달
경기를
타이틀
##스키
기록했다
##량을
끝에
##당을
##화국의
##ate
일어난
같습니다
남북
80
##승을
인식
강한
위험
##소에
##루스
없어
하기
##평양
안정
승강장
관할
논의
카를
되지
당선
구성되어
##당이
비밀
Un
그들은
##하시
방어
참고
5년
##화의
충돌
##디아
사이에서
옮겨
교체
##간다
Th
출발
##해를
이용하여
각종
나타나
고종
신라
185
중의
정치적
1986년
에서는
한다는
##권이
해외
1987년
미사
않습니다
##our
수비
바탕으로
사실을
##0년에
##조가
연장
##이던
지역에서
안에
의사
##로가
근무
제5
그린
뒤에
##관에
에는
개정
음력
나무
최소
마련
만드는
말했다
##국이
이렇게
프레
##단체
선수로
##ong
홈런
세종
##웨이
##하이
구단
##적으로는
주목
기능을
계승
전환
밴드
시청
##10
남부
기사
##성으로
장기
아키
수립
입학
##리기
넘어
무기
##니는
부모
원칙
인사
그녀의
##자들의
대륙
##시가
전반
대표적인
##인트
##당한
훼손
둘러
##았고
아카
것입니다
지명
45
##크라
상징
##부터는
신설
승격
바람
디지털
일단
##국은
보유
촬영
지냈다
관계를
프로젝트
##레일리아
제도
라디오
투수
##ect
##치의
귀국
조성
##분을
##대와
##두고
36
##ev
##주교
##보다는
저는
이며
서비스
텔레비전
개봉
곳에
유일한
주는
파이
정부의
살해
참석
##력은
선의
on
부터
관측
대사
##였고
##TV
고구
실행
##러운
180
증거
##되기도
개막
신뢰
조금
집중
##만에
##까지의
에게
정상
합류
시작되었다
아니다
##내고
에도
완성
##고등학교
경향
##점에서
무렵
##관리
##더라도
##물이
비디오
책임
##하려는
##시오
발사
##ive
하계
실제로
##시즌
위치하고
##문이
아내
집단
되돌
##나라의
유대
##하고자
##지션
계약을
2세
나머지
##ant
왔다
##시대의
전략
##어졌다
##역으로
보이
이스
시각
##perat
확대
보존
건너
아일랜드
있었지만
바르
문학
##트리
##치로
안전
통하여
KBS
1985년
해안
33
불러
없다고
##자이다
인한
##호선
해방
평화
정리
강조
스튜
조각
갖춘
내부
사용된다
만화
##mm
받아들
동료
이집
오스트레일리아
베르
##eg
드래
##ort
##하에
네트워
유형
센터
##가가
##계는
멕시코
구체
오브
사회주의
제외한
##se
종류
##파의
선수권
미래
인근
친일
초반
일반적인
기록을
설정
하게
##전히
operat
##0년대에
##크를
1984년
##동차
##가로
국방
##해졌다
윌리
##군요
이슬
정착
##적이고
제정
해군
고구려
알아
포르투갈
Ar
쉽게
에이
##ich
게이
세이
제1차
1세
탑재
##전으로
중국의
갖추
등은
이후에
##량의
삼국
##소로
가는
##호가
##미널
##orname
operatorname
##님이
독자
가까운
윈도
##과를
하자
##트에서
##20
##티아
기억
위반
배경
강력한
문서에
편입
조정
##였으며
##교의
없고
사령
##질을
##라운드
출신의
도시로
##됩니다
##되었던
스코
##로서의
발표했다
명예
II
##에게는
현실
##왕의
사용되는
이전에
젊은
##인들은
##ore
불가능
##전쟁
마사
헝가
184
위치해
엔진
북부
어렵
부근
해서
##ain
지금의
생물
##화에
##cm
케이
##석을
도움
확보
##분에
저항
만들었다
##역에
낮은
오르
##공항
##생활
내용이
전개
의미한다
개시
모르
##로로
##설을
이루어져
범죄
사례
##계에서
공격을
##은행
##ith
38
그에
##었는데
##기고
##낸다
90
st
울산
##비가
##구로
위키백과의
관심을
설립된
민간
##크는
재직
상업
##피아
뿐만
부른다
##세포
행사
생활을
홍콩
수학
##요일
##드와
##ex
묘사
##정책
1982년
침공
통신
베네
내에서
개편
##하겠
승리를
문서의
##수한
##사령
경상남도
방식으로
##상에서
##3년에
##티나
사용하여
전시
알렉산
##심을
채택
##되었는데
##신문
이끄
사람은
시의
그려
10년
공급
##려는
박정
의해서
사람의
##하다는
협력
mathbb
경우도
2개
주연으로
힘을
원자
최고의
나서
##밖에
국회의원
기계
요리
보이는
##리포
1980년
관찰
경상북도
본격
오히
##단으로
##준다
##하려고
##로나
이슬람
이끄는
##프는
##서로
천문
##그룹
계산
Com
인용
##모리
마이크로
##족의
남편
##ial
나뉘
주장했다
대상으로
##제에
스토
시대의
되었으며
##후의
##라노
##사키
Mar
관광
나오는
##같은
자리를
회원
##고속
신경
때에는
전용
종목
평양
목적
한번
윌리엄
하면서
암살
공공
##8년에
앞서
투입
##세에
만큼
##법에
##약을
##ff
##으니
받는
아닙
블랙
동의
34
##ob
무엇
##라우
밖에
##신의
얼굴
하면
미술
150
태평양
태풍
예선
글로
위협
여전히
##드시
태어나
사실상
MBC
##서에
오전
합의
##ly
대립
##세이
채널
나중에
등에서
카운
하는데
유리
주었다
##면에서
분포
Sp
통한
##1년에
en
400
제대로
비난
자신을
##사회
이나
##력의
보여주
##ep
원작
터키
아우
오히려
자본
때에
인간의
대회에서
인디
##원과
문화재
확실
##리어
##CA
##로스
##기업
##ge
##6년에
##오프
##ok
##받아
조선민주주의인민공화국
##9년에
개선
미디어
##졌으며
그런데
##어도
장애
태어난
이유는
##계로
183
지진
##ry
##점에
동부
전투에서
##리스트
남동
부인
##간에
1972년
##니스
##명한
정도의
기획
붕괴
청년
##산의
사람을
##미터
사회적
잠시
덴마
불린다
뉴스
##대에서
##신이
##상과
반면
##주가
다섯
당시의
##타를
##경제
마쓰
저장
해야
##군으로
교토
붙여
본선
나카
업무
핵심
##었으나
##로운
시내
화학
##해도
##즈의
경성
변호
필리핀
##대전
##임스
로스
##력으로
구축
구성된
##시와
##권은
창설
대형
##스럽
시간이
##음에도
버스
적은
##프가
is
지식
##체로
국무
임명되었다
지침
뮤직
##되었지만
인수
에스
무장
오스
##iz
##산업
##당에
아들로
합병
##먼트
##하나
##어들
아닙니다
심각
##역에서
##개발
등장하는
점차
##아버
대규모
##면의
##자들을
##았으며
##해진
나폴
##문의
행정구
어떠
전차
##age
클래
집안
al
토론을
##했기
중반
##국을
##해주
서식
##아서
##50
뛰어난
##교통
전라남도
##조선
세운
확정
포지션
논란이
회복
제작에
남성
##소에서
##7년에
나와
##ast
모스크
근대
마리아
##5년에
전사
##었지만
엘리
상당히
건강
##ary
고전
##4년에
반드시
보는
##받은
측정
##세기에
문자
##자에게
세르
오랜
죽은
##워드
득점
있었는데
죽음
사용한
동일한
기후
##르타
루이
종종
160
선조
제6
##인에
매년
복잡
내에
오른쪽
메이저
부탁
##류를
시기에
이끌고
운용
##료를
##이란
핀란드
소년
오리
##메이
히데
마드리
사후
도움을
블루
여행
##시킬
불과
K리그
3개
제출
##레이션
단일
비용
그래서
논쟁
아사
##라가
시대에
영입
경우는
##버트
절대
검사
아주
##력에
적절
##도시
##판을
##ord
##스리그
##ae
서부
형태의
폭발
##물로
##민족
파리
##분의
##종이
159
1973년
1948년
쓰는
공부
감소
##라비아
##ory
시작한
##로그
##동의
자격
고양
179
##수와
##권에
##ld
Pro
과정을
가능성이
라틴
도서
##분이
##실을
라이브
##FC
검색
광고
##스케
##체에
사람들은
##mall
##역이
충청남도
##로드
##제국
팀은
##수에
간주
##ib
정부가
##지면서
##력과
규칙
##어져
있었으나
겨울
사항
시장
Pr
사용자는
##리포니아
타고
##사이
##역의
일종이다
연맹
강제
고향
기반으로
했지만
어떠한
출마
19세기
1983년
자세
몽골
흔히
계획을
##자치
##사전
1981년
감염
##경기에
사는
재정
있었으며
발생한
이하
문서가
스튜디오
유엔
시즌을
아랍
되면서
##서가
##ST
원정
농업
인하여
사용자의
##ure
##형이
연극
##ical
만주
##라엘
공산주의
이른
##비는
선고
창립
에피
##인들의
도중
레코
뒤를
외에도
##티브
##어야
하늘
##법원
##품을
소프트웨어
비교적
수입
올랐다
##다른
캘리포니아
##았던
출연하였고
누구
##네시아
카메
했으나
##우고
정책을
사유
공유
선생
LG
제7
##어와
##지기
전쟁이
중화민
이스라엘
간단
##조에
1979년
증명
그곳
##무라
헤이
##up
이용해
앞두고
##해의
무시
중립
##ver
Sh
##무원
1946년
##메달을
##화는
아르헨
181
##ens
필요가
##점은
64
출신으로
small
김일
취급
갈등
고등
북서
##서의
사건이
탄생
강원도
청소년
##하마
##연히
##식으로
점을
##크라이나
결과를
연고
##당과
나는
박정희
생겨
장악
##틀랜드
##자기
대항
통해서
차이가
##동이
외에
중화인민공화국
녹음
후손
에드
해체
때부터
예상
37
혼란
##리학
에너지
##경에
인터뷰
지닌
한때
유도
##ne
##기에는
##qu
왼쪽
팀이
##없는
##다이
내용은
##cal
##면이
열대
되면
서양
##차로
##쿠라
프로듀
마법
인공
국회
이제
살고
사용하고
아나
##드에
김영
반발
운전
##트에
##드에서
##하신
##함에
##키아
or
##차례
보급
모스크바
거절
##일의
1970년
##테인
트리
우크라이나
##이었으나
보였다
##일러
인기를
##히는
등판
국가의
경우에
##안에
##가이다
2008
태어났
##가에
지역은
한반
위해서는
1963년
식민지
##만큼
##ass
분명
일본에서
높이
##되어야
동원
##oh
가게
스파
속에서
짧은
은행
48
물러
##uc
끝나
고정
성우
1950년
채용
##2년에
추천
41
거대한
금융
39
##통신
##스포
처음에는
일으켰
##랍니다
만족
##우리
발표하였다
검은
요코
##man
생명
##재를
명확
2개의
부임
1974년
까지
##협회
경기에
수사
##유럽
건국
베이스
맡고
역대
##만은
올려
##장이다
##000
넘겨
아들이
##의가
##셔널
##복을
##end
##자이
해당하는
단백
롯데
노예
능력을
청나라
##아시아
##ies
##되면
##술을
나이
출입
##령을
북동
카운티
##룬다
수원
한글
##대회
주교
행위
##사건
진보
##호의
공포
떨어져
머리
아름
##개를
검찰
En
없다는
##이었고
고유
그러한
##자료
그것을
사태
외부
네이
##리즘
사건을
계급
부활
##ment
시티
트레이
활발
##ust
##했습니다
##니어
소녀
다다
가로
##법은
베이징
것처럼
조작
##실록
##량은
이중
했고
##io
언제
##의의
##나이티
가격
전설
이야기를
재위
전쟁을
박사
그렇게
추측
##치에
플로
세웠다
오픈
판결
##형은
대비
됐다
지원을
그에게
##립니다
##씨의
이후에는
의혹
##화로
##정으로
방법을
오토
이용한
##공업
대표팀
식물
작전
신앙
FA
##지자
해도
약간
##이므로
불법
1971년
역을
##추어
오래된
보아
an
Le
모여
저지
전후
지낸
달라
##사인
##킨다
팀을
동성
다니
입력
유나이티
부상
방향으로
됩니다
##ss
우려
##음이
fr
찬성
형제
맞이
##비의
철도역이다
##역은
##일본
멸망
애플
아침
했던
미군
양성
의심
노부
하였고
네트워크
스피
Coun
바랍니다
붉은
##용으로
구속
모리
##적이다
##슈타
주식
##종은
##19
올리
PC
이것이
신인
장착
##께서
속에
주관
##지인
##국에
55
뜻을
약속
시작으로
구별
##트라
함수
##나와
빠른
##병을
조합
##보를
목표로
파악
##미디
어디
##일은
존재하는
후지
합격
챔피언스리그
##방을
세계에서
보장
1976년
주고
이전의
사용되었다
발매되었다
##당했다
1위를
##마이
2000
받지
반영
카이
역사상
위키백과에
이익
##도에서
##테르
##프의
지키
42
건립
보냈다
제임스
설치되어
이고
##스러운
##받고
##보는
스크
##였으나
##터테인
철학
학문
앞에
비록
계기로
당초
생긴
서술
얻어
의료
##슨은
시간을
윤치
##경의
모아
솔로
Bl
윈도우
부문
총독
##구와
##차가
집행
##총독
이후로
##ational
검토
넓은
##기압
6년
북아
##를린
1975년
##일이
##류가
아르헨티나
1960년
산맥
피아
1949년
##표를
##리케
경계
##노동
하나는
##ace
마리
스코틀랜드
3차
##다운
남서
1978년
##산은
내의
1로
##기간
머물
리더
얻었다
##olog
##경찰
대수
##모를
둘째
1968년
##기지
일정
##트와
##조사
비율
장관
민주당
선교
##데스
2010
Cl
##자들
운동을
66
##들어
##크가
수여
정복
##SA
단독
De
한자
조선의
기대
했으며
##데미
##렸고
공통
이르는
제외하고
##바르
주전
놓고
투자
안내
엄청
행성
##중앙
com
총리
##전문
bl
때의
이뤄
1940년
부분이
##화와
통제
플레이오프
뜻한다
75
##선으로
##하였지만
##조합
이민
##의회
창단
2009
178
일찍
##형으로
문서는
각각의
##만으로
##씨는
##시설
금속
브랜드
##신은
플랫
길이
부분을
시리아
시작하여
의무
따로
##료로
공을
삼각
1969년
발표한
농민
##te
##뉴스
전철
여기에
전부
들어서
##pl
신성
보조
온라인
차별
항목
##는지
에피소
활동하였다
피해를
##에게서
감사
개신
New
빠져
말이
상황에서
창조
##식에
pro
출범
##나미
##마스
끝난
아테
보낸
알게
사단
자는
점에서
##번의
저명
최다
곳에서
##소와
##ond
수집
##ys
##리게
포함되어
be
##이었으며
독립운동
명이
후에는
지켜
아메리카
47
종류의
##법이
##나의
쓰고
##본을
##항공
도달
##주에서
CD
##99
##연맹
되자
동작
##왕이
##듯이
일치
##주년
맡아
##ish
##보고
김대
행동을
##체육
않으며
소수
요한
체계
나치
러시아의
SK
이성
1919년
거리
당시에는
서버
하드
mathcal
제어
말레이
연산
요청을
##ER
##카이도
의회
##ug
4개
공화
승인
유사한
##미야
지속적으로
특별한
##부인
무역
상륙
전공
레드
참조
강의
저작권
2007
마침
이시
시에
이탈리아의
그것은
단백질
기술을
일본에
대공
##미디어
##락을
받게
배우이다
실질
요새
충분히
조별
않았고
백작
1977년
공식적으로
다르다
임진
문제로
가졌다
느끼
##면은
##방의
넘는
1000
소비에
0으로
##통을
프리미
1962년
지상역이다
수송
##조직
가을
원년
##명에
선수가
##인민공화국의
##석이
가서
182
##전과
동남
진압
##페이
##국민
##싱턴
차지했다
봅니다
##소프트
유명하다
##전에서는
시즌에
벨기에
아파
없을
##면으로
박물
생존
승진
연재
##물이다
개최된
오프
페이
효율
1위
권한을
급제
중세
여객철도
높아
보안
호텔
7년
발발
포위
##11
##ma
##지며
한국에서
##주와
방출
00
자살
주둔
##ear
현재까지
정비
개입
한나라
메이지
한정
##ence
분할
포기
##수록
##단과
슬로
주장을
병사
##터를
##라면
지방의
정차
고용
##니의
##해가
위치한다
주어
수출
##물은
프란
원주
정확한
미야
방사
##사관
나타내는
##ice
진입
##데이
##론이
##여서
##패를
##브리
받을
1개
##케이
##동으로
제8
##바로
문제는
대통령이
플랫폼
근본
입장을
전주
타이완
의존
이것을
개조
사법
도와
43
프로세
데이비
빼앗
중학교
침략
##제와
탈락
177
거래
성적
##마의
조선총독
도쿠
##주의를
##었다고
답변
은하
취득
##뮤니
베를린
##버그
##자로서
성향
밀도는
선보
1941년
주장하였다
선거에서
대기
그와
하위
##임이
코미디
해산
##파를
##책을
늘어
대략
처벌
##장인
##국에서
라인
##에르
등장한다
발견된다
인도네시아
하였으나
없으며
것이라
##교를
##저우
##건을
다수의
도요
##플레이
1980년대
부분은
자이
군대를
성인
##라를
골을
국경
불안
##지원
##tt
##론의
합성
예비
아카데미
흡수
##ost
##법의
##즈는
##ork
##프를
단어
응용
##시킨다
44
왕국의
시작된
동아일보
장치
##음악
형태를
1964년
번째로
##고속도로
##키가
포도
교환
군이다
어려운
1961년
제일
1944년
역으로
해에
##미를
매일
빠르게
##국으로
##문은
20세기
##ON
##개혁
지급
희망
##문학
기록한
아시안
##축구
마치
1번
완료
##pt
도망
예수
잇는
부진
출장
##토리
##ide
국정
문헌
학습
병합
##시티
방법으로
인종
오랫
진화
##공사
##섰다
것이며
희생
1967년
둘러싸
변환
평안
##OS
개발한
등재
헝가리
깊은
높이는
##디션
##미의
적합
##기에서
Con
듣고
광복
바라
##사이트
편집을
##실은
2012
쓰이는
콘서
##무부
기록이
영업
지어
##증을
사용되고
##mer
경기는
일어났다
요소
##이와
지금까지
지니
동계
많아
발탁
##보드
##언을
부하
3세
참전
##르가
##느냐
162
미드
앞에서
2011
트로
54
다르게
페이지
플라
1965년
포지션은
##계획
감독이
잡지
##하였습니다
##ern
##리적
##니아의
##산이
##리아의
중인
사실이
분위
나고
추정된다
초등학교
##카가
본관은
작업을
##만한
##공화국
##별로
장군
앞으로
##미가
오랫동안
좌우
편찬
##동생
니시
##ire
##리노
##토의
##이었지만
##어진다
SBS
IS
졸업하고
##타로
향상
1966년
##리우
##키의
파라
##tern
역임했다
활성
##영화
그때
##시키기
속한
탈출
2006
1990년대
활약을
##ft
지냈
아스
직업
##치아
존재하지
##세계
미니
이집트
승객
##들목
받아들여
열렸다
항복
JR
메시
법칙
감독으로
프로그램을
소비에트
주최
복합
테러
명을
못하는
회전
알려졌다
##동은
망명
홍보
##에만
받는다
인지
혐의로
120
##였지만
46
##ind
##ivers
실현
워싱턴
크기
세르비아
52
부상을
##영은
감독을
아버지는
##aw
##orm
1939년
유형문화재
##라와
##사무
##타이
가담
##천군
의견이
돌아가
##색을
##치게
County
고문
나들목
성을
요미
전라북도
단지
브리
##능을
##천시
김성
장남
취소
예측
##신으로
##보호
통산
다수
특정한
##요시
심각한
않게
##산시
##되었을
보컬
반대로
아이디
##틀러
말에
88
남은
이루어졌다
대성
##토론
##으로서의
보물
웨스트
헨리
##뿐만
성적을
히로시마
반도
##하였던
##ock
갔다
엔터테인
3개의
니콜
카드
##되었다고
ch
콘스탄
##행위
부르는
1일에
교육을
단순히
일시
천연
##인가
re
##들이다
양자
##선수
##씨가
##질이
하에
거듭
사퇴
연출
##텐츠
Ph
##12
말하는
ex
##성군
##구에서
##하였다고
상승
한일
##바라
##하지는
이명
하나인
##산에
1947년
Par
##프레
서비스를
인기
일본어
대개
배출
있음을
이름의
##로도
by
방해
목소
나왔다
소장
##선과
연구를
기록하였다
지은
화물
연관
마케
조절
##예술
들고
세력을
군주
158
변경되었다
덴마크
갖는
김정
커뮤니
트랜
개신교
몰아
##티노
##기사
53
터미널
것이라는
공사
##eb
##들로부터
부대
완공
자신들의
##AR
경제적
받았고
##ach
##진의
1면
161
##격한
만한
의식
km2
Br
극장
기본적으로
##one
##ah
세계의
비상
##해져
##시고
일으키
2면
도모
해양
집권
1군
다케
##석은
##영의
##act
자체가
샤를
임금
##관계
관계가
정지
##판이
갑자기
이들의
세인트
2013
명명
분열
##적의
일부를
상품
행위를
상태로
정기
전통적인
관료
with
경주
타격
밝히
향해
상당한
개설
##경이
##터는
1920년
자녀
##조건
상위
기다
되며
지내
##기까지
##조판
##주의의
후계
후속
드래프트
안에서
조종
##각을
##담을
장식
##중의
##시험
##마을
미사일
육상
점점
평가를
##상태
1942년
위에서
##조로
제20
공군
새롭게
인권
출간
sub
잡아
뜻하는
링크
국민의
확립
작품을
##치지
##번째로
어린이
##마트
상관
오스만
접촉
##IA
99
기울
발매된
로버트
활동했다
시위
대부분은
에어
##시스
56
타율
능력
연대
차이
호소
##유의
후보로
발음
65
170
문제에
서울대학교
대통령의
##화되어
탄핵
##우의
##루가
학술
위성
틀을
##명과
##왜란
구현
연습
무너
인접
제작한
작성한
백과
하였으며
독특
대통령은
가문의
DNA
##리다
##고는
이후의
명나라
##베르크
나타난다
공업
##치와
페르시아
발견된
의미를
장난
숙종
함락
##인들을
##름을
##미는
얻은
홈런을
다스
두었다
마무
가지는
상태에서
Sc
개별
지붕
강점
전면
##내에
49
맞아
영상
유한
##스럽게
##ite
대상이
그레
가와
버전
창원
가리키는
##곡을
이르러
역사를
스위스
무한
이른바
만들고
체코
##판에
주장하는
대표하는
번의
지시
통상
##민주당
대학교에서
기회를
레알
설득
엄청난
포함한다
눈에
않으면
##진이
침입
소송
로켓
##령이
갈라
점이
만들어졌다
임진왜란
현상
##old
아미
인조
Be
메인
노출
##ric
##타르
800
사전
##체스터
##되었다가
아라
1958년
처형
##생의
##키스탄
1970년대
##네스
합쳐
시작한다
여러가지
즉시
헤르
##안이
장교
있다면
##이라면
아니고
일어나는
김종
유학
이룬다
##자유
나누어
특이
자극
속한다
음식
스카
스프
포함하여
##생을
안동
주지
펼쳐
1956년
2번
카르
##왕후
600
사람들의
탈퇴
##화한
승려
##ile
벌어
알찬
##실의
##iss
명칭은
유일하게
정권
책임을
해제
필요하다
그냥
##었습니다
권력
##ext
모임
오페
보관
모양의
5개
He
사임
크로아
58
박근
유기
동안에
당사
노무
중에는
##터의
나다
##도르
간행
준우
징역
##론은
길을
등급
맡은
무사
건조
156
규모의
보병
##ood
소속으로
황금
##산으로
단계
입장
신학
##함과
비공
충청북도
다소
##리히
##관에서
용어
##차는
Ro
미리
##동맹
##인에게
무덤
이기
##학교를
ar
공헌
##시에서
1943년
163
1960년대
이었다
치러
장비
아이돌
##ann
발생하는
전력
테이
이후에도
##겠다고
2014
1952년
글로벌
##주군
그레이
내세
유치
##야의
##재판
지도자
전파
##하므로
조선시대의
나왔
왕조
##이센
##이닝
마이크로소프트
흘러
##대부
대리
##리그의
##인도
1954년
부친
기상
임대
있어야
전신
##했다가
##ere
##ction
브루
##15
한성
##가타
후기
##에른
##항을
프리미어
녹색
동양
##레옹
##포르
라고도
##루를
유행
##AT
##ase
그것이
단위
스미
##장군
프로그래
Sch
신호
올렸다
그들이
시나
##겠지만
##누스
기둥
상하이
##국가
베스트
##16
##ung
##앤젤
##터가
##함이
후쿠오카
미쓰
보았다
시카
##양을
쓰인다
이들을
명시
선전
##왕은
##혁명
##ism
1959년
스티
재학
##ound
진행되었다
저서
연예
인쇄
풍부
##되는데
제공하는
체제
추구
폐쇄
마이클
가리킨다
##영을
역사적
챔피언십
박근혜
개칭
나폴레옹
##부장
혼합
로스앤젤
8년
개국
루트
##지이다
##시면
##ult
싸움
176
보입니다
후원
US
공정
##30
##타는
68
배포
##국제
마지막으로
##원군
열차가
있으므로
##학에서
##les
##종을
관련이
##edia
Ad
거짓
보기
알파
보이지
천안
##해보
175
개인의
준다
##받는
바이에른
기소
##하시는
##내기
전동차
##직에
Joh
프린
아메
8강
Gr
변화를
않지만
질병
향토
##등을
드라이
##리나
##현의
사망하였다
접속
##구이다
계통
##인인
반란을
데에
##겠다
대부분이
소식을
썼다
##로마
끌어
왕이
제9
사용된
했는데
작품이다
##우가
##방에
상대적으로
이라고도
4개의
말았다
투쟁
이승만
##슬러
요코하마
고시
국도
차트
가나
##BA
나타나는
거두었다
선임
일정한
##동과
상황을
넓이는
노벨
##관과
사우
재개
##점의
리버
진주
##연을
##례를
일으켜
천주교
##기념
제공한다
구입
있었기
주간
2015
미국과
165
들어갔다
##게임
그래픽
Bo
##고가
##하여야
지위를
##과대학
##루의
부분에
코드
##박물
##프리
사람들을
소련의
##박쥐
사운드
##산화
지역으로
중화민국
관여
##체와
특별히
##파는
국제공항
시스템을
트랙
대회에
임의의
전형
##자키
##조차
쓰여
발굴
000명이다
MS
논문
일부는
내렸다
의학
네이버
가스
##드립니다
##들에서
변형
올랐
##일로
꾸준
불렀다
직원
##여자
##었을
계속해서
내가
자리에
좋지
##부대
어깨
로봇
##석의
시청률
##안의
2016
##었기
직전
고속도로
가이
아테네
##한다면
넘겨주
군의
##orld
##파가
시리즈의
##진은
나온다
##에이
##개로
운영하는
자이언
##자들에게
역은
##련의
57
이혼
##과정
가진다
##지요
##격으로
음악을
탄압
본질
영웅
##질랜드
프랑크
Univers
##터리
1만
중부
교류
벗어나
사업을
총선
동북
공중
레오
분노
아무런
일은
곳으로
할아버
마르크
164
권력을
145
모바
설립되었다
1953년
동해
##루는
1955년
1938년
유럽의
157
오다
140
##화되었다
대선
##마르
74
CP
얻을
테스트
##물에
주택
##ee
##가인
잘못된
게시
도전
별로
재건
##주의적
문재
##린은
나이로
유효
화재
##층의
공연을
2005
형식으로
구글
두려
포항
학살
95
마침내
나고야
뉴질랜드
본격적으로
##비스
##판의
살펴
##ta
현지
72
신체
168
받아들이
대화
AP
방지
##레인
텍사
확률
##고등
지금은
돈을
위치를
나타낸다
초기에
##안은
반대하는
스탈
1910년
인디언
##구치
원소
이벤
IC
형사
1918년
가고
##로서는
보건
##머스
설치된
Pl
못하였다
##yst
##네이
##까요
##한국
##거운
작품은
심지
저술
##마를
전까지
혼자
##오스
자리잡
사망했다
절반
대표로
연결하는
해상
감정
법정
##경은
동성애
김대중
Ex
152
해당한다
유배
2선의
프로이센
바뀌었다
회장
대량
왕의
쿠데
##세로
##호에
추가로
##오의
단편
지지를
도덕
##퍼드
63
대체로
##우를
신분
적극적으로
조카
##독립
20년
선포
##산군
1957년
##라이언
##사람
km2이다
방식을
속해
오직
1932년
##km2이고
없게
##dit
##겠다는
손을
##망을
154
학위를
##AN
사이트
독특한
AT
빅토
돌려
부적
##사단
##그라
##부사
##위키
성남
확산
히틀러
정체
제도를
외국인
세월
힘들
##연대
##ier
##기록
1937년
Tr
항성
단순한
벌어진
특성
##질의
알바
완벽
##자동차
51
##래프트
액션
한신
##BO
아들인
##ove
1인
그로
##rans
새겨
초에
##같이
98
##로와
##EC
빨간
사건에
게임을
원래는
홈페이지
##지컬
다음날
초기의
##파로
가치
##평가
활동하고
방법은
예전
부산광역시
as
##ts
전쟁에
논리
##고의
##ons
le
##차의
사과
2004
말레이시아
1936년
무게
선출되었다
##편성
이루고
1930년
##에서만
작동
##ome
서명
##든지
측면
폭탄
남겨
수석
중이다
이재
미드필
##cc
주장한다
명령을
선박
##고기
1933년
일본인
나라의
명백
여섯
정교
##에선
멀리
특급
곳이다
##등의
나아가
전쟁의
발견되었다
일으켰다
소집
환승
##나카
1914년
타이거
효과를
##공간
##강의
국토
##족이
주기
##행이
프로토
AFC
Or
통계
167
로드
##활동을
넣어
추방
##해서는
맞서
상속
자금
골든
포켓
노르웨이
탐사
##공산
토론토
파트
갖추고
76
대동
도움이
보스
입고
##타의
##후보
##님은
되기
153
조지아
사냥
진학
##니가
길이는
내셔널
백제
프라
##법으로
이전에는
달려
신고
이날
위키백과에서
##식과
사용하였다
되는데
의정부
생각을
행정구역이다
62
##au
아버지의
일어났
Co
Wh
강요
재배
##란색
마무리
궤도
보니
##다란
돌아와
경고
토론이
동일본
사다
##타운
##범위
복무
##정치
96
장수
85
다운
시드
있었다고
3월에
110
사건의
##운동을
지향
다중계
이명박
아오
##pe
참가했다
미드필더
일본은
##레오
루마
와이
관리자가
73
터널
후임
##폴리
내놓
아티
전화
##계와
166
영구
일원
##리우스
미국은
개방
강남
비트
비롯하여
전문가
##행정
살인
창당
##가요
임무
있으면
##관광
black
사마
##서와
SS
##감이
사건으로
중추
플래
##용의
정확히
151
데뷔하였다
역에서
##남도의
보유하고
##비로
참여한
동방
벡터
새벽
##청을
##드라
노스
##용을
포함하고
##중인
##마는
일부가
155
3대
자랑
##건설
수상했다
개념을
예정이다
##이면
##야구
강릉
민중
찰스
내용의
사망한
어머니는
블라
이루는
3번
##포를
Col
광역
노선을
##대문
전쟁에서
발생하였다
일종의
##해군
대한민국에서는
##민의
대결
함경
2군
6개월
1951년
피아노
2번째
오키
##48
출전하여
스페인의
스케
잠수
##론에
서울시
프리드리
You
과학자
##류는
##스트로
다루는
##브라
2로
수요
##공을
##코의
##투스
도시의
비례
자원
##비치
코르
패턴
##호쿠
투어
##이상
##처를
방송을
명칭을
특징이다
소멸
양쪽
##았으나
참여했다
NH
사용했다
운영하고
적절한
구역
wh
성직
##열을
이자
창작
하여금
비판을
사도
##즈가
모바일
양의
우에
##왕을
하느
##니즘
결의
대의
심리
싱가
CC
오는
오카
이용할
바닥
들면
리스
마음을
수의
장소
##18
##기인
기여를
받았으며
걸친
그만
집에
필수
아래에
데이비드
군인
##주의자
이외의
복잡한
86
문을
전송
중종
##리칸
92
레닌
하던
##판은
기용
이끌었다
업무를
자전
코치
상황에
올스타
종사
지니고
유키
##한의
타임
대대
##개가
처음에
감시
복음
후인
가상
재단
첫째
권리
리처
이념
##공원
현역
##리며
##카의
유고
##우주
97
순간
근거로
87
세웠
표제
고위
달아
입법
##발을
도쿠가와
스마트
토지
67
별도의
독립을
##테쓰
##생물
패션
##아는
수도권
sh
권리를
주제
맨체스터
##하기를
59
라이트
부속
돌아온
소형
시조
1935년
철수
노무현
말로
##대신
##호와
최우
분기
##ick
게임이다
Te
규슈
발간
편의
우익
##색의
##되지만
조선일보
대장
당시에
과도
밀려
시상
선정되었다
개봉한
##청년
이유가
신의
예외
##형에
700
##ton
##말로
##200
##yn
##실이
연료
##린의
로마의
##조참
##하라는
유력
##환으로
##이치
정치인이다
재생
만든다
단선
기록되어
편이다
기록은
이적하였다
말은
##디움
대한민국에서
책을
##AM
관심이
가끔
##13
시카고
자이언츠
소방
##라에
모토
열리는
##다시
2층
##OR
조선시대
영향으로
##강을
172
이상이
곡을
##티오
##하겠습니다
##았는데
분야에서
수리
맞는
질문
##일리
해주
##하기에
수백
없지만
유저
협회
##비에
10월에
알고리즘
포함하는
원인
토벌
##크래프트
##어버
##공고
##위원회는
태양의
무관
태조
##방향
아버지가
공주
총재
코너
위로
마크
##르기
태어났으며
4대
77
독재
종로
청와
##az
##씨를
##IN
무대
세우
주력
파르
제10
완전한
화성
사양
영역
사진을
##스팅
##당에서
구성하는
부동
##BM
유닛
박영
에르
선두
##수이다
##환을
##사우
##종으로
물을
나타났다
1923년
대원
##토니
체육
노래를
Car
##보살
##즈를
연결되어
DV
서서
##베스
일으킨
말이다
##드레
##시기
##실한
경기가
영화는
전투를
스키
암호
적도
Me
지리
쓰러
주에
광범위
##시리즈
##유를
##려면
정식으로
제이
화합
##son
##되었습니다
John
왕조의
과거에
격파
##ual
##쿠스
##친다
사람들에게
130
출시되었다
아름다운
가마
고교
표면
##아이
초기에는
뮤지컬
##파와
1회
속의
##되거나
##ign
인물로
교회의
임무를
기본적인
웨일
추기
##문제
남아프리카
가난
기록하며
긴급
침해
항의
##14
다이묘
##ics
잉글랜드의
전두
센트
원하는
아니면
09
압도
소속의
##베르트
##ica
근처에
AC
##구역
무리
전작
1924년
번뇌
수십
전직
1931년
브라운
로스앤젤레스
뛰고
티베
##서양
##법인
139
여성의
경유
KT
##미르
##슨의
세상을
재임
##경기에서
##였는데
상하
원인이
의도
정부에
노동자
2세는
이라크
청구
##피스
##릭스
벼슬
##cl
대해서도
일련의
줄어들
##타마
##지면
1925년
보편
시인
프리드리히
허락
##도서
BBC
가치가
갖는다
디스
수영
이행
웹사이트
이웃
##했었다
1928년
병원
시사
##되게
밝혀졌다
사우스
##기구
##sh
자료를
단행
멀티
서구
텍사스
##학은
산하
다리
이은
파워
12월에
적어도
유나이티드
##모가
1921년
의미하는
89
구매
##계약
남쪽으로
크고
마드리드
발휘
##공신
남아있
막기
##하를
##거래
이어지는
개량
##베리아
##퍼스
부담
최대의
복구
파크
##고시
사건은
법적
at
약칭
성공을
##니치
증언
##세대
##관계를
##속에
나뉘어
Man
부상으로
자라
##로써
##비히
정책에
체험
데뷔전을
김영삼
2루
1934년
의미가
인구가
##배우
몸을
##단에서
주장이
30분
9년
와서
##렸으며
##차에
호는
##IS
사가
78
가까이
정통
상태를
군사를
##amp
브레
##대사
이들이
구원
모터
데이터를
##가능
만들기
기재
후에도
##ology
강하게
남겼다
위상
##row
##able
추대
착용
해리
##포로
##이라고도
상을
##계열
연구에
World
소리
##ium
##심이
##국과
사람들
스프링
##집을
신도
##정도
##위원회가
화이트
강등
세부
##공의
세계대전
사회의
크로아티아
복원
비정
열었다
당나라
번주
지불
1907년
불렸다
비잔
나타난
등장한
지구의
that
변신
분해
십자
올린
##렬한
미국에
이르렀다
수호
146
반응을
언덕
2017
9월에
한반도
맺고
1호
84
성격을
폭력
##결승
더블
좌익
커다란
맺었다
화장
메모리
신화
소프트웨
죽었다
진격
##무네
##프랑
토론에
바르셀
ST
지칭
##타가
대학의
Se
고급
교사
대변
서쪽으로
문화재자료
구사
청주
사람으로
관련하여
요미우리
##되던
공용
대다
화려
출연하였다
리그에서
여겨진다
만다
##imes
이끌어
실천
6월에
동쪽으로
엑스
##천만
##족은
포켓몬
##지마
사용하지
대로
유통
프라이
##실로
##ree
폴리
도미
##ole
수소
##모의
북쪽으로
유용
##비트
##mp
되었는데
레벨
정조
철저
기능이
이온
게임의
##ink
그렇다면
블록
행렬
##그램
##지사
##ous
UN
##시스코
##치기
##족을
사찰
포트
##총리
공산당
수준의
회수
##장관
##평을
위치에
순환
영조
16강
상태가
급행
높다
가면
18세기
1억
##리안
##제도
##위와
이상을
##ail
4월에
충분한
08
로서
##중한
나타내
게다가
섬의
하기도
##목을
하나가
곡은
명으로
영혼
허가
##소설
##유가
기도
##았지만
많았다
방정
##코스
Chr
##0만
경남
##번호
오늘날의
계정을
그동안
것이고
위키백과는
커뮤니티
4번
Kore
붙어
수를
##17
2세의
물려
영토를
금메달을
경향이
에드워드
군대
##하에서
1922년
El
고객
공화국의
방언
성균
죽자
##장애
##에게도
민주주의
내는
시달
중에서도
##타카
##rak
맞춰
##고자
세계적으로
영국에서
##연한
방법이
##학에
서기
철거
요구하는
변호사
떠났다
만난
##토미
##투아
##령의
##코는
세력이
##으로도
상황이
이른다
도시이다
거느
백성
인상
대부분을
OS
주된
##북도의
마음작용
클라
조선민주주의인민공화국의
94
디스크
본다
이세
활동이
영화의
발족
역이다
##AD
7월에
이미지
##ID
##내의
굳이
달하는
신칸
양산
##에서부터
5월에
11월에
세리에
구성원
보냈
팔레
##초에
스승
코스
어릴
현급
1917년
그리스의
1905년
프로듀서
6개
자가
저도
##나마
not
간에
##다의
La
Fran
무슨
않기
적을
위키미디어
조건을
맞추
작품으로
순서
영문
산화
식으로
##수도
닛폰
지바
가속
담고
지중
성능
University
속도
우리는
한국인
태국
들여
중시
혼인
from
가슴
남녀
8월에
인기가
174
기병
발전을
##실에서
죽음을
##정과
##권과
승부
##되었다는
이용하는
1세의
코로나
출연했다
93
##m의
##름이
감독은
부르고
현상을
##토를
##isc
공장
##자이자
시작했고
운동에
코파
##IC
##나요
ph
도중에
오이
프로그래밍
생기
성경
오버
##키퍼
불가리아
##방이
모습이
모델로
성과
배경으로
흑인
##리티
##목에
시절에
개척
사기
중지
태종
벌였다
집을
##브를
대한제국
인신
장르
하와
탑승
##ED
미국으로
남긴
였다
신칸센
04
남극
##해에
축소
##land
##OM
##훈련
꾸준히
보스턴
사립
이즈
참가한
데뷔했다
##된다는
작곡가
이로써
나이에
집필
##미사
보이고
##로에
발표된
개업
##절을
주목을
##고로
2003
발생했다
곧바로
그들을
콘텐츠
##대장
선거에
원주민
거리에
점은
##자였던
##율을
보여준다
2위
연락
##역과
2018
아니라고
##위원회의
Wik
갖게
대법
##본부
##문관
##당으로
실제로는
소득
일본군
1929년
149
일어난다
##드리아
날짜
화산
공기
마주
잡고
##ict
프로그램이다
PD
소요
##로지
##중을
##안전
##학자이다
##연구소
회피
##가시
##AS
##영이
루이스
연간
재산
정권을
개명
코믹
##세한
포함된
야스
입은
##스와의
##ix
##라고도
My
소위
##니스탄
모음
목포
칼리
테마
##감독
1927년
##ox
##데르
일본이
확인할
상대식
##시스템
##견을
번호는
우수
라이벌
##ime
건의
지목
##오고
골키퍼
주어진
장면
미나
북미
##물과
1926년
문신
입사
라이온
졸업한
시게
Su
분자
##ose
전두환
옛날
전체를
연안
들어간
DVD
아동
안타
##치오
스타디움
상의
##소수
않았지만
가설
수익
리그의
때마다
##왕조
##bert
##사상
##배를
생태
카페
##행성
영향력을
주석
일상
##oth
타입
##까지도
2회
싸우
발표되었다
전향
사이를
아이템
사촌
##클리
##문과
관계는
##ystem
가야
입증
##카드
##AC
169
올림픽에서
콘스탄티노
text
82
레지
전의
##이게
매장
선호
방위
##청의
##된다고
예산
준결승
##중학교
##oci
남한
누군
상주
##페르
##보다도
##erv
이름이다
##특별자치
2학년
pr
##머리
있는지
##테이
역임하였다
서재
그곳에서
따서
위안
##우라
자신은
##하겠다고
루마니아
서북
##란을
Comm
게르
농촌
##청은
##래의
석유
##체인
##힌다
구체적인
복사
##투표
용인
##색으로
##anc
공원
마감
##하면서도
HD
정수
이정
전부터
포스트
##TC
##ance
베이스볼
조선총독부
합동
우리가
의원은
크레
참가하였다
들은
셋째
생각이
##났고
차지하고
##당하고
식품
##px
##비와
##침을
관계에
위원회
##ps
##너스
여동생
##레나
주재
##이라도
##시장
##비시
엘리자
삼았다
해발
##PS
##됨에
##att
극복
금강
밝은
없었던
역사가
내지
1일부터
특징을
북아메리카
보이며
창간
##amb
교차
콜롬
호남
올라가
농구
못하게
교섭
SN
초청
##환경
이론을
원시
##나게
##하셨
##바의
경전
신규
직무
작품의
사랑을
반달
##ions
전남
##kg
##oll
바이러스
그럼
일대
현존
##모는
##토가
##ool
Cent
##자들과
1월에
변화가
수반
크다
리처드
반박
여론
##고에
고리
보충
칠레
##러는
발언을
클래식
옹호
설립한
원자력
오페라
69
가쓰
감옥
화가
##ject
열차는
문재인
07
히트
##보면
##스트라
또다른
서일본
##식이다
명칭이
음성
##더스
능력이
연애
##목으로
국가가
동영
받으며
##are
얼마나
바가
##말을
##중이
##노미야
의미로
객관
기구
납치
자매
MV
고안
별도로
유입
이종
##ans
아니며
공동체
개장
없기
전술
조치를
##민당
세워진
유전자
성질
약탈
후의
##편의
##니와
심사
주변의
그려져
##주일
##보통
공개된
##령으로
##집합
들어와
부유
생애
안양
상호작용
뜻으로
소화
##밀한
설치되었다
곳이
트럼
##가락
##대원
147
##reat
센트럴
br
대단
외무
##년에
에너지를
##토는
Comp
참모
##주었다
##성현
된다는
배열
이순
시간에
노선이
손에
억제
##Pa
##크와
아메리칸
거대
##erm
상태에
프랭
플레이어
드물
##팀이
된다고
도호쿠
보험
성의
해설
##실에
##EN
##끼리
##ild
강을
시모
출현
##님을
##form
##황후
##마자
##00만
문서로
사형
일곱
대칭
유대인
말해
삶을
소환
잠재
##하가
##프와
보여주는
개체
김해
세우고
##ax
1908년
SM
##유산
신사
예로
오리지
결정을
막아
##노스
3번째
회사의
##의에
##활동
정부를
습격
##ey
##단계
좋아하는
삼아
적응
##66
##보기
##렸을
실시된
안드로
지었다
1906년
오디션
올해의
트위
##청이
이어서
PS
마치고
소스
수직
##프라
144
생각하고
전형적인
전북
그녀가
대학교의
대지
불편
중성
혁신
휴대
##마가
##건의
간접
계층
시가
섬에
충족
##문서
제13
라틴어
근육
병력을
##아웃
##졌던
집에서
책봉
##주고
중국에서
이야기가
급속
독점
모집
재료
하인
호주
##성도
동반
성과를
##reen
##oph
바르셀로나
겸임
하다가
바람에
Is
맞지
17세기
비롯해
심지어
83
사장
차단을
기반을
인터뷰에서
걸려
황제의
돌아왔다
드래곤
담은
라운드
##기이다
##적이며
자동으로
3개월
메트로
방면
영원
##ET
##ert
메탈
##도니아
##양군
성공했다
주식회사
데려
크리
미국인
깊이
빨리
정치인
알레
조치
사용해
##즈와
15일에
주요한
토너
피터
필요로
##오가
곳은
실수
##하라고
##ata
Ge
호흡
##용이
지원하는
송시
##아르
생각해
자유를
기부
측근
##수산
##학회
불리며
무산
##티움
##상이다
##법과
##피를
##달러
들이
부처
황태
##형과
103
1912년
목숨
문서에서
영화를
##생활을
하더라도
##ations
반경
질량
##군에게
클레
##나라는
##사기
##분으로
##병원
제17
us
개찰
크루
파티
화폐
##즈니
Intern
##카는
##시대에
에피소드
Fr
##화하는
##법인이다
기하
당한
카라
##iel
사막
찾을
총선에서
거리를
입었다
전원
##인물
##트릭
빌보드
상실
인천광역시
인류
발생한다
이유를
일찍이
마산
101
간단한
SC
활동에
30년
땅을
클리
##주의는
기동
의사를
평소
##gr
##습을
세계를
남아메리카
공무원
colon
말라
유발
후퇴
3학년
수감
3루
복수
서명을
성종
시마
##보이
##frak
##천의
##폴리스
골드
사제
장례
##절한
##나를
mathfrak
아리
##백만
2002
등도
없애
##enc
##ement
가해
지연
포함된다
탄소
##오로
경우를
아예
했다고
콘서트
위대한
##브로
치렀다
##pp
않는다는
##ise
종결
##교도
##지니아
조선인
배제
수술
외계
이화
1950년대
1904년
##양이
구체적으로
06
For
조기
죽고
처럼
##통합
##종합
##fer
##권으로
1세는
열어
이마
##세와
##슬라비아
준우승
15년
올림픽에
놓여
선제
패러
##크스
이외에도
거친
왕위
하시
##제르
##작으로
구로
수밖에
의거
##리언
##yl
결승전에서
대승
공식적인
아직도
달의
모순
주세요
2019
생각하는
들었다
AM
공략
어두
이하의
입대
##ius
##igh
라이선
그리스도
인도의
접한다
##구조
##eth
법무
유튜
모험
선형
##식에서
누가
##하러
##프란
블로그
콜로
##들인
##생으로
스웨덴의
감각
말한
유격
혈액
##초등학교
부르기도
관하여
교향
##미아
##살이
##림을
지역이
출전했다
12년
pl
##다니
살아남
오리지널
천체
##졌으나
구간을
분명히
간섭
개성
르네
보좌
요금
준공
##브레
출처가
곳을
유아
베네치아
Ed
이치
탐험
##율이
자유롭게
##ubl
베어
항일
##0km
##시절
지방에
동맹을
않았던
파트너
당했다
본인이
없었고
추적
구간이
북한의
cl
맞게
버튼
사헌
조항
##슬링
조직의
지나지
교과
빌딩
사로
아케
##라브
2001
143
계획이
가즈
##등이
##슬로
##비디오
사용자들이
운송
이복
##누리
이어졌다
##학과를
엔터테인먼트
해협
##마루
##츠는
2대
판타
##출판
##등한
있다가
##out
기준을
가치를
레인
비서
예방
결과가
con
고민
싶은
##우스는
효과가
최우수
레이다
본명은
소리를
작전을
역사는
SF
레이블
콜롬비아
존재를
공간을
싱가포르
싶습니다
##22
역의
촉진
최저
##소한
스테이지
범주
000명
공동으로
블라디
김규
##클레
05
font
순수
##국인
##졌는데
마그
모노
연설
##격이
결심
적대
##야는
##병으로
##전자
##점과
##하였을
미국이
급격
않도록
약간의
영주
고고
소규모
아베
아울
일로
##바키아
##면서도
플로리다
퍼시
빅토리아
정원
크라
아니지만
임시정부
##용은
계열의
발명
허위
밀라노
중이던
차지하는
우라
##국토
아사히
거둔
아프가
압축
주제로
한양
##리자
##갔고
It
are
데리고
서방
앤드
이광
79
유적
측은
따르는
월간
##사이다
##번뇌
148
##ave
인증
무기한
동지
발렌
브레이
여운
##우에
2월에
실업
##학자들은
가질
근로
로렌
1896년
스티븐
착수
##int
직접적인
규정하고
잃고
##드러
##심의
클라우
##리온
##분은
##그래
모습으로
타이틀을
ad
##코가
유고슬라비아
막부
##트롤
##홈런
영국과
##광역시의
로그
아웃
출력
##등급
EP
명단에
부통령
실내
용산
정벌
##und
첫번째
필라
파생
참고로
un
##파에
##탄을
신뢰할
석방
해병
##어에
##치며
극단
놀라
명종
본인의
석사
의원이
이토
캐나다의
관계로
이르기까지
경험을
추락
1900년
11년
게재
압박
##령에
방향을
권유
나라를
부족한
관객
보인
##라이더
하거나
##레는
스크린
북극
여의
##let
말하고
친선
클로
로맨
아래의
벗어
합리
운행을
공개되었다
Love
목적을
통칭
찾아가
매니
##주의와
몬테
##졌지만
특수한
테크
##안타
대학원
명칭으로
아틀
주거
##연의
##층에
때도
위기에
##후에
당의
쇠퇴
이수
##니카
##미술
거기
읽어
접하고
가능성을
마찰
반사
##제에서
용어는
##니스트
담당하는
멜로
두려워
03
구상
행복
##ina
종교적
3D
마스터
많고
연계
##르바
##츠의
##투쟁
아프가니스탄
불렀
얻게
##면과
##렸던
되었다고
중동
##OC
되기도
못한다
것인
손자
쇼와
유인
##ru
##놓고
Mus
견해
동서
동시
구성된다
KBO
매각
가시
검증
커버
인물이다
앨범을
찾는
##산과
오염
##AP
##함은
2만
또다시
미네
##즈키
War
그랑
애국
고조
옆에
##출을
익스
초상
고가
촉구
프리미어리그
1학년
동경
뜻이다
전임
카메라
##하자는
##안군
##족과
음반이다
건물은
서독
존중
학사
협상
##교가
위키백과를
동아시아
아티스트
다녀
##쳤고
이루어진다
독자적인
당해
대우
심한
초래
##발전
발매한
국경을
무조건
캠프
##석으로
##IT
##ES
들어온
제15
개최되었다
분야의
무효
아는
일환으로
##회로
##해지고
먹는
하사
##건이
악의
착공
크기가
##장한
동기
##문으로
##오와
171
아닐
어드
사실은
뮤직비디오
4강
it
세조
승차
##하니
미치는
그라
한화
##사용
##시스트
##베리
##디는
아니었다
제12
부착
파울
일본으로
사령관
못해
수수
##슨이
토착
##으로서는
김동
##데이트
결정했다
All
1부
다룬
범위
##파이
##게는
사람에게
스트라이
아마추어
Ab
옮겼다
호환
##세기의
##간을
##우치
각본
##리타
##재로
우승에
무인
본토
이긴
작사
과학적
일관
쾌속
MVP
덕분에
별다른
알리
종이
언제나
막을
발효
##자나
크로스
망원
전망
크기의
##lect
최근에
##직에서
##ark
138
##ames
학교를
유성
히어로
원자로
전승
주니어
쪽으로
##우스의
규모가
자세한
역전
##마저
##습니까
배정
섬식
##체이다
수록되어
이익을
자격을
##내에서
운동이
계곡
일명
##류에
On
##정적인
##나라를
활성화
거슬러
당연히
몰락
135
루트비히
수업
우연히
유신
cont
간부
떠난
도시를
말할
분산
사랑방
02
우수한
응답
현대의
##님께서
닌텐
##지구
##애나
1911년
자체를
htt
피난
힘이
##리코
##동물
##측의
##이었는데
운행하는
최근에는
And
두산
약한
여부를
포인
##루미
브라우
그렇지
##보험
차지하였다
##리케이션
13년
나선
리투아
순위
구마
비틀
대처
발전에
##고한
내용에
비잔티움
못할
연루
카자
##한을
##노의
##왔고
입단하였다
나섰다
##경기를
문화를
냈다
시절부터
기념물
신라의
중순
해적
##리브
##나르
##십시오
250
후반에
자리에서
돌파
시를
제네
##론과
인간이
일방
##스톤
##병이
알렉산더
공민
웨이
파키스탄
##도사
사고로
개화
되었으나
김일성
되찾
##았을
##보로
##마에
형성된
본선에
살았다
유소년
입문
한강
현종
에스파
윤보
차이를
박물관
des
맡게
모래
배급
이지
장갑
##ated
다루고
거론
입니다
특성을
##백을
##들과의
##자이너
고베
내장
붙잡
##oy
했다는
Fl
계기가
모로
안의
##ron
##등록
사용자를
선거를
실종
태도를
##단이다
프랑스는
졸업했다
그들
설이
구간은
지나치게
보르
##장히
##국어
득표
들을
고립
매개
목적은
밝혔
##OV
10만
때문이었다
지속적인
수신
##enn
들어오
제후
##포스
결과로
인물이
노선은
##own
모양으로
닥터
물이
조용
케이블
부패
##카미
##AL
불만을
##작을
임명되어
특허
##iam
##민이
##플로
지지하는
드러나
아즈
##받지
##eral
스타크래프트
마틴
체제를
초창
##속의
업데이트
오케
차남
책은
##주인
##령은
과거의
일행
##되었기
##주의에
라며
##히고
안토니
최상
항구
##색이
##류로
##하려면
빛의
후지와
구미
부장
독일은
개발을
활동한
1895년
전통적으로
Christ
##ai
##석에
##생이
주변에
마카
평론
필립
시대에는
주축
##회와
문화의
기요
대폭
모르는
빛을
##향을
대회를
곳곳
하노
##의원
mathbf
성균관
61
얻는
##보니
##마쓰
요청합니다
천황의
문장
사직
야쿠
항해
##버드
아르메
밀접
##란이
유럽에서
상무
지내고
##성에서
바이러
나의
남양
종전
테오
##급의
훈련을
마친
무대에
최대한
##드르
##프스
##ors
글이
퍼져
않았으며
기호
심장
##놓은
##였다고
BC
대만
모드
밖으로
지어진
송시열
무료
토대로
못했고
홀로
##정부의
##둥이
비공식
고지
메모
무력
시범
한겨
국가를
근거가
##바다
##모델
수상하였다
##하겠다는
본격적인
겁니다
겨우
뒤로
명성을
미시
본선의
있음
진술
흐름
다음으로
점성
##교는
##러리
##레이드
173
역이
협박
##관찰
##차원
사무실은
고쳐
명성
##받침
사람이다
규제
날개
뒤인
듯한
박헌
사적
충격
피렌
##반을
그리하여
##itt
전체적으로
부정적인
자전거
##시피
125
문화적
방식의
##프란시스코
##전한
##진흥
##려서
개인적인
정확하게
Hist
경력을
고통
왕자
포유
##실과
##졌을
##raph
획득했다
##션을
강점기
가득
메달
소닉
##터에
##ots
아울러
눈을
분데스
##하르트
##II
141
서울에서
히데요
가공
랭킹
수천
##클럽
##uro
##처리
영양
##FF
끝으로
내부의
일원으로
##함으로
대회는
건담
대조
바티
분이
사상을
소관의
##하자면
멤버로
중계
페이스
기여했다
어울
유물
##보가
대학에서
강경
산악
16세기
우리나라
회의에서
고발
선진
이슈
일본에서는
제14
AS
현상이
##ale
시스템은
As
숫자
지명을
##공동
##ash
대신에
유출
친척
##소리
고려사
##있고
유지하고
자체는
자발
##터로
끝내
##ML
Sou
한국에
주장하고
참여하는
이곳에
샌프란시스코
##투를
분데스리가
나이트
자바
##으려
##악의
##ym
##공격
##판으로
105
시작해
계획은
야기
와카
##어에서
##복지
##지방법원
레코드
Will
강풍
그랜드
##체에서
나가사키
##ake
정말
##돌프
이에야
조약을
마르크스
호칭
##각형
142
폐지되었다
##스테이션
동굴
시작했으며
출처를
이의
정해
차기
##니에
##반의
그러므로
것인지
버리고
##미와
##조약
학생들이
가라
대외
##pr
##산에서
##조정
지역과
원내
##대상
##타와
##ble
세계적인
유니폼
그레고
말하며
좋겠습니다
##시다
원래의
제국이
##팀은
포함해
제약
축제
##set
##공학
그림을
이외에
막대한
여왕
##중에서
의지
친정
하야
##트랙
##플러
20일에
기록하는
개념은
운항
코리아
경부
3위
면역
흔들
들어가는
CPU
서서히
살던
요약
폭격
##기능
하나를
우루
최신
##린이
##강점
방법이다
값을
보잉
타워
세계에
136
14년
DJ
상임
황후
##ode
공룡
무신
예루
올바
지질
토막
##hel
##프로젝
71
##주쿠
##베이스
제18
부탁드립니다
91
##있으며
애플리케이션
님이
저택
##편으로
보내는
지대
##유키
11일에
라이프
##기관이다
거기에
경계를
스카이
일에
##인들에게
머리를
의뢰
적의
제도의
8개
기사를
내내
삼고
싶어
##통일
##보병
기록에
로부터
영광
##안으로
주문
디자이너
버지니아
플레
##비행
##론적
##uss
표현을
##uk
##등에
주파
진짜
##성한
5개의
Amer
매주
사토
초등
##져서
양키
##ii
##원숭
##신과
일제강점
김옥
열고
지표
##페이스
도쿄도
악화
해상에서
##아를
MC
면에서
무선
미분
보완
##화에서
순조
좋을
##편이
제목으로
사관
##현이
##중이다
##학교에
전투가
소속되어
전해진다
생기는
사용을
경기장
##oug
차단된
오키나와
2위를
에이스
##항은
원로
운동의
말고
명문
번호
분당
없으나
전에는
크림
##종이다
활동하는
획득하였다
5대
왜곡
위치하며
디아
하우스
##발의
제외하고는
다가
서남
트라
1913년
마라
이원
##민은
서재필
다큐
운반
현장
##교회의
##ade
참가하여
지배를
경북
##ank
조직을
일으키는
조사를
##보의
후보가
1세가
법학
부과
시점
왕립
진영
표명
##결을
개발된
않는다고
Gl
써서
오가
##정원
##심한
##임은
이후부터
프로그램의
서해
텍스트
흥선
연속으로
##조판서
리버풀
달린
선을
학명
##연이
##티스
##IM
마쓰다
맡았으며
##였기
##풍속
중심기압
각기
나갔다
머무
Vol
쇼군
##환의
지정되어
일어나자
시점에서
초점을
역사적으로
25일에
그녀를
성공적으로
조건으로
스틸
캐스팅
##ook
##해왔다
요청에
제공하고
스페셜
연고로
막내
며칠
모으
신장
통근
##노는
돌아오
최종적으로
1선의
관점에서
화면
##판에서
중심의
Am
갑작
중구
쿠바
##음에
이미지를
목격
대통령을
실험을
아파트
백과사전
예루살
노태
원형
후일
##oon
모양을
퍼시픽
Gu
융합
이건
주한
포인트
2세가
한쪽
시절에는
스마트폰
흐르는
##차별
국가에서
Eng
아들을
야당
##양의
127
##ins
자신에게
방송국
발생할
방식은
결혼을
이곳에서
비스
스트럼
발레
부흥
시켜
신하
역과
게임은
고려대학교
졸업하였다
자손
##가루
##편에
International
그다
벨라
##회담
문화체육
미나미
새누리
침몰
팀에
포괄
137
민주화
National
급진
메디
총선거
사용자에게
가요
상영
##금이
##업에
1909년
일시적으로
##TA
##적이었다
##지기도
보살
풀어
개혁을
뒤에는
##리라
사용하며
SP
풍부한
기생
주에서
네덜란드의
도메
##수사
##폭풍
##범죄
정부와
중심지
시대를
의병
##수인
쓴다
일도
##리시
##달라고
생각했다
참여하여
목숨을
교수로
중력
##있던
연방의
쓰지
언어를
올림
##기준
##우와
Ind
두번째
찾기
한국전쟁
기록하고
중심이
추가되었다
기각
남기
브로
##럼비아
강제로
평범
##기획
##인사
사용하기
가능하게
##chn
실시간
나오지
2부
나열
도구
없어서
기록하여
연세
112
사이가
메가
오세
것인데
착륙
##박스
##롤라
10대
건너가
마케도니아
Ne
관통
대서양
러브
주말
##스에게
##란의
당선되었다
내보
양도
회담
##스피
##앨범
##ley
가지게
군사적
DS
부드
##건은
##천을
형태가
Gen
단축
윤성현
##희는
기업의
티베트
콩고
##소송
기술이
이론은
MP
신용
주소
##곡은
##편을
제국은
1루
병력
이인
인텔
포함되었다
전체의
유튜브
김포
저널
##한테
사용이
공의
청동
##텔레
다음에
하였는데
끝나고
무죄
##지정
시스템의
다이아
IT
공직
봉사
수단
타카
할당
##로미터
##액을
뿐이다
이오
아우구
3회
내륙
좌파
중도
조선왕조
시라
이준
##코프
거주하는
We
교수는
이노
모두가
중국어
남기지
왕비
취약
##항으로
##붙여
30일에
Char
그리스어
엘리자베스
귀환
전라도
피신
##분야
늘어나
부른
중복
해임
어렵다
진정한
##리면서
##터와
##류와
##됐고
##긴다
교차로
마오
의장
##제품
##석기
##규칙
강희
##이즈
##여객
도시는
기자회
트레이드
비로
폐기
내외
부수
##니를
128
선교사
대답
왕으로
자식
편리
##ife
NHK
짓고
관리하고
중앙에
이듬해인
Qu
보상
빌헬
##센트
항공기
군대가
미카
##바이트
##켰다
##네의
##모로
##메르
##필드
활약하였다
뛰어나
경력
반환
얻기
푸른
##으로의
스토리
Bar
WW
자율
대회이다
보호를
하와이
같아
계몽
대주교
이영
플라스
환영
시즌의
걸어
잃은
편지를
전투에
1894년
투표를
군수
박탈
양식
현행
##권에서
1930년대
리드
외의
108
##ition
81
간다
시기의
예언
##온은
정보가
브라질의
대책
도심
서브
쉬운
##0m
##설이
지원한다
동남아시아
베타
실용
아가
##현은
16일에
제11
근처의
개관
메르
변수
이스트
##가에서
문제의
제19
초반에
직통
토마스
합법
##자였다
##님과
분야에
노르웨
CS
무라
무려
##올린
오빠
정도가
##대책
##무기
바꾸었다
성격이
임신
##진과
인구의
되었지만
##ution
세워졌다
거리가
로빈
북쪽에
전념
##진에
##억원
##때문에
방영된
##무가
##식품
##필요
##oly
und
도서관
한나라당
1층
두드러
##일과
필라델
득점을
복지
정렬
##치면서
##겼고
IM
박쥐
특유의
관련한
##대학원
보지
사카
투수가
##능력
경험이
한겨레
6개의
캠페
피고
##보에
##중심
수록된
물리학
모니
황제가
##대교
##더니
연구가
22일에
문화체육관광
쌓아
##유는
처음부터
제16
##ings
1915년
국가에
음반은
김구
날아
보다는
왕위를
##위대
##받을
프로그램은
출연한
형식의
세이부
한동안
되돌아
김수
백인
##스컵
자신과
중간에
알바니아
점이다
대신하여
곤충
긴테쓰
올리는
재무
추증
##IV
있어서는
스톤
##ott
##ific
지중해
권고
댄스
01
AD
요소를
리듬
##곡이
김용
싱어
##본은
##패로
프랑스에서
이어져
요구했다
결승전
메타
팀인
##증이
연구하는
100만
7개
AK
김씨
드림
##과도
리투아니아
끊임
전역
##tic
##바시
##것을
나아
스리
신속
10일에
조선인민
주장한
발견했다
응우
전인
##널드
차례로
4번째
땅에
체크
총괄
##자도
26일에
심판
##직한
인근에
전례
컨트롤
풀려
##의정
##재가
입단했다
링크를
##로동
##제국의
##명인
##업이
사고가
##번에
##것이
아이스
노력을
주장은
##시켰고
움직이는
김재
만났다
##23
연구는
지방에서
출신이다
##학자인
구름
이메
플루
##조와
##질로
연구소
1916년
지금도
아버지와
속도를
절차
조반
해군의
가수이다
외야
있으
##청에
##률을
##글라
분쟁이
화려한
공사가
##구요
##률이
111
사로잡
민속
법을
손상
의문
##que
##팩트
제200
일어날
관광객
근접
몰려
뿌리
스릴
시키
##우며
낳았다
신흥
장편
진출에
최소한
목사
몸에
무슬
발라
총의
##당하였다
대한민국은
제시한
에디
정교회
사용자토론
##연구원
Ag
두루
모형
하얀
##까지만
선수들이
과정에
##iew
FM
미토
세균
창시
채로
황해도
##카스
결과는
앨범은
차원에서
##형태
고도
앨런
언어로
지혜
팽창
현존하는
역에
정류
##수엘
##르와
113
감정을
왕족
지각
한미
##금으로
맞추어
메리
포털
##스티벌
임기
적색
코치로
##과이
일본을
1천
LC
트윈
2000년대
활동은
다큐멘
관해
클린
발견한
누르고
죄를
창건
비판했다
중화인민공화국의
##ower
부르며
프레임
고무
##대회에서
##테스
데뷔를
동구
협의
##port
##여래
##게이
##변을
10개
목표를
공학
공사를
공간의
위와
##히로
어려움을
보스니아
관장
구제
궁금
라트
비즈
수렴
통용
파란색
##하세요
출전해
만나게
Pa
받기
세로
역설
학부
##원들이
##닉스
과학기술
꿈을
맡았고
재산을
##동에서
##중에는
##플라
프랑스와
직접적으로
출시된
교외
전제
주도는
##타나
##재의
생각할
결과에
최대풍속
누르
토머스
##pen
않았기
마이너
감지
미스
본인
형식을
##클린
28일에
특징은
이벤트
내린
멸종
신한
후기의
102
17일에
그룹의
ab
하천
화살
##회장
##토스
##ery
분리되어
내야
전성
##쪽으로는
이루었다
가난한
사료
성질을
육성
진단
##ican
시나리오
##금융
##즈에
12일에
000명의
스파이
할아버지
에스파냐
Ass
밀양
##음의
##두는
선발로
선언했다
NC
겪었다
광해군
순천
체계를
##군사
##yp
##숙한
##받는다
한국에서는
21일에
민족주의
경향신문
숨겨
이틀
주제가
##석과
되었다가
아르메니아
공무
끝까지
넣었다
적어
채워
상태이다
거느리고
다니는
시즌에는
판결을
엔터테인먼
신임
제수
프랑스어
발견되는
가미
##량으로
독일에서
이상으로
알려지지
몬트리
영남
##준은
기존에
유니버
기체
신중
##스러
##사태
##고쿠
##번을
##짜리
건물을
##기관으로
바그
성은
재발
##호선의
사이버
수행하는
부사
남쪽에
쫓겨
##가스
##케이션
##임에도
이적했다
Har
각본을
쓰인
통화
##40
작품이
사망하고
어려움
둘러싸고
IR
김태
난징
매사
미얀
세미
이글
주어졌다
펜실
##선언
독일어
후쿠시마
끌려
자를
전선
제자
추상
##았습니다
##바야
##열차
성공한
담당하고
900
미노
27일에
##ther
전자기
마리오
오해
원산
##이면서
##마치
##오를
있었다는
활발한
동독
법원
##수수
##타임
진행된다
2007년에
정책과
##사령부
실질적인
new
단기
안산
##야가
##경으로
청와대
김상
사격
어휘
접수
힌두
##티는
2004년에
개막전
##관리청
벌어졌다
석탄
##af
시작된다
방식이다
권위
배틀
에릭
펼쳤다
3만
놓은
안보
타운
##속으로
##팀인
인정하지
강연
동년
전염
##음으로
##란다
설립하였다
당일
창업
최하
해명
히가시
##시타
1996
세계대
활약하고
확실히
분배
섬을
##포트
몬트리올
아리스
프랜
후한
##GB
##시에는
주장에
덴마크의
경비
군대는
비가
속도로
정찰
##산성
##진으로
##익을
##ward
##ese
조선에
물리적
사단법인이다
르네상
edit
발의
##음은
제작되었다
##red
구조로
열대폭풍
가사
오클
커피
평등
##수아
##리크
자격으로
무슬림
과의
보강
##번대
18일에
2005년에
원작으로
암컷
총대
##본이
바꾸어
갈색
미소
사사
##랑이
시작되어
##alk
영국은
대구광역시
중재위원
소재로
Res
힘든
전투는
도움으로
김옥균
2의
시즈
영역을
쿠르
##화학
리그에
빌헬름
외곽
충격을
##수로서
##씨와
##해지는
##블로
참가하고
건물이
##적이지
##군에서
차지한다
적합한
나이가
다음은
근거를
넘겨주기
Rec
난이
외래
위임
증기
차트에서
##매치
필요는
스트리트
민영
불필요
시칠
측면에서
투구
호조
##시부터
##추세
##주년을
trans
왕복
##정당
##크에
등장했다
신념
온도
일조
##서도
##경과
##곡으로
시즌이
아시카가
급제하여
프로토콜
브라우저
스릴러
가벼
남부의
우리의
죽이고
치열
화제가
##달아
##ral
사이에는
관리자의
##스테르
ISO
아트
##하였다는
##ates
사회에
봉해졌다
속도가
에스토
영어로
해운
호르
##렸으나
내용으로
구조의
리스트
수컷
정한
필름
##온의
##불교
##때로
일부로
제2대
베네수엘
다중계정
##서에서
연결된
추정되는
조금씩
몰래
무승
배를
##해진다
경기에서는
계획에
항공모
정의할
Korea
가다
문법
알라
엔진을
##스런
##간이
##ater
차지한
방식이
불리기도
사우디아
##위원장
##레의
##집니다
누구나
기아
제휴
중소
지식을
피에
##금의
판타지
밑에
밖의
여신
왕위에
##카타
대학에
마음이
꼬리
노비
디즈니
신비
123
되었을
이루어지고
내리
투수로
##카르
방송된
디젤
페루
##21
14일에
치료를
가마쿠라
옮기
전쟁으로
뒤집
용이
##적에
23일에
어려서
중의원
내고
무소
작센
춘추
##그로
사이클
제외하면
##금은
13일에
##ute
북쪽으로는
흰색
##해방
##겠네요
발매했다
구조는
아들이다
신청을
가짜
오오
옷을
추모
##황을
##매를
지역이다
빨간색
광범위한
김기
별칭
주시
직선
##세스
자본주의
TO
평생
##트르
##시민
실패했다
16년
입원
재능
이라며
곡으로
미치
스핀
염색
때문입니다
29일에
플레이스테이션
식별
진행된
사우디아라비아
복제
시기는
##합을
기록해
있었습니다
여기에는
프로젝트를
subset
기지
신생
파리에서
##산면
2인
관직
##목의
2006년에
동화
아나운
부품
##인들
##현을
차단이
프로그램이
기간을
comp
지냈으며
시드니
TH
국어
도카이
##방에서
##렸는데
1999
서쪽으로는
동래
때로는
무용
아비
장로
트럭
##타케
##함의
기간에
받았으나
행정구역
말기
반면에
용의
적혀
진나라
했을
##해주시
##코쿠
##셨으면
어려워
게이트
무상
즉각
##자원
##현악
##해온
때때로
성벽
여행을
일는
있으면서
재즈
학자
향한
##전선
설립했다
토막글
나올
단어를
##러가
##키와
##해양
##공이
##stit
남쪽으로는
AR
괴롭
병역
아세
줄여서
태양을
때려
소수의
승인을
여수
최후의
파운드
##재는
##쪽의
아버지를
후보를
파일을
뜻의
아폴
##TS
##어지는
##마리
권한이
118
아이를
개인적으로
불교의
도착한
어두운
참여하고
고려의
언급한
NA
바꾼
입체
##런스
결과적으로
동쪽으로는
III
의혹이
조별리그
주를
체류
측의
##위원회를
차량은
것에서
권장
줄기
평행
진출하였다
이래로
대회의
바에
부를
삶의
##버스터
##화하고
##마와
##길을
##돌이
##lex
차량이
sc
네이션
단위로
수습
절차를
축하
호수
##하실
##책임
##디스
음악가
성공적인
월드컵에서
달성했다
et
대상을
딸로
##주세요
##란트
##월드
10여
일본과
미스터
타원
##디의
##디에
##검찰
##밀리
후보에
No
군을
정부로부터
작품에
기상청
1의
고수
고분
일요일
학원
##미로
##판과
##셰비
위키프로젝
차량의
국가대표팀의
특이한
관습
극히
비극
길이가
me
바른
사르
액체
위기
##메라
이상한
기준이
##ange
필라델피아
광무
오렌
현의
##해주는
소속된
진출을
마음에
일렉
입장에서
홈구
##현에
FCC
7일에
공신
담긴
돌연
위기를
크기는
독립된
캘리포니아주
붙은
함으로써
##주식
##우드
##슬라
크리스토
그다지
빌리
세자
전년
전속
철학자
##너는
성공회
모르겠습니다
카이사
Dav
갈릴
거행
모은
재검
##할때
좋다
좌석
크리스티
##고등학교를
클래스
이바
정면
##하루
##츠와
다음의
연합뉴스
사천
타자
향후
##0명
##셔서
영화로
1920년대
경신
두어
리비아
물에
##시노
##바는
##way
##라이터
스타일
레이저
기타리스트
##민족행위
등이다
수평
신이
##석탑
##파인
##모와
제조업
만화가
영감을
있으니
##르를
관리하는
소유하고
시내버스
리가
지폐
##산리
배웠다
법인
식량
예전에
전진
##하였기
가능하며
##위원회에
승리한
4세
낙선
물어
불을
장치를
##반응
##님께
##냐는
스파르타
미주
부호
시초
트라이
폐위
기능은
sup
you
죽을
##커스
제기되었다
모방
새끼
오류
페어
힘입
##상으로는
##통의
##욕을
지역에서는
아니라는
않았으나
Her
끝났다
눈이
더이상
바위
지점
117
필요하다고
##eter
학교에서
건물로
종로구
SU
색을
진흥
##aj
##ull
2000년에
자세히
팔레스타
##국토관리청
조선왕조실록
3가지
남해
님의
캠퍼
##채를
##회의에서
확인되었다
이승만의
논의가
달이
드럼
시위를
예능
##hPa
##성이다
3일에
can
공립
요소가
집으로
포크
##사지
##작가
la
동명의
엄격한
정해진
##유적
과정은
##oss
관람
구출
부천
북부에
영동
주와
콘크
##구리
신설되었다
점에
쫓아
할머니
##air
115
##eng
대통령에
학교에
폴란드의
연세대학교
병행
Per
브라이언
상반
않다고
조달
##토시
##전기
##원이다
고양이
물러나
고성
공인
밴드의
안티
유언
106
제안을
FA컵
##전문학교
먹는다
문과에
선배
십자가
알렸다
에우
##교로
##망이
전쟁은
비슷하다
은퇴한
##공산당
백악
사육
점유
캄보
##자책
##보안
##준비
##란에
제1회
부동산
엄격
용어를
##미쓰
지구와
비판이
간단히
서사
쓰기
임상
준비를
피부
하버드
##ally
마케팅
5천
받기도
시그
열심
지고
투옥
##역사
##왔으며
##질은
##하였다가
사람과
이전부터
박영효
3칸
빠진
오디오
전당
천도
##소스
##온다
하나님의
형태는
마쓰다이라
이윤
##포구
##몬드
119
참가하는
##지방국토관리청
낮아
무실
품고
아마도
비즈니스
길게
위장
재활
전한다
코트
시작하였고
않았습니다
떨어지는
##추세츠
무의
존속
코무네
통행
this
Red
밀어
시집
쓰이고
왕실
제도가
진동
탈환
비슷하게
편입되었다
그럼에도
단종
언더
##이거나
##선이다
지적했다
분쟁을
2일에
견해를
곡이다
실린
장성
혐의
##산맥
##inc
##이었기
인정받아
언어의
설명하는
CF
관중
양반
##화하여
##지붕
##ve
##EM
##초의
##율은
라트비아
DC
농림
임용
##것도
##쟁이
모델을
가톨릭교회
Go
성폭
억압
전날
제독
##디가
##글로
자유로운
야간
추격
##HO
자신도
제목의
흥행
##버러
##pha
3할
미하
포로
##비뉴
##병의
109
사회를
이곳은
보여주었다
Dr
같네요
오타
이케
후궁
##행위를
##사령관
사간
제압
##애를
개발에
도요토미
하인리히
대거
명단
##라서
##미에
기록된
대학을
2008년에
않았다고
평범한
1집
김경
섭취
술탄
영상을
##야를
##났으며
##됐으며
디스플레이
##롤라이나
문화체육관광부
나이지
##0년경
도입되었다
5일에
격퇴
대피
매입
불이
시계
조병
##봉을
생성된
급격히
6일에
견제
구간의
일는다
자의
지정된
상징하는
9일에
것보다
교구
부부
부대를
##사랑
24일에
데이터베이스
아무도
3인
밝힌
활약했다
바꾸는
대관
도주
일체
테일러
경우에도
대학생
정신적
계정이
응시
조광
##타리오
##rit
##바흐
##변이
노동조합
차량을
건축물이다
강도
교도
심의
아인
정사
한명
##자면
##urn
국방부
오리콘
카자흐
모친
무거운
##키를
방영되었다
웨일스
개그
관리를
넣은
두는
주립
##란은
##더군요
##ene
동물의
리메이
##곡의
적극적인
토너먼트
##코와
그리스도의
##바이러스
독립운동가
남부에
신호를
예배
주류
토요일
##주기
편집이
##ember
FCC200
동국
##일체
자유주의
1898년
2003년에
하드웨어
갈아
에버
이식
##네는
##항에
의견에
당대
생략
유교
의회는
##문에서
개념이
설명을
쓰시마
인격
장려
##터미널
오프닝
이경
이내
##uch
##풍을
te
기습
넘어가
밑에서
축출
회의를
기록했고
Press
Nor
다를
수술을
적고
직전에
군은
대두
물건
분들이
실려
결정적인
달러를
RNA
붙인
해를
##연은
##되지는
존재하며
CE
치명
##우지
##십자
##운동에
이루어지지
광산
보일
산타
선수를
##uth
감행
강이
쇼핑
##we
##any
생각한다
8일에
구동
말하면
에티오
##스부르크
##열이
1884년
##보통학교
1개의
벌인
요르
##벤처
피해가
구이
배구
브래
생겼다
와중에
우울
##증으로
104
들어갔
있었을
위키백과가
지방을
5만
ne
교수가
요괴
종족
##과로
##전투
##inal
의혹을
NBA
목조
##턴은
19일에
사이드
##ital
한성부
HT
시흥
오고
이어진
진도
##파크
##작의
##약성
사용될
##스트는
토론에서
100m
주오
회사는
출신인
남아있다
1명
딸인
어렸을
위탁
##80
##층이
시작하는
공격에
따뜻
로저
봉건
상상
유가
##PG
##시키며
inf
페스티벌
오스트리아의
오스트레일리아의
##ize
EC
pp
대치
피어
##색은
##마사
int
인정하고
힘입어
본명
시로
양이
우주의
정권의
##자리를
##목적
들어갈
담겨
수치
패한
##악한
##측에
##예를
출전한
##지역의
공모
공채
발을
전한
첨가
컬러
현저
후안
같은데
##라이트
부분의
공간이
국정원
백과사
곤란
군단
리얼
바실
옹립
요크
##통이
##순위
난민
동치
빌려
##프에
##식물
구조가
마을의
냉각
성사
않으
오라
자금을
컴파
평창
##DP
##생산
##oup
결정되었다
요청이
등용
##카를
##중국
교육과
건물의
꼭짓
성주
이반
작고
합계
했습니다
허리케
##시까지
##란히
2020
사례가
금메달
대법원
사자
##인들과
##sk
##슨과
영화에
중추원
진정
감독과
시설을
여름에
달러의
펜실베이
서쪽에
태극
환원
##이었다고
전체가
활약한
여기에서
서초
조정에
##감한
2009년에
http
그중
유학을
##음과
##올로
##감과
경찰에
비례대표
System
넣고
노선의
시외
왕세
전도
좌표
코어
##rid
대전이
경찰은
실패하였다
삼국지
간토
서경
순수한
설치류의
진출했다
음식을
일하는
##다리
##목은
비주
아서
추출
카탈
성공하였다
가리키
움직임
별의
자제
상태였다
아버지인
요구를
내정
본부
소실
여진
키프로
##ler
사용자들의
정도이다
##app
내무
반공
부의
승계
전세
회사가
##해는
유니폴
루스
승리로
칭호를
팀으로
##IP
##나가는
##위원으로
##irst
내부에
다리를
시골
지점에
국가로
##스포츠
이진
출토
1897년
파이터
2주
애틀
어른
차가
##대왕
하나이며
확실한
구리
배려
순회
##자이며
##이사
##전도
의미의
다이어
저명성
만의
실력
존경
##60
##목이
##희의
1997
##igma
지나면서
지휘하는
신조
##래스카
아이슬
비용을
ID
나가는
상원
소총
입각
##자들에
이루어지는
매사추세츠
2명
3위를
여성이
중일
카롤
나타낼
싱어송
결코
투르크
##사이드
##실험
프로리그
찾아볼
이르렀
Pe
결론
기점으로
부서
재혼
통틀
행사를
시절의
국무총리
4일에
동학
제갈
진군
##제이
##말에
##환이
선수는
트랜스
ML
times
응원
주도로
##OL
##ily
2002년에
간호
동음
유년
##톨레
##그리
테이블
res
북부의
얻고
퇴각
##ald
Cor
수색
지키는
평면
##어이다
##하기는
미국에서는
이해할
1개월
국군
알코
인문
치고
##제프
##무스
##채널
기반의
소설을
딸을
안장
앞면
태평
##지대
지방자치
유지하는
Mon
기갑
노리
신탁
##내어
Rev
Je
성취
씨의
잃어버
춘천
##피는
제품을
##ega
스탈린
5세
라스
온갖
중에서는
직결
초록
피에르
휴스턴
##렸지만
##훼손
##길이
것으로서
스타리그
남아있는
섬유
의식을
이관
주차
틀은
##지나
결성된
이가
자칭
전압
조상
##라미
논란을
바티칸
4위
반해
안되는
##팀의
##ative
경상도
그쳤다
때인
지어졌다
##치료
12개
개발되었다
최근의
고구려의
뜻이
문명
최적
행성의
##는지는
##라기
##비나
##영과
##런트
생각된다
2010년에
이야기는
유래한
부유한
신천
이남
장거리
##원들은
##24
##즈카
##더는
운동은
나라에서
자연스럽게
방문한
명백한
A매치
우편
돌아갔다
움직임을
되도록
선구
##왔던
##올림픽
##푸르트
영향력
설치하고
1시간
규정에
총칭
회색
##아야
##외선
결정하였다
수도인
관직을
높고
잡은
##물질
##택을
선보였다
올바른
다크
시장에
##MA
##결정
김홍
숭배
##층석탑
슬로베
펜실베이니아
4차
김진
믿고
비유
철회
초과
태그
개인정보
사고를
보여주고
나폴리
양주
최연
##드라마
전투기
블라디미르
분광
쓰였다
엔지
##sc
##나갔다
##빌딩
배치되어
게이지
일했다
헤드
1995
134
건설을
않아서
비밀리에
IBM
불어
수양
최악의
평택
회사를
수록곡
아이슬란드
3명의
논문을
반지
좌절
주행
초월
##가고
##브리지
##베트남
##량에
사용자에
경제학
사망하자
분류된다
Min
공전
오하이
##아키
##시게
출전하였다
시스템이
물질을
갈등을
깨달
연쇄
합작
121
형태이다
아래로
메시지를
우즈
초보
선수들을
극장판
##지방국토관리청공고
고소
몬스터
주위
##sch
##박한
##법상
##변에
##것은
133
규모로
##교육을
열심히
게오
규정을
말기에
읽는
채무
##화이다
기술의
감리
계절
명에
부대는
원을
철도의
##제학
대통령과
Mc
tr
되지만
작위를
##도어
##턴의
부분에서
William
5번
검사를
돌입
발급
비단
소지
입자
조언
협정
##양은
##형이다
한다면
중심지는
이승만은
성모
##티에
##MS
1998
This
글자
비오
종착
지옥
하차
##태평양
주장하며
기준에
음반을
##ount
친일파
##정책을
3차원
적지
홍문관
##sp
##권도
##idae
야마토
집안의
나눈
선사
1500
1899년
스스로를
명확한
동쪽에
봉쇄
있거나
학문을
##마르크
##예프
##층을
129
게르만
떠올
발원
배신
유죄
협상을
국가는
##urg
즉위한
디자인을
불가능한
결론을
남원
베니
인생
##버린
##자리에
##르지
학교의
기간이
카를로
인접한
강과
선과
이리
토트
##아파
대전광역시
먹고
선이
원리
중기의
폭로
서유럽
이룬
이산화
해소
회고
자료가
사태가
가동
사전에
관련해
##기관의
일종으로
SD
par
시종
자문
장의
지주
질문에
##르며
##것으로
##워서
##름은
##ett
선거구이다
북쪽의
##슈타인
밀접한
2천
관념
산소
상경
예선에서
올리고
인플
피하기
##티의
##아리
##경영
##장치
##측은
##척의
존재가
마을을
3으로
강행
군에
만남
설탕
오바
증손
파이어
호위
000만
2001년에
자치구
제주특별자치
CON
그날
단단
만나는
모하
생겼
야생
업적을
왕은
이산
##지휘
사용하면
독립적인
환경을
환경에서
사원
일컬
##체제
##평군
생각됩니다
독일과
제국을
환경에
##ike
EU
루이지
실력을
취재
회계
##온이
그러자
##hem
하나였다
진행되고
구마모토
아바
은메달을
이규
제재
카드를
표방
##림이
##ited
중국과
진행하는
시간은
##irc
작곡한
리메이크
AN
네오
동참
발트
본거
세대
센다이
제의
##내며
이름인
기록하면서
##rop
##위원회에서
SA
연금
천재
##두에
대한민국에
360
가고시마
Ac
기회가
마녀
연령
전동
추첨
치렀
칼리지
토마
한계
향하는
##학위를
##허가
거기서
없던
읽고
저명한
트레
##스트의
조선로동
##국제공항
he
의회의
중기
##ience
##품으로
##희가
1901년
유로파
답변을
드라이버
Part
곡의
교리
버려
온타리오
##사고
##변의
출신이며
To
국소
동조
동메달을
스쿨
장학
주니치
카나
##철의
##주어
ABC
세상에
존재하고
바이오
민족의
국내외
그래도
위험한
다케다
김창
주체
107
가지며
비판하였다
비난을
공로로
마루
매달
하셨
학위
##비서
##협의회
##점이다
##구성
스튜어
군대의
대가
상소를
우호
함유
미국을
김현
사쿠라
상응
왕을
타당
##마로
존재했던
변경하였다
실패로
자리잡고
공익
노란색
단어는
던져
않으나
용도로
침투
##포의
##OD
다음해
어머니가
2호
라우
으로서
의원을
##자금
##감에
한국은
사이타마
서식한다
Euro
경연
맞은
매카
우정
조리
표를
##방위
사건이다
역사의
결정하는
이론의
기독교의
지휘관
공고
부당
상처
성당
알지
##자연
##lo
##츠가
##뱅크
20여
126
위원장
엘리베이
다큐멘터리
1라운드
느을
레전
사범
아벨
전세계
표기는
한인
##작전
존재할
일으킬
WWE
##행의
운행한다
모델이다
선언하였다
So
무기를
소모
승무원
정하는
하겠습니다
협약
##레를
##펜하
1903년
정책은
##문화유산
어머니의
CN
CR
Trans
리틀
마쳤다
어항
##티모
##학원
##일으
##토와
##포는
124
역사에
과거에는
제주도
정상적인
공화당
싱어송라이터
손해
평일
해인
아무리
증거가
##박물관
History
동음이의
1번째
모인
몸이
원수
효종
##포가
##네스코
##널티
생산하는
오렌지
물고
병으로
청원
##제한
##ww
독일이
로맨스
총대주교
구단의
궁극
디비전
폭행
##참모
표현이
##프로그램
##earch
시칠리아
각자
개교
교역
대북
시공
유학생
##아와
##석에서
##군이다
##심에서
##국장
대한민국과
000여
노면
##방으로
##플렉
도입된
보도했다
아미노
Cont
Mod
##러의
게임이
##들과는
전통을
##ograph
페르디
1기
극동
동명
안쪽
얻지
오를
지위
철도가
터뜨
##금지
##멘트
정부에서
선거구
모델은
우라늄
del
니가타
때가
시바
정밀
중형
허정
호의
경기장이다
대응하는
Kn
섬으로
신축
직면
##자스
##내셔널
전체에
특징이
광둥
명사
미즈
안드레
잃었다
줄어
##타니
##론에서
##로부터의
추가하였습니다
언론에
실질적으로
성분
신시
아야
장군의
진급
##관련
##ane
열차의
변화에
밝히고
여지가
의결
##사업을
중국에
전반에
둥근
업체
영등
외에는
일제의
무시하고
사인
사정
장면을
호출
##량과
##SP
계속되었다
중요하다
##과학기술
에스토니아
18년
Pol
상해
수련
없었기
원나라
잡았다
##시즘
드러났다
1군에
압력을
약화
##법이다
포르투갈의
##교통부
제노
하라
##속을
경기로
나가노
해결하기
관할한다
경사
만일
백제의
볼리
오지
점프
##반에
##검사
이후로는
##ular
1999년에
세력의
불러일으
미루
스폰
##거는
##작이
교황의
##rib
소송을
공감
등지에서
정작
##철은
##위해
##amm
의미에서
상태의
2집
불확
불리고
상트
실망
측에
##지능
시즌에서
정치를
방송되었다
##ety
고려하여
##formation
구릉
놀이
도카이도
마약
성서
##자본
세월호
KIA
감안
불명
속하며
##인한
##교에
부분으로
음악의
we
말의
상행
하마
##기독교
##내지
한국시리즈
se
내전
뒷받침
마스
별개의
재미
행위는
##카라
##ator
사람도
설립되었으며
대회에서는
인터페이스
상용
약물
##불교의
##당하는
##누엘
작성된
사항을
아스널
Phil
흥선대원
뉴저
뜨거운
밤에
양국
엔딩
유네스코
##기나
##결과
##황이
##ision
나오고
400m
qu
바빌
보류
시레이션
제트
중대한
취하고
카스티
##아메리카
##서비스
##학적으로
##견이
##꼬리
일본국
영화제
프로젝트의
통일신
페르난
17년
가량
##아들
##전사
##차와
올라간다
체포되어
이집트의
닌텐도
가벼운
고백
대화를
로즈
만세
소말
유동
종의
주자
##버리
##전인
준우승을
관직에
사면
알제
##해와
##총장
##있었다
들어간다
이범
인데
탐지
##준의
부분적으로
외교관
##테르부르크
Can
니혼
지능
폭풍
행위가
##테이션
과정이
이해가
25년
비평
안으로
코드를
##서울
축구를
##들에게는
표현하는
서인
틀이
##레아
##ner
##IG
Mag
기숙
##라리
##살의
대통령으로
남쪽의
야쿠르트
곡이
별명을
보게
부가
이닝
자국
총리가
##바닥
##림의
관리자는
이르고
창원시
오하이오
per
낭만
본인은
트루
##왕과
der
뒤에도
듀얼
방침
##에다
##철도의
아래에서
취임하였다
##ield
공부를
시기를
임관
재능을
키워
##브의
##노가
##링을
##커니즘
아래와
##erson
가면라이더
성리
얻는다
##방은
##추는
200m
결정한다
헌법재판
인근의
중반에
Park
아케이드
넣는
다룬다
천거
타격을
프톨레
##표가
##팀을
자신들이
플레이어가
얼굴을
Geor
GS
레바
마닐
케네
플레이어는
사헌부
9시
##거리를
##품이
실시한
1대
SE
개인이
관해서는
알루미
연봉
코난
합창
황제로
##무역
##먼은
공격하는
##angu
고등학교를
근처에서
뿐입니다
이북
이처럼
폭스
##우기
##신도
보고서
받았지만
가져왔다
중독
채권
##스기
##ream
부적절한
그저
앞의
전격
##블리
기술은
인물의
마이크
대문
선종
연상
왜냐
##주지
##PC
##보건
되어야
우승하였다
진출한
정신을
프랑크푸르트
기름
범위를
성씨
원인은
테니스
##당인
안드로이드
2명의
과반
등에게
인상을
132
결정된다
개인적
슬로바키아
캄보디아
관현악
무궁
발동
온천
자택
책의
##시나
##러스트
##루와
프랑스에
점령한
왕국을
거북
##오리
##액의
##너의
##코드
##단지
거제
문자를
칼럼
##aus
에서도
이용한다
1902년
공개했다
아틀레
대명
배후
알리는
##년의
##츠키
##축을
##ouse
##ould
정치적인
운영을
시대부터
실패한
평안남도
선행
완화
않아도
삼국사기
BS
상세
섬에서
용병
일이다
주가
진공
컬럼비아
협조
##캐롤라이나
##하기가
##amma
##시키지
의미는
월드컵에
블랙홀
논쟁이
잠수함
8개의
www
선물
팀에서
##작은
##겠죠
리그를
바이올린
Wikip
가리지
레논
만드
숙청
아기
원인을
충실
##da
사랑의
green
마블
종속
커널
해의
##가들은
##설에
그러던
필요성을
공격하여
작업에
김원
송나라
정도를
##히메
##잡이
##운다
##운트
##eck
역임한
혼란을
공민왕
최상위
거울
나름
놓았다
유진
일대에
입수
##대군
##거진
동안의
개발이
발매하였다
모델이
기초로
아이디얼
School
내리는
맞붙
맥스
비평가
사살
소니
송진
##일드
##릴라
122
기본으로
물질의
벼슬을
말하였다
##협력
##lin
##min
##ana
경기의
나섰
대마
매출
재현
중장
처녀
플랑
##태후
##등으로
##커는
정치에
소속이다
노래는
요시노
차례의
part
규탄
메뉴
문하
석가
수면
이방
패전
##에너
##m2
##간은
##르노
되어서
보내고
조건이
베트남의
위협을
##사우루스
가신
교전
난카이
모의
앙리
##지는데
##마일
앨범의
승강장은
David
많습니다
목적이
삼촌
선비
아부
와의
윤휴
이이
##ael
##책으로
##wo
##럭시
시리즈에서
행동이
시설이
파이널
서식하는
통틀어
띄어
술을
주제를
증권
##아프리카
##왕후의
##판에서는
##각이
##품의
##감으로
설치한
추가적인
조약에
Cal
가네
도는
둘은
서적
신정
오노
중대
##eq
##일기
##거리는
동일하게
고유의
방치
역까지
환자
##매매
##회의를
31일에
3층
LA
노조
띠고
장관을
주사
패키
##으려고
##der
##집이
되었던
수준으로
가람
고쿠
남기고
신선
##하우스
##화점
##류이다
바꾸고
comm
대웅
딸이다
링컨
씨가
클라이
##자고
##분석
##환은
통합하여
역임하고
##uck
몸무
발각
칭찬
키가
##항이
##열의
결혼했다
알루미늄
5번째
7개의
NG
One
마츠
밴드는
조명
하원
##학이
프랑수아
교육의
국민당
제네바
나이지리아
곳의
김병
동인
쌍둥이
토니
##so
행동에
##바이잔
검출
빈번
선로
이데
크기를
필사
##인권
이론에
트리플
프톨레마이
Cr
감금
손으로
없으면
이완
하행
##로우
##라에서
지침을
3세는
관인
이병
##86
발생하여
관계없이
명확히
나지
동행
성장을
안타를
지형
하남
##스틴
##청에서
##당해
##친구
##led
요리토
고통을
떠오
로이
세속
서울대
개발하고
평안북도
American
right
도마
산요
없었
예고
일리노
정유
충주
##협의
##무로
##vent
지역구
진행되는
거주하고
가정에서
##지부
가지가
Stud
주민들이
은퇴를
##제르바이잔
구의
막는
북방
승점
입성
진실
태자
##차량
15세기
받아야
결혼하였다
Ber
남겼
메소
뽑아
설도
원더
지나는
치안
효소
##연속
##산동
정치가
전체적인
인정하는
all
견인
루터
벌금
본사는
부합
일대를
편에
##쥐과에
참여할
대신해
5000
것임을
군대에
디오
이현
즈음
##프라이
##모에
참여를
실시되었다
지구에서
맞고
원조
정몽
지도를
포병
하우
현금
##yr
##결합
2012년에
학생들의
JT
공약
발령
언니
표지
##달라는
##du
사회에서
##eta
프로그램에
광주광역시
수장
유벤
최후
##na
##도비
##웠고
이용해서
해당되는
마을에서
거부하고
나머지는
동생인
고체
따른다
전력을
##니시
##한이
##톤의
자체의
목표는
세력은
친일반
게이오
대행
살았던
애비뉴
폭넓
프레스
흔한
##술의
##초를
쿠데타
공표
높게
부지
앞장
한사람
##ari
새로이
리더십
미시시피
will
마시
불쾌
오피스
저의
처리를
##아나
##버렸다
##Hz
##가지의
승부차
끊임없이
개헌
무대를
시는
양식을
제사
##도리
##민을
##평화
시간대
자체에
열차를
로베르
바오로
상인
소문이
용어로
##치에서
##열에
수도원
조직이
평균자책
고향인
우려가
##케이팅
At
불참
사서
연기를
장군이
저기압
탐색
##팀에
시작하면서
방문하여
보유한
Act
만났
육군의
할리우
##개국
되어있다
중앙일보
인간을
사업에
가이드
궁정
사슬
슈트
##레타
##3명
##두로
점령하고
목록에
Robert
플라스틱
교회를
수에
아제르바이잔
하에서
##기기
진행하고
##rain
사랑하는
Int
규칙을
아리스토
많으며
축적
하트
##법에서
##있게
3세의
kg
글리
세금
##사나
##파이어
##훈은
같은해
##운동의
##ript
삼각형
추기경
Sm
대가로
동대문
따온
무작
승리에
영유
코스타
헤라
##연방
##관계가
토론은
패배를
간선
그랜
모호
바퀴
호응
##나우
도시철도
이탈리아에서
노트
조봉
해밀
##업은
##라이어
그려진
York
수학자
오쿠
입헌
정무
질문을
히타
##oot
##직의
##값을
##주의가
Spec
동영상
값이
공백
기저
방면으로
시장을
협동
확신
##발이
##급을
도시가
역사적인
아닌가
실시하고
내려가
획득한
장기간
상관없이
Colle
카자흐스탄
등극
수차례
하도록
##였을
##벌레
1분
가죽
깨닫
미션
병원에
사바
제곱
태도
##통제
##밀히
대학교에
불리게
##ection
##해주세요
Sk
가맹
단계에서
담배
드문
아크
중점을
카타
카디
완벽한
EX
골프
볼셰비
비영
수단으로
시와
아타
안테
##현과
##족에
소설가
##우주연
##ublic
ed
광저우
기기
김정은
면이
애초에
##우회
##테스트
##번으로
사건과
##ters
##하시면
목소리를
2개월
로열
물건을
발칸
속으로
징병
##ilver
100여
FC의
싱글이다
불가능하다
죽음의
up
리치
빛이
손가락
수동
실전
##서기
##32
##린지
없다면
런던에서
에티오피아
CH
부작용
세가
요즘
집어
##혹한
19년
114
아이치
런던의
아일랜드의
분포한다
극대
로도
마천
봉안
신부
쓰레
죽이
피핀
한층
호평을
##gan
##크에서
##궁의
싱글로
후임으로
Sec
심리학
전하는
조조
트래
##학부
##계약을
종교의
개념으로
CJ
경로
미시간
밀집
여기는
주의를
차원
##세력
##츠를
##EG
헝가리의
과도한
Er
was
상수
시정
영지
##테면
##능한
##항의
등장인
등장하였다
1885년
복귀하였다
시험을
종류가
PR
두개
드리
파벌
##본으로
##하와
##되므로
##디언
것이므로
러시아는
중단되었다
타이틀곡
길고
총리는
테레
파스
##IL
수상한
방패
보성
사절
안에는
팀과
##박사
대표는
분류는
가져온
주목할
부근에
울산광역시
알코올
상트페
문예
총의를
##맥스
게임으로
대회가
임명된
실시했다
애틀랜
기사가
때에도
성능을
안녕
잡혀
집계
##yd
##커가
지정하여
올림픽의
사라졌다
근무했다
트럼프
되던
쇼트
열매
즐겨
창의
##심으로
##설은
##각의
프로레
설치하여
않았다는
3000
갈등이
비로소
시직
제치고
초빙
충남
포수
함대
후배
##교수
##창을
##들여
표현은
나라가
작업이
무지
분화
스티브
시베리아
자회사
##효소
마을에
새겨져
어드벤처
##버스터미널
친일반민족행위
단어가
이회
일괄
전역에
피로
##루션
##률은
분류를
그래프
##선거구
기초를
스피드
레인저
##ough
3명
디자
말부터
석조
애덤
하니
##터에서
시즌은
발견하였다
##ages
##angle
일어나고
니콜라
드래프트에서
왜냐하면
Mich
군정
발현
버전의
순으로
출가
##서원
경기도의
복귀했다
Mat
기증
끝날
싸움을
암흑
염려
정권이
##1호
##27
##즈에서
##운을
이를테면
설명하고
경계로
난을
낳은
시코쿠
없으므로
진해
필요할
조직에
상황은
그렇지만
##over
드라이브
위키프로젝트
규격
세상
위헌
요미우
레바논
GP
국적
숫자는
##과정을
##고래
##있지
감독이다
의견은
Reg
미래의
미군정
글루
맞대
번에
서대문
소셜
장면이
집결
티켓
페널티
하부
하치
##들었다
##준이
##돌을
##락이
##커의
경찰의
상트페테르부르크
IN
개가
규범
더글
리만
방안을
신주쿠
의무를
##근이
공격해
공격했다
보호하기
노선이다
제목을
명예의
아름다
장남으로
세비
업그
재편
지쿠
차이로
##ien
##정신
##중은
20대
국제적
아시안컵
체코슬로
상기
유권
자랐다
제도는
##좌상
##안에서
##왕에
국제적인
매니저
겪고
글은
다항
대역
업로드
청주시
허브
##전까지
##하더라도
##우스가
##봉사
##근의
##ke
##극장
##이라며
제작을
문화가
정책의
크리스마스
출발하여
##ization
분위기를
강남구
어항이다
것일
경에
끝이
네팔
아날
이씨
캠퍼스
통영
##교와
##직할
##골로
##코를
프랑스가
선출된
THE
조봉암
검거
옥스
우회
카스
##티즌
시리즈를
운행하고
등판해
발렌시아
르네상스
검정
나루
다름
당원
맺은
버전은
어찌
편이
##자라고
##도이다
##US
##황제
##위원을
노르웨이의
생체
이내에
저렴
판사
##조부
우승한
경쟁을
넘게
보시면
성명
에밀
잇따
잭슨
##르에서
서울로
정치적으로
2011년에
제안했다
구분된다
1위에
나갔
날카
면허
##ied
##신경
##양함
##오나
##당하여
##공은
사이토
노선으로
천문학
다니엘
소행성
피트
##타스
##mega
선수들의
그룹이다
독자적으로
담아
라파
믿는
박지
스케이팅
진지
환상
횡단
##TP
##공무원
선거가
1883년
##하겠다
subseteq
2기
SL
강서
마린
면서
센고쿠
안창
책이다
항소
##르에
##모니
##병에
설명할
3천
4명의
구할
논의를
병을
지극
호세
##리조
##세다
##록을
지구를
1871년
목록을
리우
씨는
원천
이장
이태
입을
총의가
토지를
헤어
##만원
##으로부터의
특징으로
데스
오로지
조정의
학자들은
##전이다
##부상
게임에서
모양이
frac
CM
내걸
바나
배상
버렸다
화를
##진보
##5호로
아이피
진행했다
인터페이
정서
##함마
##막을
##ility
FC로
Life
서머
이어진다
잔류
케임
패널
##손으로
##구나
##네가
##즈로
선수의
경상남도의
제3차
Art
페이스북
새누리당
광장
국회에서
기회
문단
민병
박스
산림
수확
신동
컴백
터치
편지
##렸다고
##ara
으로부터
공격으로
체포되었다
물러났다
부문에서
지냈고
각지에서
날에
송신
위주로
윤리
차이는
##ient
##되도록
활동하던
후보는
않을까
3부
A의
나주
모자
보드
서민
우측
장덕
혁명의
##쳤으며
말씀드
남동쪽
오프라인
전신인
가의
것들이
나란히
실존
제사를
줄여
직장
희극
##만과
##터널
영국에
자유당
중요성을
제국에
회사이다
##berg
핀란드의
색이
##제도를
##고와
##구르
##투자
이루며
스트리
작용을
취임했다
당하고
받으면서
북위
불꽃
심하게
유연
판정
편향
피의
환자의
##물인
##나고
##디나
라이언
훼손을
바르샤
균형
성별
스즈키
얼음
##나리
##EL
##녀를
배우로
외국어
Day
##인명
##rm
##미즈
##con
##강에
##았다고
경제의
가까워
##그라드
다운로드
3분의
경시
내부에서
부설
소리가
충성
##헤이
시즌부터
앨범이다
경찰이
금성
대안
카리브
한큐
##순위로
2차전
초창기
디렉
보복
브로드
상류
수필
싸우는
애칭
##직으로
요청했다
##ever
하느님의
레전드
과연
슈팅
일삼
일대의
##계에서는
##IR
##받게
해당된다
1997년에
제목은
증거를
가나가와
쓰여진
처분을
척추
투명
10시
언어는
실패하고
프로젝트는
주인공으로
국왕의
콘스탄티노폴리스
4회
8시
뛰었다
예수의
##만으로는
##omys
##대학교의
붙여진
커뮤니케이션
문인
아담
정하고
##말라
##레이터
도착했다
치러진
2억
나중에는
대부
중산
집착
한해
##그레
##약한
대표적
정당한
야마구치
GN
dots
자오
##표는
시작하였으며
문제와
나라에
Star
수수께
일리노이
gr
받침
사하
순교
연수
팔라
##B48
##운의
후지와라노
걸린
국보
반정부
부각
연평
점검
##재단
##쿠니
서울의
연결되는
수행할
1년간
향토문화유산
극심한
넷째
비방
스칼
시트
정립
제프
주위를
표면에
##철이
##ck
가지의
대표적으로
승강장이
미얀마
2칸
데스크
막부의
민사
안성
##협회는
정보는
모습은
High
닫힌
사모
온건
해수
##여성
##종과
다양하다
담당했다
회사인
클라우드
아폴로
Des
Mic
달라고
사위
찍은
토르
토끼
##에의
##정권
##형제
시리즈는
FC와의
고시엔
가리는
단체의
무료로
물고기
일하고
차출
초신
하락
##전부터
##MC
##링은
위치하는
스위스의
편곡
건물이다
1998년에
교향곡
가려
늦게
소매
아레나
작아
##야와
##업의
##캐슬
##학교에서
승격되었다
지키고
Black
Ev
극우
나은
마땅
먹을
않자
집회
Inter
##아버지
아르헨티나의
CO
글래
기리기
다듬
배가
수령
않다는
저질
전무
하신
##아일랜드
##되어서
한국철도
서울중앙
영향이
시간의
##umb
연합군의
멕시코의
니콜라이
##도서관
ind
단절
민정
수시로
신입
출석
##고리
##렸습니다
##ino
방법에
음반의
##박물관에
##게이머
조선로동당
Ger
경희
신민
신형
제도에
주제에
태백
##미한
##직은
##ony
설명했다
떨어뜨
친구인
인공지능
모니터
Of
드는
마다
백색
보헤
허가를
힘으로
##행동
##어요
##생명
##컨대
고려시대의
24시간
담당한다
원칙을
원칙적으로
NASA
일간
타협
통보
##로이
##CC
##집행
이름에서
1995년에
국가대표팀에
성격의
북동쪽
수수께끼
9개
감싸
구장
소금
##방울
한국과
알려지게
시대가
인간은
##iki
되돌려
##검찰청
공천
길에
내에서는
많지
선은
시에서
준수
처분
출산
합친
히사
##본의
##6명
##네시
중국은
형성한다
무렵에
북아프리카
머물렀다
함경남도
다나카
마인
마하
어뢰
포장
##거리가
대표가
결혼하여
피해자
##시즌을
단독으로
각지의
간략
년에
달고
대대로
맺어
산출
선도
점수를
파동
파리의
##메다
방송이
시스템에
동일하다
무엇이
미네소
애매
인명
인류의
##리던
##이한
##정리
##나로
##ely
이전까지
페르디난
2라운드
반도의
부대가
양자로
전했다
카트
##ha
##집에
계약이
도입하였다
가상의
고사
고령
맞춤
사쓰
상장
수료
장비를
해고
##았기
##차이나
##두를
승강장을
##ows
방사성
Center
콜로라도
명성황후
fl
기단
네티즌
등번호
말까지
무대로
배속
불린
삭제를
시장에서
이소
##연수
##승지
##푸아
역사에서
효과적으로
##지역에
Paul
김유
정도는
##레스의
##덕션
##소득
##채가
18세
이름과
제한을
주민들은
대대적인
5위
Don
기해
다저
조국
진사
##SS
4월부터
공개한
아날로그
만료
명목
주위에
측에서
펠리
평정
화석
##액은
나타낸
되었습니다
비판하는
미사일을
모욕
부재
작년
전지
점거
호크
##OT
소련은
헌법을
엔진은
Wikipedia
소통
요동
워터
있듯이
정인
피겨
##4명
공격수
정책이
유사하다
광명
만성
시도를
아랫
추종
카카
##연료
##원인
##벌을
독일인
중앙위원회
소비자
비행기
경향을
6시
고치
말미
목을
여학생
연인
충전
##도바
##시한
##UR
##FM
##귀한
중국을
하였지만
원칙에
터키의
약속을
미야기
갈수록
고래
리오
브란
아라비아
옮긴
자민
페리
하이드
헌병
효고
13세기
연구와
게임에
자유의
기술적
중요하게
건설되었다
종교개혁
이곳을
추측된다
뜻은
반포
유의
증후
##는가
##전차
##반이
##번지
##융합
요구하였다
기여하였다
FC에서
관할했다
아키타
엔지니어
낙동
방화
유포
##증은
개념이다
가문은
임정
차체
협력을
##순환
구성되었다
결정에
##운동이
지구에
기업이다
광해
무명
봉기
어떨
옆면
입국
##por
##MI
##증의
##년간
##번이
##ini
116
음악에
##시켰으며
둘러싸여
압도적인
Del
pre
갖지
국유
뒤이어
듣지
목성
벌여
조르
휘말
휴식
##A는
##당한다
##각은
스페이스
##empl
##ourn
메커니즘
이차
조립
좌측
충렬
##사회의
##이니
##분과
##불을
##였다는
프로게이머
1996년에
의원의
피츠
회부
##야만
##화물
##군단
##its
민간인
스카우
LED
Ver
개를
공손
매체
면제
조세
취항
##주택
##페란
##추진
##25
##홀름
사람에
##amily
등장인물
정보통신
건설된
경상북도의
수행한다
자격이
북아일랜드
1주일
21년
Bro
Med
acc
간사이
모르고
시노
클릭
##노리
##생략
##ena
대한민국을
Ste
클럽인
포기하고
드물게
뉴저지
무궁화
rec
가오
가환
빈곤
수도를
여부
재차
적다
체인
클라이언
때문이라고
중심에
도입한
기반한
전국적으로
본래의
재판을
##ept
새겨진
Rich
국영
시호는
저격
총장
##달라
##5명
##유사
##벽을
##강이
역사와
변경을
임명되었고
학생들을
무엇을
활발히
교정
라쿠
수교
영역에
자작
##라트
##학적인
##계급
##빈의
위치는
예정이었으나
예술가
야마가타
##니까요
예하
##누스는
서울에
실시하는
1882년
캐릭터를
알렉산드로
스미스
1호선
Li
im
것이나
고토
말도
모서
민법
베드로
투어를
평화를
호족
##도마
##양으로
##ford
##풍의
중국인
표현의
공동체의
뉴욕의
위원회의
주도한
아나키
그레고리오
권총
마야
볼로
상원의
앞선
을사
지평
직책
탐구
플랜
1890년
전통적
영어판
서울특별시의
구와
끌었다
대왕
동점
쌓은
작가의
콤팩트
이동을
유래된
사라진
논쟁을
Hen
Mac
급성
기수
니코
동문
뮤지션
성에
수락
슬라브
악마
회로
##기니
##대륙
##루에
##밀하게
따라서는
임명하였다
받았던
출시한
스테이
성향을
가열
개항
관동
모용
선동
어워드
짓는
초연
##대회를
##법칙
##리아는
계획이다
500만
명확하게
레드삭
코무네다
2할
James
주어진다
직할
칼뱅
##다르
##line
##관계에
모두를
중앙아시아
2년간
분리된
왕국은
치열한
각국의
것의
공이
단말
세례
저하
##레가
##주자
##7명
##태를
##끄러운
시작할
알려져있다
기업인
건축가
살아있는
##선수권
우즈베
2골을
번식
법무부
식의
자선
장제
케냐
크롬
특집
##체계
##번은
##들보다
##히트
10분
그룹은
천문학자
것인가
경고를
대합
압둘
제퍼
취업
형상
##3호로
##해튼
목록은
스코틀랜드의
관인생략
넓게
룩부르크
원의
이천
인산
있기도
코코
##체고
##de
##국적
##취를
생각은
발표하고
이때부터
충청도
Instit
성격으로
느끼고
개종
규정이
만을
불평
영지를
##ress
##나오
##투로
##km의
성향의
##원숭이
von
보전
없는데
철폐
촉매
타인의
한계를
##1호로
##당할
되었다는
도시에서
너무나
크리스토퍼
50년
Open
TR
바와
정전
##버는
##eat
##너가
##빈은
정리한
1위로
Soci
미들
상담
아소
이타
창출
판단을
##받았고
연구의
내용과
조직은
##대학교에서
선택할
Ang
선임되었다
프랭크
경복
구형
남인
남구
농장
도키
양을
오비
올릴
장준
중견
##ij
##위성
여러번
##ional
연합군
Thom
대패
무쓰
비하여
전수
초부터
코치를
혹시
##전략
##무는
##거를
##탄의
현재도
필요합니다
프란츠
주어졌다고
고아
상급
유비
장택
통치를
플러
##이후
##호텔
##나에
생겨난
감사하겠습니다
저명성이
Ap
경질
나라는
데모
사신
살려
양호
인테르
항쟁
혐의를
##8명
##gy
##피의
##atch
한국방송
언급된
헌법에
이란의
카를로스
되돌리기
가독
데서
독일에
섬은
악용
엘리트
이룩
주니
##대구
##랑을
##국사
##운이
##ense
수비수
제정된
구스타
에미
자기가
포착
해가
혁명이
##1의
##iro
##조에서
##해줄
##히데
사용되지
추가된
사랑에
떨어졌다
열대폭풍으로
Sal
김지
더비
몸길
스킬
약혼
##8호
국가정보
인터내셔널
산업의
반응이
김제
끌고
도네
무함마
바이트
생방송
싸워
의약
청산
푸에르
형인
휴전
##연으로
##가미
##루스의
##노에
##네일
##elop
오카야마
암호화
2시간
경과
무척
사쿠
사카이
아돌프
진상
청나라의
파나
홈경기
##4호로
##2명
대한항공
##ret
대학교를
정도였다
전략을
비율이
6세
Kar
Mor
di
모티브
미치지
발착
부문에
안치
원활
표기를
품질
황해
##lish
아이콘
진행을
##CAF
선생의
프로듀싱
SNS
라이선스
SV
래퍼
붙었다
비타
임의로
출전을
탄도
##여명의
##업으로
##푸스
지역인
선수로서
##etter
학생들은
기간은
더불어민주당
바람직
2세와
어디까지
대단히
볼리비아
mm
강화를
당주
말기의
신상
암시
의문을
자아
전함
전국의
접어들
혁명을
협정을
##카리
##나서
문서와
들어올
시기에는
장애인
느끼는
Rad
순위를
심야
일기
쪽이
치루
컴퍼
##숙은
##슬레
##스트리
선수이자
생각하지
보내어
더욱이
1994년에
윤치호
추구하는
am
날이
뉴캐슬
메일
##티코
##해지자
##네마
##디를
보여준
변화는
의사소
King
구단은
동유럽
레스토
마일
미라
재해
##자라는
##노를
##cy
##업체
##히코
##락의
타이베이
운행되고
올라온
규모는
주관하는
Ser
강수
것과는
단원
신종
유료
은거
중퇴
##ho
##지라도
##EE
##붙이
##쉽게
열린다
1990년에
위험을
부근에서
1승
AG
게스트
관례
동등한
디트로
모나
반대를
식당
중서
##운영
사용되며
1월부터
상대방의
처리하는
프란체
##과정에서
격투
북조선
수녀
풍속
함수의
##atus
데뷔한
생산된
접근할
친일인명
##경찰서
미나모토
Europe
프로레슬링
가자
라마
마우
블루스
사림
성전
세기
영업을
원숭
##행에
##어지고
##터스
##나에서
##히토
##FL
인간과
클럽이다
Charles
4인
견해가
마스크
수성
수사를
오로
##타입
##형인
##공주
받았다고
##ument
지나가
입학하여
통일신라
rev
강동
군이
기고
무서
병기
본사를
속도는
일화
카르타
##중추
##풀이
##언어
##inn
기업이
북한이
용어이다
그레이트
격렬한
긴키
삼척
오기
합의를
##행으로
위치가
에서의
영화가
천황이
에스페란
콘크리트
슬로베니아
가수로
각색
보라
붙였다
성적이
영어를
장사
행하는
##조한
##츠크
##주의적인
이해를
세워져
Music
델라
비자유
스태
것이지만
차지하며
##une
어렵게
포켓몬스터
phi
CEO
AB
막시
물체의
법의
실무
악기
정월
조소
주위의
해마다
##사들이
##정상
##work
20만
사용되어
3년간
이번에는
참석한
본질적
유력한
##iction
디트로이트
4만
Air
have
거점
낸다
미친
버그
입주
장군은
장소로
증대
퇴임
함부르크
##1명
##론으로
위키백과에서는
만들어져
표현한
앨범인
cm
궤도를
더해
부도
여성을
##화할
##7호로
가지로
2013년에
서쪽의
이스라엘의
page
고인
국한
숨어
음료
점과
질환
포로로
##청과
##단위
참가할
뉴욕에서
헤르체고
글씨
김준
선원
시장의
인재
현직
##리면
##정적으로
##반은
##진군
##근을
##끄러
##uman
가족과
캐릭터가
남동생
##한국당
##기록을
돌을
아데
어의
재일
튀니
##루시아
##atic
필요성이
팔레스타인
Michael
2가지
그로부터
머리에
세션
승정원
에어로
유길
파기
휘하의
##루아
##감은
국가와
##대학교를
드라마이다
미주리
Fri
IV
do
기어
도사
드디어
모범
발병
솔직
##신에
##세키
##보수
1994
운행이
소련이
판매하는
주연을
거부했다
상소
연희
주시기
##트니
제국과
도쿄에서
유리한
5회
년간
모색
산의
설문
소식이
웨스턴
이강
좀더
종래의
짐작
회장을
##수용
##비평
##발로
##말의
##러를
##팀으로
들어왔다
정도에
제한이
1993년에
안정된
미네소타
고기
박원
법조
쉽지
싸이
입양
첼시
함흥
##스파
##심은
들어오는
1940년대
형성되어
텔레비
##가능한
비영리
over
둔다
맨해튼
물의
오크
죽인
침묵
##하되
##학교의
구간에
향토유적
Super
불필요한
2시
2명이
매매
부총
위그
장원
##la
##ze
##2의
##나스
##냈고
일본군의
##olution
스튜디오에서
프로세서
가옥
구해
못하여
##와서
##암으로
##olf
기여한
보호하는
어느날
제한된
아마존
취임한
경무
대기업
복소
상공
소문
왼손
전까지는
존스
헤비
확진
##호이다
##집단
사실에
기간동안
one
인디애나
지진이
지키기
일방적으로
시즈오카
AL
Ear
vol
간신
그럴
다비
덴쇼
시에는
용어가
카시
##덕왕
##교에서
##난을
선수들
문화와
계속되는
유지할
##aint
허리케인
Wind
공수
관악
난다
분은
우한
위촉
입구
장흥
제너
##브는
##작품
##피에
##피가
##urch
클럽의
태풍정보
죽음에
NP
정동
카테
##코타
##척을
##훈이
일본식
10월부터
않는다면
아무것도
십자군
과장
동사
맡는
병자
치른
탁월
해남
##9호로
##겠지요
##elf
변경했다
Af
국장
남게
전적으로
파병
##가수
##rich
##했음을
##준을
대표를
##oman
##해야만
상대방
계정으로
연기했다
경력이
계엄
그걸
라그
만이
별개로
자기의
지장
합스부르크
##전시
##lease
TBS
가축
그게
동력
러셀
로고
소나
입후보
조화
클러
타자로
##했음에도
출연하여
세종특별자치
전반적인
내무부
당연
사무를
아다
은신
이양
중엽
질량이
청춘
##액이
진행하였다
행동은
##ible
트로이
기하여
넘어서
돌격
리뷰
보이지만
의지를
전교
헬리
##사유
##되나
관련되어
##ural
Str
1889년
내각의
와이번
##테이너
AV
CG
강에
도박
무언
상표
원격
차용
토요
히메
##곡리
민주노동
유지하기
형성하는
그룹을
아키텍
비주얼
공습
교사로
무성
신익
어촌
익숙
흐름을
##법률
##작이다
##히지
지구가
바이킹
가족의
South
Hy
구하는
구단이
귀중한
누적
데카
못했던
빠졌다
오르는
유라
전전
흥미
##AI
##졌기
##덴부르크
고려시대
음악은
1을
mod
가산
누나
다테
유목
전래
##정부는
##노스케
##할수
##글리
##하지도
일부러
##ille
요구에
1868년
아미타
경의
기대를
시부
접한
풍자
하반
황족
##집의
##망의
7월에는
상처를
생길
연꽃
중합
증폭
캐서
##녀로
사람들과
가족은
스페인어
동쪽의
나누는
모르겠
가을에
left
고다
다투
마가
임의
전복
##유지
##복합
사용자와
역할은
노래이다
컴퓨팅
조약이
여겨지는
생긴다
갑신
명은
세네
전역에서
##보와
##오던
##2호로
##황의
##강과
##날의
한국을
요청하는
inter
다이아몬드
AE
성이
성명을
유산
재팬
한스
##명칭
##노프
##럴드
국가보안
프로젝트에
검찰은
##조참판
노태우
내어
무가
붙이는
우드
적발
죽어
케이스
##co
##당시
일본군은
1993
중앙정보
인물은
설명한다
1848년
탄핵을
크리스티안
work
거리는
경로를
그루
다윈
말하자면
숫자를
승무
왕실의
인원
재선
주창
헌정
힘썼
##e2
##aur
##OP
##셔야
도시에
연결된다
제3대
방지하기
안토니오
AKB48
9시에
Rock
낙하
러일
밴드를
봄에
싸웠다
초고
##사범
##조치
이동하는
아직까지
하루에
Associ
Bi
간첩
과일
국외
도널드
버전으로
베른
북구
정주
혼동
##티아의
##아스
##인지는
##해졌고
##더의
하나다
정보의
적용되는
위험이
참석하였다
silver
겪은
그보다
도왔다
마코
부에
사당
시어
연소
장인
전담
접하며
주입
퍼포
화엄
##창군
##선생
##됨으로써
공격이
설치하였다
남북으로
강조하는
중화민국의
후계자로
KST
군부
다쓰
미만
별이
비하
소극
신화의
체제로
##MP
생각하여
선거는
유럽과
서로의
논란의
1세와
비용이
가와사키
말미암
6번째
긴장
병원에서
불태
시립
아님
영산
장안
조에
칼라
##교사
##부문
##소이다
공개적으로
단체인
사진이
alpha
가격이
미야자키
미쓰비시
들려
버전이
사상의
없음을
일족
자책
정경
##야말로
##파르
##심과
##통치
##9명
##웠던
문화방송
국민들의
표현할
##iver
형성되었다
불가피
기억을
Mark
검은색
요새를
ag
거인
느린
대각
베토
수산
시위가
재상
전이
하쿠
후예
##역학
선수이며
방식에
국내에서
사상은
효과적인
물질이
국무총
조병옥
끌어들
대도시
산다
성적으로
유해
인가
읽을
체제가
치세
치환
킬로미터
행위에
##AE
##유예
계속된
정의한다
공간에
가족을
가르침
노르망
Ant
신뢰를
##도르프
Do
Mas
맞춘
메릴
모시고
보리
성곽
의회에서
차관
참의원
##노와
##90
##층은
##망에
지원하고
1592년
헤이안
북서쪽
부르고뉴
2배
국철
균형을
세금을
수도로
원인으로
##합의
##ior
##자에서
##타우
##캠퍼
##풍이
##hed
선수들은
출전하지
언론의
일어나지
마르코
1991년에
말씀하신
서양의
Die
Met
곡선
그들에게
루시
만난다
방글라
봐도
산둥
신원
창씨
##수리
##사한
##NG
##공연
##궁을
##된다면
단체가
움직임이
완성된
효율적으로
케임브리지
계시
국적을
라오
우르
자크
향년
##으신
##iet
##클로
##루이스
삭제된
연합의
평가가
반도체
성남시
MB
꿈꾸
리보
자세를
찬양
콘테스트
토스카
현상은
##에미
##ng
##3호
##적이라고
##능력을
##별한
##str
기여가
지상파
종목은
부적절
제주특별자치도
4개월
LP
교양
노후
데미
도루
박테
복소수
조사에
카프
타락
테르
피를
##다를
##토록
##하임
##조사를
##A의
지원하기
점령했다
쿠데타를
베네수엘라
재검토
거다
고집
당내
박종
수축
전화를
주머니
징계
하려고
##찬을
##날레
공간은
지휘를
##시켜야
기묘
단식
도야마
악성
종군
지부
##민과
##회의에
시간과
후반부터
##연합회
오이타
최연소
Aug
갈리아
개원
노인
영장
콜린
파손
현장에서
##8호로
##회사로
##웨이트
진출한다
갑옷
공과
도출
선천
왔으며
위배
의과대학
포드
해군은
##수에서
##무장
##장로
##RI
지배하는
##ondon
분기점
6대
감마
딸이
모닝
산시
여파로
자산
함부로
회화
히라
##롭고
기록으로
내용이다
한편으로
##apan
폐지하고
바뀌어
Mer
광양
당황
루카
모셔
분비
불분
서포
온다
인형
##폭탄
존재로
어려서부터
간이
고생
미디
열전
외부의
장미
지는
첨단
##동원
##요를
##적으로도
##ury
##ray
특성상
방글라데
더빙
발기
손잡
열람
이모
최성
프렌
##협정
##ux
##ype
발생하고
진행한다
영향력이
##irl
차례에
주민들의
직후에
설정되어
젊은이
4세기
경호
계신
당대의
대교
##4호
##무의
##me
##yc
##재산
##블랜드
자유형
성장하였다
불안정
4학년
rel
섬네일
실수로
올드
총리를
추산
##아래
##자르
##기자
##코르
번역한
가르쳤다
안전한
위안부
바르샤바
Mart
농산
누이
동의를
디비시
맡았던
복선
서원
선봉
염기
예컨대
정의를
##한은
##위기
##염을
11시
50만
##ander
방향에
오클랜드
교원
레온
생명을
왕가의
퇴역
허리
##토르
##더를
100년
5월에는
부모의
도덕적
1등
5분
hy
감수
구하기
면적
사탕
소의
여우
요인
이누
인과
정종
조현
포스터
흥미를
##데라
##안과
##권에서는
##천면
로마에
한편으로는
교통의
Project
감옥에
North
Up
rep
광학
권위를
김형
뒤의
반전
시국
온도가
카사
##마디
프로그램으로
##민주연합
나타나고
페이지를
해병대
일제강점기
박쥐의
Serv
ac
var
느다
문의
미쳤다
신해
일러스트
집정
회장이
##사리
##보국
##지거나
##프레스
참여하지
그룹으로
부르주
솔로몬
혼자서
베토벤
미세
수로
스이
우파
필드
##제작
##회사의
##독한
포함되지
설립되어
클리블랜드
곳곳에
고의
리베
여부에
여부는
충북
콜라
##속에서
##링턴
##슬리
12세기
인물을
멤버가
나카무라
3의
드라
문정
사설
선정한
신화에
정성
제의를
조차
한민
##수교
##반도
##요청
##훈장
30여
운영되고
##민주당의
시리즈에
##CACAF
간격으로
고대의
글의
금요일
백두
불상
비대
쳐들어
했었다
##지던
##yle
##절이
##OW
##층으로
##삼진
한국독립
리그로
않았는데
근거하여
1866년
출판된
드러머
마르세
집안에서
AI
DD
SO
남하
모른
사리
잡는
해에는
흔적이
##해질
시작하고
정당이다
통과하는
올랐고
Bas
Cap
Not
김인
벽돌
실버
요충
의사가
중등
학과
한달
혐오
##공개
##병과
프로덕션
활동하며
기준은
야구를
컴퓨터를
활발하게
##9966
플래시
우에스기
급속히
부드러운
CONCACAF
독창
마술
알기
인해서
직행
##미니
##복이
##애틀
##믹스
공산당의
350
CC9966
기자회견을
김광
미터
유희
유지를
조류
중공
호쿠
##편은
영국이
수준을
1992년에
23년
몰수
사각
오마이
이득
잘라
존슨
하동
##6호로
1992
경기장으로
어머니와
부족으로
분야를
스포르
강조했다
점성술
4천
7세
Good
가구
군산
맥도
절단
점수
지시를
##티가
##플레
##감사
##훈을
생산을
남쪽은
전달하는
책임이
알렉산드르
지침에
소프트웨어를
J2
Off
다목적
대니
둥글
반성
시호를
실은
억울
영의
장을
장면은
##메가
200만
반대하였다
에너지가
1989년에
생물학적
살펴보면
Sw
공방
김명
데일리
조인
축성
콜론
##통상
##위안
15세
8월에는
토론의
파견된
근본적인
Korean
Ke
잠입
적당한
키를
##85
##지지만
문서들을
활동하다가
6월에는
생각한
않았을
기관차
기념하여
세포의
English
Great
Il
강철
걸로
나이는
믿을
불신
산성
서산
신학자
아빠
원고
죽였다
지선
화순
##브르
##절에
##업과
##쿠버
##디와
다양체
컴퓨터의
거두며
증거는
고양시
그곳에
스트라이크
5시
계정은
고이
단계에
상파
수업을
순서로
최강
판정을
하시는
한창
##net
##브스
##공단
프랑스령
이동할
평가했다
형성하고
##ude
합격하여
방사능
##ency
무소속
옥스퍼드
London
두가지
세라
시애틀
여겼다
연못
오아
유식
자꾸
장소에
지적이
카우
##나시
##솔리
수록되었다
대비하여
ATP
3선
광고를
법에
세우는
없었지만
음모
##미트
##정지
##동이다
##있어
기원은
정의는
부근의
묘사한
##사관학교
Dev
Jo
reg
가기
돌출
띄는
무술
송도
앞둔
적시
제니
쪽에
차를
측이
황도
##수지
##라톱
##리야
##uel
문제점을
차량으로
소유한
##anguage
못했지만
분별
산스크
스홀름
아와
않으므로
양육
호를
##카쓰
##현대
##승의
20분
한국어로
경기장에서
목록이다
대륙의
늘어났다
##클리드
사쓰마
교회가
무리가
반격
봉인
상에서
성으로
워너
후기에
활동의
전쟁과
나타내고
음악적
건축물
친구가
Ann
고등학생
##문제연구
Wii
꼭대
대령
옮겼
전기의
카즈
##사단은
##오에
##답게
하는지
활약으로
시절을
국가대표팀은
대항하는
손해배
체코슬로바키아
라쿠텐
Val
대에
머리카
부대의
살게
생식
실재
이제는
정권은
총무
##창의
##양성
##DL
##작인
##더가
1970년대에
오른손
평안도
system
계정의
매직
미완
번성
분들
상단
성에서
알래스카
우지
이송
철종
##테크
발견하고
일으킨다
바다에
Arm
artic
예전에는
클레멘
외래어
Im
것들을
대영
서부에
신진
앞세
유형의
입지
##가쿠
##rol
##경비
##지아
##왕으로
##읍에
성립한다
전반적으로
항공모함
dis
가중
공존
문과
분지
아산
연락을
치는
하리
##루냐
##감의
공격하였다
독립적으로
교육에
제안한
안정적인
하늘을
##ission
올림피아
0이
7세기
서태
자진
##시안
##담당
##2호
##by
##린을
학생이
##학과에
오리온
대항하여
아라곤
상대를
플라이
##병은
2014년에
노부나가
아오모리
퍼포먼
6세기
Sing
리옹
먹이를
조로
지미
##M의
14세기
가지지
이탈리아는
왕국이
##브리엘
메시지
산스크리트
2연
게릴라
돼지
애리조
케빈
포획
프론
행선
헌신
전투의
발탁되어
비정상
가사를
미군의
싶다
은혜
조롱
지위에
토리노
##화하기
##개는
것이기
편집에
사유가
우루과이
일렉트로
40년
극장에서
당국은
연이어
유타
조슈
투항
##타이드
##내려
지정되었다가
수용할
사태를
받아들이지
3세가
능력은
두꺼
문무
섬이다
수복
육체
##레스는
##트레이
##지었다
##BI
##공화
##먼드
설립하여
이해하고
나가시마
추진하였다
명예훼손
생겨났다
지칭하는
마오둥
A3
두께
보낸다
생명의
설명이
여론이
자원을
컨텐츠
해태
화강
##학사
##분한
##결혼
있어도
일반적
1863년
침공을
비공개
##attle
유로파리그
Sam
link
그나마
장점이
착각
페미
##니코
##길에
##엘프
일부의
프랑스를
요청하였다
공간으로
서쪽은
대사헌
알렉산드리아
##ords
프로그래머
미나모토노
사형을
소나무
와세다
워크
일주일
종으로
지사
제25
앨범에
비율은
##다니며
나갈
냉전
맥락
배척
생일
우유
지자
##부아
##채는
##스트를
그러면
문화에
1893년
그렇다고
마음의
지난날
북쪽은
작용하는
관할하는
연산군
레스토랑
3명이
렌즈
번도
불량
사드
색의
요정
일식은
제천
지워
한데
##주간
##패의
4월에는
##백과사전
다양하게
역임했으며
United
충돌이
전략적
해안에
철저한
Christian
3분
Mil
UTC
동부에
압록
양심
원정을
중위
##ser
##어인
##퍼는
10개의
##들이었다
사이로
공격적인
그룹이
기관이다
1888년
전라남도의
이사벨
Soc
mu
공자
말과
버전을
성운
어리
##타워
##cess
12월까지
가능성
비롯된
걸쳐서
파견하여
필리프
당사자
관장하는
MTV
경주시
글러
돌로
면을
성실
압력
위에는
최진
크레이
평의
##가르
많은데
2015년에
도로구역
해결할
가져다
귀국한
대규모의
거절하였다
부임하였다
2분
7대
남성의
도르트
시신을
음향
이형
하원의
##클라
##전용
##발은
##온을
##위한
결정할
계획의
다이쇼
##방송을
귀국하여
벗어난
따뜻한
CA
대도
둘이
새정치
송출
연설을
있네요
휴대전
##승으로
##평의
따르고
Techn
각자의
김민
무단
시장이
안나
엄마
음원
저자
중수
즐길
탈취
해왕
##토쿠
##트루
##신인
##절의
##마크
##살에
##줄기
중요시
선언을
스스로의
조성된
아들이자
대량으로
no
size
롬바르
모았다
몽고
번갈
보며
소피아
여우주연
임원
크리에
퇴장
헬레
##로니
##서이다
##상도
15분
##els
공간이다
델타
동네
물체
석탑
성숙
없음
연립
위함
의석
장소를
죄송
파인
팬들의
##인치
##res
##키아의
##새를
공격할
이것에
가족이
단체는
명령에
물리치고
어렵습니다
회원국
지닌다
NE
감찰
쿠하
홍수
##히게
##되어있다
##시키려
스페인은
말씀을
상업적
Club
계통의
강대
뒤늦
에렌
전제로
함대를
##연대는
##ris
##세르
##ces
##유도
##요의
##올라
여러분
##하자고
발전소
분석을
##그룹의
하노버
3호
4가지
5세기
달한다
독도
랜드
럭비
송파
엔트
키보드
토크
파면
하비
##하로
##광을
##하게도
##이었다는
##운동가
국내에
클럽은
가로지
목소리
인접해
Pre
Time
계수
맞았다
쓰나미
앙골
오류가
전산
정당의
하급
해저
##바스
##용과
##모스
데뷔하였고
기관의
##ople
1864년
##선거에서
시도했다
광범위하게
말미암아
간혹
교회에
단층
볼넷
일대에서
전대
조만
청색
형법
황제를
##극을
16개
영화에서
이용객
##이었을
지나친
다니며
관제
끝나는
섬과
유체
인력
잃게
입는
총학생
키르
1990
발견되어
현대자동차
합류했다
트레이닝
OST
강하다
급히
나리타
세트
아쿠
종업
청량
##LE
##어리
##포와
리그인
도로를
제거하고
받아들였다
천연기념
상파울
같고
국사
길이의
당하는
문종
문장을
배운
보석
서정
양식의
주먹
##청으로
##부산
##우로
##바리
##죄로
##커를
아이가
영국령
러시아와
##하자마자
##기관이
2차원
1886년
동쪽은
들어서면서
##olee2
cons
다마
레일
수학적
안티오
##부원군
##람쥐
사용하게
사용하던
로마에서
인도차이나
도입했다
집합을
체결하였다
##일체유
고산
로비
롤링
막고
무대에서
생전에
아뢰
알맞
타케
판례
해변
##역까지
##련된
##천사
1991
그러다가
하나도
충청남도의
창설되었다
아랍에미
목소리가
API
##프랑스
IMF
결선
경인
노이
등번
설일체유
소울
예이다
자란
제동
페니
회사에
##로이드
##대회에
##키타
##루스는
##나기
##각으로
만들었고
요청은
보고서를
아르바이트
적용된다
완벽하게
Em
San
대접
모금
사의
스텔
식사
제대
##일식이다
##원수
한국사
서울을
1892년
대전의
예정이었다
대중교통
효율적인
놀라운
City
Sum
bar
갖춰
극도로
동정
번영
비전
손실
신당
오대
위생
인사를
정해져
천사
체계는
칼을
함수를
##메이트
##절로
##장사
##bl
##린과
##ross
배우고
결혼한
이해하기
선택한
1876년
장악하고
MSL
매개변
우즈베키스탄
IOC
달에
몸의
분출
유생
핑크
행성이
후세
##증에
##신학
##새가
205
3월에는
유럽에
기원후
##대학의
노동당
제시하였다
언론인
만들어진다
infty
GO
May
거점으로
공명
구니
구성을
단계로
벌이는
불규칙
세상의
신봉
율리우스
정상에
컨테이너
해독
##70
16세
9월에는
확인하고
실시하였다
발전하였다
이적하여
비교하여
측정하는
##여자대학교
사간원
가던
가브리엘
교회는
두각을
병이
사칭
상연
숫자가
안중
의문이
체제의
패밀리
##정자
##브리아
##노선
##폐합
정치인으로
음악과
데뷔골을
##ste
역할로
이동이
대체할
1861년
독자연구
그만두
벨라루스
3시에
격려
딸과
명인
미성
박람
베리
일일
커플
키보
##tr
##카쿠
##현에서
##부르
##복의
##편집
1887년
##시켜서
##지역에서
경성부
9회
cd
말아
양보
에디션
오락
조계
찾고
혼혈
화학적
##자리의
##보르
##확인
기록되었다
프리메라
가르침을
장악한
벨기에의
부진으로
3연
Dec
Japan
같아서
고원
고종의
비엔
적게
키예프
프롤
행사가
##ique
##기게
##TF
##규명
조직하여
후보자
##기관인
증가하고
def
1차전에서
내세워
철저히
6번
7시
Edit
pi
기인
끝내기
나간
빌라
사과를
상정
스노
우치
위조
일이었다
저해
전락
필터
##내었다
##지역을
##천리
조선을
경제를
참가해
스타일을
##시간이
있어서의
시행된
Fre
공장에서
유혹
이븐
재래
헬싱
##ham
##보리
##개에
##테랑
##건에
제21
출판되었다
북서부
어디서
명나라에
벌어지는
레지스터
##바야시
단계를
달리는
류큐
버스를
번창
본부를
아치
와일드
입장이
혼성
##어족
##하길
##면적
##물리학
##be
##들처럼
##퍼런스
1980년대에
이름에
선수였다
220
1년에
##정부가
유래하였다
##사무소
나노
예선을
작전에
전원이
지리적
총애를
##발사
##분해
##받았으며
##엔터테인
요청으로
구축함
##ambda
토트넘
##ournal
Jul
MA
굴절
궁전
별은
보낼
비자
성북
야외
연동
주전으로
중부에
지수
지내는
치즈
퍼스트
포럼
폭파
한가
##겐의
##표로
발표하여
받아서
등장하며
판매를
단체이다
입단하여
바다의
소말리아
4호
소생
심리적
원리를
유정
자결
파산
포터
##득점
##코딩
##케의
##ura
##rav
마르틴
1차전
패배한
하늘의
동원하여
정기적으로
24년
3시
4명
Jose
무역을
북유럽
자립
장관은
채취
청룡
코카
회장으로
##비언
##조리
##두의
203
시작되었고
개발하였다
21세기
잘못을
발탁되었다
분위기
버튼을
HTML
글자를
단정
산하의
시스
아유
직책을
철학적
화해
##군다
##분열
##쓰기
설립을
형식은
전해지는
남편의
##mann
올랐으며
WHO
강간
그후
김윤
노바
맹활
서열
순차
정형
총회
춘계
하코
##청장
경제는
기관총
나타나지
간주된다
평론가
Ben
거세
나를
내리고
동로마
레이스
야마다
조언을
죽게
청계
탈당
피할
##협회의
##년이
##닌다
11개
##레이트
##학자이자
경찰관
Inc
위원회는
강력하게
고등학교에
결성한
부진에
Group
College
도르트문
가문을
그렸다
용서
이게
장소에서
제창
차고
투르
한중
##야에
##천이
의미하며
통일을
그림은
제거하는
활용하여
오케스트라
주파수
gen
set
걸리는
고문을
동등
스칸
열을
이단
파란
##와라
캐나다에서
성립된
##ney
자발적으로
22년
경선
돌고
무안
별명이
전자의
지우
총리로
##회관
##처의
##림과
##쳐서
하나씩
감독에
존재했다
우승했다
조직된
수행했다
##주시면
스테이션
저항을
저지른
맞이하였다
스크립
투쟁을
Thomas
Po
길이를
유우
일차
전구
조심
축조
춤을
태권도
##사항
##노총
131
돌아가는
정책으로
mathrm
받았는데
마음대로
결합하여
계승한
유용한
주한미
도메인
관점
교수를
나미
높여
밖에서
아쉬
안철
없었으며
주조
직위를
천천
협업
##자마자
##ger
##면에는
##화문
##중이던
##르다
##왔으나
##강한
하나로서
아니라면
학생들에게
자료에
##ological
미토콘
업그레이드
##슬레틱
5명의
Av
각국
갔다가
밖에도
여인
증상이
취하는
코소
트렌
패했다
##게이트
##드릭
디자인은
##emplate
공적
메카
모른다
무솔리
사귀
시합
신기
입당
회귀
##정부를
##소시
##공격을
##단체의
1960년대에
7월부터
경제적으로
성장했다
남서쪽
##irect
2호선
family
단어의
라노
법안을
습득
아브
열려
자민당
##제곱
##공과
##남부
##복음
3월부터
이탈리아어
평가된다
어느정도
부정적
윤치호는
시에라
청동기
창씨개
Net
Pop
교수의
그건
나빠
모모
삼층석탑
자처
정이
주역
참의
하워드
행진
##타고
##m이다
##zz
##순의
##예가
방송에서
##다가스카
학교는
정의된다
기념하기
캐릭터로
패러디
이메일
1명이
검열
나비
두개의
복권
양측
완봉
이겨
장르의
전하고
주세
지에
##PD
##치면
##글을
##하기에는
의견도
이적한
북한은
제기한
등록된
야마모토
선고했다
북동부
세인트루이스
class
마라톤
마닐라
Pat
other
거리에서
목판
세습
수중
실각
오릭스
울릉
잎은
창녕
포격
##킬로미터
##하였으므로
된다면
노선에
사무관
보이게
콘서트를
Book
which
고장
군벌
늘려
마다가스카
성적은
성매매
자서
장관이
화제를
##화하였다
##바퀴
##십니다
도시인
##부분에
그것에
선정된
생성되는
처벌을
##로마치
KTX
August
Night
놓인
대출
보증
살라
시기가
윌슨
유닉스
절친
줄이고
퇴적
##클레오
##신청
##보지
##바가
##됐던
##막이
##itz
생활에
과학의
반응은
일찍부터
경전철
Out
대승을
독단
배달
성소수
세븐
알프레
진료
향상을
형용
##자문
##보장
##위반
##DA
##움이
##0년부터
베네토
코스타리카
개개
공으로
단장
번호를
법적으로
복용
산란
읽기
자국의
진수
초콜
##레스를
##행은
##그마
##코로
시작되었으며
##나라에
시리즈이다
마을이
도로가
가톨릭교
사례를
둘러싸인
갑신정
등에서는
리에
섭정
전학
코펜하
##청구
##ren
##야스
사회적으로
제24
결승전에
발달한
아키텐
붙여졌다
##고등보통학교
app
그만큼
김두
다니다
맡는다
세분
요원
추존
파직
##티시
##란스
##놀이
실시한다
클럽에서
법률에
1988년에
인터뷰를
테스트를
결별
산에
석회
조장
차원의
찾지
평을
항복을
##리얼
##상업
##효과
##점인
##나파
관리가
선거인
##ider
1873년
가져오
성우이다
법칙을
히틀러는
경건
늦은
명이다
비어
이베리아
입장에
저를
칭송
하기로
##버스가
##33
##부리
##년을
##랑카
##순은
작품에서
대학교는
서비스가
중재위원회
바뀌는
입학하였다
시각을
Arch
사항은
연고지로
총독부
유아기를
푸에르토리
Jan
결핵
드루
매수
손실을
쌍대
조회
파는
한의
##자동
##대비
##토로
##oo
##ero
사망자
열차로
개시했다
한번도
몬테네
Society
가군
걸고
공양
기성
남베트남
박성
원통
원소의
정선
취한
커서
타쿠
태국의
피오
허난
##로워
##RT
##집은
##억원을
##림은
##ister
공개하였다
##ella
의도적으로
간신히
뒤늦게
무로마치
복수의
수단을
안도
왕과
쿠웨이트
한림
##여단
##ks
프로야구
##oul
##문화의
오늘날에는
허용하는
미래에
순서대로
신한은행
Sol
도래
머리가
무자
미키
비중이
양대
와인
지출
평상
현악
##네티
##례로
기록이다
이용된다
구간에서
언급했다
투표에서
체결했다
남편이
선고받았다
이순신
조반니
길러
김구는
남용
도이
병사를
온난
자메이
줄을
친한
##다와
##포에
##ION
##처분
##런은
##훈의
##었다는
프로모
중심을
이론과
##르타뉴
발발하자
발족하였으며
CBS
기법을
밀란
베풀
브르타뉴
왕에게
우두
조의
주권
##DS
##님에
##공작
아이들을
종목이다
후지와라
중소기업
Port
가령
동창
레슬링
비치
빛나는
요하
유러
일각
있기에
자와
출동
캐시
크라이
파우
평민
##하우
##브가
##왕복
##녀가
사이에서는
연구에서
##대학을
그것의
올라와
초반에는
##방향으로
줄기세포
애리조나
각료
같지만
끼쳤다
높이가
버린다
서스
알베르
에레
용암
정적
평평
##매김
독일군
##ague
초기부터
인민군
프레데
종류로
미래를
News
호소카와
영원히
부드럽
Richard
천천히
el
끼고
머신
배수
삼는
선으로
실리
저그
핵무
형의
후유
##박이
##추고
##종교
##견에서
경우와
주장으로
306
언어가
밝혀지지
최소한의
제출한
만주국
J리그
Your
납득
되므로
상대의
아프
이스탄
자행
하므로
했기
##가족
##든가
##문제를
##지않
##UN
##께서는
##되었음을
##이었습니다
아이폰
공격은
추가적으로
항공사
기관이
1872년
보이는데
아이디어를
인신공격
X의
마법을
의회에
주주
죽기
중용
##리쿠
##TR
##공으로
##임의
경기인
필요하다는
##omen
확인된
1891년
주변에서
출판사
고유한
달라진다
메달을
공안
면담
안기
영역에서
자위
재벌
카이로
##나가의
##광이
12월에는
개발했다
발견되지
서로를
보통의
생성하는
승리했다
작업은
해석을
회의에
반란이
고종은
나뉘었다
방사선
Brit
쓰러뜨
연루되어
가타
금호
마비
매킨
몰두
부평
안고
연행
연관이
우왕
일베
일었다
있은
지점에서
팔꿈
함은
##fl
FC에
오사카부
당선된
네트워크를
에이전
George
7번째
Lou
use
당장
묻는
사거리
장이
적당
전역을
카바
##티를
##라니
##음으로써
##마귀
##큐슈
이해하는
이뤄진
호르몬
들의
미에
본문
즐거
피드
핵융합
##말이
210
##ures
후보의
밝혀진
죽음으로
프란치
프란체스코
Association
레즈
미상
스레
아카이
오게
원소를
증상을
지름
##리사
##직원
##처는
##공화국의
##봐야
대한민국이
시간대에
##ival
2016년에
##umber
시대는
이론이
파견되었다
설계되었다
여겨지고
str
카메룬
함경북도
필수적인
##ypoly
서초구
애틀랜타
name
범위가
부채
사신을
샌드
서부의
심화
##기본
##적이라는
##ule
##테의
##마스터
##판사
아이언
이전에도
의미이다
민족문제연구
어머니를
수준이
제13대
Cup
과테
광물
서임
실수를
우아
은폐
투여
폐렴
##창은
##B의
##쿠로
##갔으며
이름도
##ush
설립하고
판단하여
개통되었다
캐릭터의
주인공이
##ship
그랑프리
미카엘
##주식회사
강하고
공성
다행
못하도록
묘지
부다
성도
예선에
최장
퇴직
##LA
##간으로
##백의
##모음
활동했으며
제23
통합을
지붕은
대다수의
지극히
Kl
조정을
##제인
##수소
##미치
##문인
##거의
활동과
동안에는
##하려던
만들어서
삭제하는
주변을
헌법의
요시다
무엇보다
크리에이
격추
급격한
때와
안방
앨리스
지날
##타수
##호대
##목과
##품은
19세기에
지도자로
수행하고
##ody
국내의
담당한
사업이
누군가
용인시
객체
명목으로
법안
볼티모
살짝
열릴
좋다고
타는
테네시
표기가
##문서를
##테른
##ka
##UC
것이지
활동으로
##igital
여기고
집합의
이주한
집행유예
느끼게
##고속도로의
수요가
수익을
7번
DF
but
공세를
불변
원본
원종
유클리드
자음
장치가
정화
주임
쳤다
퍼즐
##하키
##말은
##였습니다
##위에서
##포시
##시키는데
기술과
##운동장
반복하고
비정규
데스크톱
4시
KO
out
vs
고든
공군의
급증
매거진
문자로
부러
뿌리를
상에
위스
유령
파랑
허블
##속도
##곡동
있는가
사용자들은
국제적으로
기술로
민주당의
##unction
국립공
들어가게
발행하는
몇몇의
프랜차
개수
데에는
들지
몰랐
우세
유스
책에서
허드
##니오
##손이
##증권
##테스는
##표의
##디아의
대한제국의
지역에는
##ume
사업의
접근을
부모가
한반도의
코로나19
TC
min
남조선
농어
두지
따돌
법은
사소한
서자
선에
이봉
재난
##서비
##토모
##이야
##sy
##신보
##오자
##칼리
##lement
제2의
결정이
240
그녀에게
담당하였다
결승골을
if
김덕
남미
넣을
능동
세레
제로
증진
타르
호프
황제는
##리라고
##버스를
##금과
##저를
##익스피
##ama
나타날
##시키면서
작품인
설치했다
##ada
뛰어넘
확실하지
트위터
스트라이커
부르주아
Bre
Sim
공영
공휴
기지를
날려
링크가
만장
변동
사영
상서
염두에
종묘
투자를
흐르고
##수단
##전달
##45
##거가
##르면서
##26
##입니까
##질에
##arrow
중심지로
대상에
단체를
설비
애슬레틱
월남
##다드
##로프
##bo
##생은
##치히
##질과
기술이다
앨범으로
유지했다
1865년
이사장
옮겨졌다
##단체인
신앙을
4로
Live
has
거칠
반입
받던
서귀
스와
실체
연달아
예는
우월
철강
해부
##서스
##현실
##ya
##근은
##포드
현재에
##olic
거쳐서
근거한
선언하고
명령으로
바탕에
form
권유로
##교통부고시
불확실
Alex
고추
도청
듣는
불사
아들의
연안에
임사
자생
카지
파나마
하프
##대대
##양에
##약이
##위원에
##urr
과정이다
개최하였다
생성한
1867년
3남
Wal
격리
남의
무기로
불행
소식
이조
직계
침체
후진
##자리가
##복은
구성하고
여기서는
31일까지
입학했다
케이프
내놓았다
라파엘
때를
말에서
보이기
승하
시가지
시신은
안재
어지
조형
줄이기
청소
표출
##LS
##버스는
##ias
##타도
##안보
##프턴
##들리
##킨스
##함수
상태는
2009년에는
모습이다
소련군
30일까지
규모를
설계된
체결된
밴드이다
박사학위를
윤보선
인테르나
2위로
도스
동위
선에서
예가
장래
차세대
코호
키는
협회의
회상
##서야
##어스
##m에
##색과
##운수
##락에
##짐에
##렉션
10월에는
영국으로
역할이
지하에
이르게
프린스턴
명백히
유니버설
치명적인
EBS
Sl
남매
낮다
느이
리조
박사는
블레이
손상을
신자
연도
접해
제인
편을
효과는
후작
##다니는
##버의
##타점
##부에는
##직이
##망은
##냐고
사용하기도
5월부터
번째는
드러냈다
유니언
대사관
확정되었다
간단하게
아나톨
명명되었다
Science
##rown
아인슈타
루이지애나
6량
교류를
짧게
컨디션
켈트
틀의
파열
##비용
##군주
##체국
##활성
##후가
##평론
##척이
##isch
위키백과토론
필요하지
따르지
##style
1881년
임시로
강력히
##지역으로
일으키고
공헌을
심지어는
비스마르크
2가
기에
대위
뒤에서
배반
선조의
승용
이같은
전적
정자
##버린다
##서인
##비오
##체제를
가능성도
##ets
만들어낸
스타일의
개최되는
제30
1860년
분리되었다
작가가
##ensis
수여받았다
##박쥐과에
화재가
How
관세
막스
맛을
쓰이지
아스카
알을
프리스
##바를
##누마
##샤오
주장도
구조에
기능에
공간에서
소유의
명의로
배치된
사례는
끌어올
친일인명사전
9세기
Dream
경순
많아서
불만이
조부
지을
표본
하타
##스투
##버른
##한지
##zy
##페스트
##들만
##살을
##료는
시즌이다
사회가
확인해
Church
제품의
이바지
초콜릿
이스탄불
App
성문
요격
전자는
제임
칸의
클레이
하단
핵무기
##학으로
##관인
위키피
이루지
2005년에는
교황은
40여
조지프
국왕이
일치한다
카탈루냐
거치면서
김연
깨고
남자가
도피
마키
매력
미쿠
배터리
불완
시속
여단
전봉
천왕
칼로
페트로
펼친
##회원
##회사가
##카드를
##붙였다
##궁에
그리는
1988
off
이적을
비교해
정당이
##만으로도
BM
Dan
OB
bul
man
so
개선을
고을
남을
월요일
자사
정권에
주소를
패럴
편성이
##라나
##거든
##렸다는
##저는
##겁니다
마이애
연합군은
자연의
노래로
명령했다
자리하고
1862년
가르치는
촬영한
되돌리
아랍어
전설의
##라에몽
##미사일
초등학생
XP
거리의
공장을
반역
방어를
병력이
비해서
산지
열쇠
종은
택시
화랑
##보았다
##만명
##민스터
##순이
##승이
한국이
등장하지
진출할
발전과
개정으로
합류하여
핵심적인
유러피언
9개의
su
구독
매리
박상
브셀
성동
셀레
요절
이사를
있음에도
지분
##클래
##등은
##누스의
##ince
다시금
대상의
어려울
도로이다
이사회
고향으로
선생님
미토콘드리아
Mad
귀속
극한
마셜
순위가
신임을
온라
올해
이겼다
자릿
주부
찍어
편안
##테는
##루에서
##cript
##팀과
##때는
##캠퍼스
##푸르
프로축구
음악이
설명한
모델의
인식하고
학문적
연예인
영원한
숨겨진
4위를
DM
Ret
경작
글씨는
노론
숙부
엔터
오자
중학생
직을
집단의
파시즘
폭이
현대에
##공립
##네를
##천은
자유와
임명했다
승강장으로
제시했다
물리학자
무너뜨
##스테르담
세네갈
되살
무리를
사슴
삼중
아끼
안전을
콘솔
클리어
테라
##미스
##바나
##루엔
##센스
##히사
##천으로
##ola
9월부터
##ason
임명되었으며
귀국하였다
제정되었다
##obal
항목을
토너먼
몸무게는
겪게
결제
남산
당신
반납
식물의
연말
유망
인정을
일진
장벽
팔작
형제가
##으러
##는지에
##방식
##지오
##강은
자료는
즉위하자
##iff
##스케이
건조한
익스플로
기장
매도
멜버른
명나라의
범위는
복장
본사
쓰기도
알폰
의류
인식을
출국
한족
##현으로
##봉은
##7호
##당하자
##arg
가운데에
분류가
조사한
UEFA컵
부임한
페이지에
편찬한
신분으로
라노워
3위로
각지에
격렬
금산
단국
쉽다
슈고
예산을
오디
왕조가
의석을
일리
질량은
포토
해킹
##출력
##여우
##원자
##간지
##처가
10세
##리아를
지정한
2008년에는
실행할
삼국유사
홍콩의
인도네시아의
미드필더로
##타나베
미루어
Institute
같다고
막대
목성의
바울
밴쿠버
실록
운수
전기를
정정
투신
##제철
##수입
##지법
##지검
##급으로
##져야
##팀에서
##참여
11세기
구성요
나타났
정의된
노래가
해결을
주민의
탑재한
##사이클
프로세스
USS
어디까지나
West
cap
가졌고
이륙
자카
진을
카타르
필연
##트맨
##러드
##읍을
##충은
소속기관이다
##ady
유래했다
여겨졌다
기초한
가르쳐
노력하였다
아사달
중립적
만족시키는
##계획을
엑스박스
중성자
공직선거
잃어버린
병자호
3점
End
거룩
블로
쇠고기
##제1
##ness
##69
##och
##함대
##있습니다
사용했던
10일부터
국가들은
독일을
내용도
중앙의
1일에는
반대하여
제목이
누르면
계단
발해
쪽의
차르
키스
##도스
##통과
##통은
##진한
##약의
##책이
하였다고
프랑스로
##대학교는
한국어판
거부하였다
결성되었다
##ference
살아남은
감정이
교회에서
구한
던진
따왔다
매번
예멘
이기고
준보호
##한데
##포타
##녀의
200여
사람인
반대하고
거두어
유래는
우크라이나의
프리미엄
노스캐롤라이나
펠리페
코펜하겐
라노워엘프
개미
도라에몽
반죽
방대한
양력
의식이
정여
징수
추리
펜싱
##왕국
##판매
##질러
##alth
방송에
관계자는
##르트의
##ayer
대립이
마법사
공헌하였다
볼로냐
1시
GDP
가격을
강의를
구금
김승
높이기
단발
법이
신약성
자명
지류
##기갑
##좌를
##정에서
##머는
##언론
##놓았다
##밴드
영화배우
아이즈
방송의
로마로
열린우리
대체적으로
##프로세
소재한
홍콩에서
##차례의
생명체
분위기가
Cy
나가지
넘치는
노드
농부
매끄러운
부실
안드
여는
왕조를
인적
지탱
질서
##티드
##기아
##기둥
##봉의
##관이다
##왔는데
14세
제작하는
가능합니다
관련해서
운동과
프로그램에서
태양과
선언한
입단한
아프리카계
근본번뇌
아리스토텔레
DR
Top
가늘
각성
구호
맞습니다
별을
별자리
옮기는
요제프
적외선
전력이
정제
카세
하츠
##가게
##대리
##상황
##까지를
##ird
표기한다
소프트뱅크
발달하였다
전해지고
##페이지를
합리적인
##conom
1조
가드
글에
다이라
대전에서
마요
의령
의회가
조례
주신
치우
##스레
##88
##통에
##ye
##재와
역사비평
결정하고
프로그램인
국회의원을
처리할
협력하여
열대저
포도주
Soul
5명
7회
값은
예종
위를
은하의
장치는
코시
##라며
##여야
##진구
##피오
##샤의
성공한다
##ster
2005년부터
인천국제공항
법률을
지식인
스타디움에서
어려움이
이데올로
Gal
USA
경량
공로를
대군을
마누엘
부시
분의
산을
셰익스피
파고
피라미
하르
향했다
회원이
##비한
##시설을
##창이
##팅을
아니기
구성은
지원이
요구하고
##르트는
dev
시험에
당선되어
집중되어
합류하였다
레오폴
미하일
감리교
1에
Bu
Math
Rh
대량의
버스가
보였고
분수
시점에
아델
원소는
의논
잠실
철학의
##인간
##퍼레이션
##움의
##탄이
##벨트
이용하고
가리켜
아프리카의
청나라에
콘스탄티
의거하여
교단
군용
동형
마리의
버린
변증
샌디에
위원으로
이례
징집
추억
헌납
힘의
##하곤
##극의
1989
위치로
이상은
##스카야
주인공인
주최한
시마즈
모로코
bold
겐지
관해서
급여
라오스
문명의
시몬
신석기
안정을
여배우
오와
오미
이언
정읍
직업을
캄페
희곡
##내면
##우스와
##심에
##요가
##종에
##복무
##itch
아이들
##reet
발견되며
시스템으로
진출하여
시민의
요시쓰
이승만이
복귀한
결합을
라이브러리
아들이며
신시내
쓰레기
2는
4량
관음
미요시
버마
석권
전위
패하였다
프록
하려는
##기보다는
##뉴얼
##노부
##태가
##돌은
##웠으며
지방은
출연해
그렇기
가문이
제4대
금지하는
명예를
현실을
동작을
패턴을
메트로폴리
네이션스컵
케네디
JTBC
할리우드
##디나비아
Pal
국기
다리가
로타르
만년
믿었다
밀도가
바스
부추
부담을
블레
실증
쌓았다
초안
탄자
##군인
##먹는
사용은
##ano
##나라가
정의에
대중의
##aker
달러에
개편되었다
채널을
##시험에
오케스트
2점
RT
Sun
경매
브랜
승부를
시중
아리아
이빨
일일이
##스퍼
##네르
##집권
1990년대에
활동했고
시즌에서는
##바이러
보수적인
지명되었다
투수로서
오브젝
출마하여
사도세
피렌체
해밀턴
1점
2단
Nov
당하여
동서로
되게
문경
복직
봐야
설계를
않거나
지린
한계가
회유
##로스의
##대군의
##비치는
##고에서
##하느냐
##령과
##초가
##케라톱
##arm
설명하기
수행하였다
아시아의
일어나기
바다를
임금이
3집
겪는
대사를
라치오
로페
로컬
상품을
암스테르담
취할
컨트리
파푸아
폭주
하의
##래도
##하는지
##에게만
이후인
필요에
이론에서
기관을
공화국이
그림이
조약의
교회와
교체되었다
아내가
머물렀
플레이오프에
Journal
circ
감상
내릴
덮여
도봉
드레스
로버
없도록
외국의
의원으로
잔존
팬들이
포로가
회장은
##대서양
##민들이
##불이
19세
10세기
시작을
조직과
구조와
전문적인
움직일
주도이며
노력했다
##호선과
채택되었다
올스타전
요르단
제너럴
6회
90년대
Hot
공정한
구두
맥아
몰고
바라는
별세
비중
시찰
신을
영의정
요시아
일산
중생
콜레
##청사
##가들이
##박을
##료가
12월부터
아이디어
스트레스
천황은
총선부터
메릴랜드
Hol
MM
관절
남성이
문맥
부교
씨앗
여타
외환
이항
##연금
##라드
##고도
##ling
##uv
##지스
##호르
##9호
##콜라
##ars
사이먼
아니므로
기반이
제기했다
가톨릭교회의
물러난
Tom
Wil
박사가
손녀
스기
왕정
정말로
해주는
##GM
##으려는
##ca
##공무
##알라
##임에
##저의
##외교
##리아와
6월부터
사실과
##km에
표시하는
정규리그
예술의
영토로
유래되었다
##스키의
보존되어
무엇인지
해체되었다
도미니카
극단적인
Micro
1사
격하
냉방
대덕
유머
제주시
줄곧
중공업
환자가
##대성
##트트릭
##시으로써
##프에서
##규는
편집자
##대학교에
라이너
학교가
제안하였다
1878년
신설된
투입되었다
건강한
절대적인
사유로
CIA
God
ret
대포
맡기도
벤처
서거
속이다
지식이
철도를
쿠로
튀르크
##로폰
##제사
##반대
##장에게
##루브
##공사의
##쓰는
12개의
##als
11월에는
감독인
2월에는
2006년에는
통합진보
직후부터
내각이
후계자
스탈린은
##clop
imp
거꾸
누리
민감
보면서
부회
새긴
수만
알리고
오스카
전하
포스
행사에
##경쟁
##요는
태어날
##ids
음반으로
자체적으로
##기관을
적용할
에너지의
출생하여
종류는
대표팀의
휴대폰
이노우에
about
Rel
이길
정체를
펼쳤
함대는
혜성
##더러
마지막에
도입하여
지나면
컴퓨터에
내려졌다
없었다고
반발을
ref
여의도
농림수산
Ma
간격
납부
미합
부진을
북경
북부와
예약
은메달
조이
후루
##가이자
현대적인
증가하는
국립공원
인기있는
콘텐츠를
클린턴
차가운
스튜어트
탁월한
1은
Hel
NT
Peter
규정한
다발
대담
모란
밝히는
서면
에반
예의
책으로
치른다
형제는
##사다
##춘추
이어지고
2007년에는
소속사
2006년부터
배우는
언어이다
구분할
이외에는
않을까요
편성으로
##데이터
무산되었다
궁금합니다
메소포타
Che
개로
군중
군함
꾸며
마니
만인
요소로
재료를
적힌
전멸
제도와
조정은
천수
털이
확충
##데일
##나지
##네오
##모노
##O의
##질환
##으로만
사용되기도
##이라서
일반적이다
제작하였다
문화는
이전하였다
고려에
서비스는
1870년
##ipp
스테파
반복적으로
##ource
비율을
인상적인
스칸디나비아
Girl
남았다
단군
등등
부풀
빅뱅
뿐이었다
유능한
이바라
자랐
작전은
점도
점진
침범
##기계
##셔도
사이언
13개
이탈리아를
비판하고
조건에
출처로
300만
Alb
##TV에서
창설된
후손으로
사운드트랙
포스트시즌
키프로스
Elect
XX
듯하다
바보
소외
애완
월트
책이
철학을
초에는
프레이
##6호
##파리
##선형
##마케
##광년
##집에서
자신만의
##lev
이상적인
러시아가
발매됐다
방향이
방문했다
표기하는
자치체로
침략을
연관된
##이닝을
##고등법원
황태자
아틀레티코
5개월
디에
떠나는
루돌프
리서
마스코
물과
보았을
시크
안경
앤더
일과
직사
추축
판의
패스
품은
##요일에
독일군의
존재는
##위원이
편집할
2007년부터
출전하는
과정의
영어의
적용되었다
국가대표로
배치되었다
직후인
공유하는
컴파일러
프란치스코
1편
2선
가토
가쿠
거쳤다
끝났
나트
모신
문학의
팔아
효력을
##제도의
##정주어
##시브
##틀을
12시
자신에
15일부터
##rew
진행할
편집한
2004년에는
전라북도의
시민들이
무렵부터
1985년에
구체적
전설에
선제골을
분당선
전성기를
어촌정주어
GF
SH
고흥
만날
박용
분단
색은
어우
적었다
청취
평탄
##그러
##메트
##D는
##있는데
활동하면서
##들에게도
경제적인
##ident
보고를
분류에
학생을
부산광역시의
교황이
##cept
1874년
##aceae
브리튼
연관되어
와카야마
아이치현
Aut
김학
깊게
나무를
뉴턴
단점이
배터
법원은
수페르
순식
의용
조치가
튼튼
황실
##니크
##100
##토에
##2는
##암동
##섬의
##블릭
문서도
6월까지
방송은
##ays
사무라이
히데요시
희망을
대대적으로
김규식
3억
Ob
공리
광주시
근래
다수가
디비
모스
수비를
시도가
질량을
켄터
##자로부터
##적과
##ues
##28
##배가
##셨다
##S는
1월에는
영국인
러시아에서
차단은
##운동은
전국에
##이어야
조선인민군
알제리
4세의
AF
Green
Mi
NAT
날을
당연한
많지만
부제
상록
영천
예시
의상
카네
푸아
##제이다
##BL
##저가
위치하여
진행되어
충청북도의
Class
빠져나
탄압을
##에너지
거꾸로
3세기
과잉
교리를
김장
독서
뜻에서
붕어
비준
빠르고
산이
서지
쓰일
올렸고
지적을
체조
폐차
##화되고
##성인
##후이
##공사가
##틴은
##피탈
##몬트
##컵을
지방과
러시아어
참가한다
유니콘
국왕으로
##하시고
오세아
피츠버그
Song
TN
log
교장
군대와
규합
너머
당하였다
부파
신세계
융희
이의를
일원이
타마
후방
##미네
##성장
##지리
##D의
##농민
12세
독립한
고려해
민주당은
시스템이다
추천으로
줄어들었다
UC
극락
눈치
말입니다
모임을
미칠
배에
불상이다
사물
소지가
정령
해피
해트트릭
##는지를
##경부터
##지어
##러와
##키로
##변호
##광의
결정된
요청한
앨범이
레이싱
과학자들은
MLB
이산화탄
팔작지붕
2일부터
Bus
First
Gold
경원
머릿
불에
불려
스드
자비
잠정
종식
즐기는
질의
총을
충무
활주로
후원을
##전대
##되다가
##받기
제1대
확인한
내려오는
추진하고
세력에
세력과
##기술을
이주했다
부모는
누구도
산맥의
대수적
##식품부
외야수
어촌정주어항으로
공세
광대한
국회에
김은
사대
숨을
오르게
위구르
철도는
친족
터보
퍼트
페로
한꺼
호기
흐른다
##심사
##양과
##QL
##쪽은
##onic
##스트가
리그가
2010년에는
2008년부터
사랑과
역임했고
1987년에
크로아티아의
확률이
디비시온
GT
구획
그밖에
농경
아약
앞바다
영암
##전에는
##어사
##창조
##랑은
##유로
##요리
으로도
##acing
기관은
하이퍼
종류에
위반으로
Roy
4세는
AA
Kim
동인도
못하였고
분명한
삼은
상고
원반
유수
정리를
종신
주계열
중이며
##다테
##라호
##분류
##활동에
##중공업
##선수로
##C는
##초는
##림으로
중국으로
조직으로
제공할
인도에서
유사하게
Real
작가이다
유니폼을
더글러스
순식간에
1이
RS
기와
내재
듭니다
맹세
산티아
시장은
쓰게
어업
오산
전방
좋습니다
증상
체계가
촉발
편으로
함수는
확고
##출장
##타점을
##정사
##분간
##노마
##천년
##언이
1980년에
사이트에서
3월까지
개최한
2004년부터
도입을
나오게
뉴욕주
예정인
불리던
다르지만
생물학
몽골의
탄생한
아침에
상하이에서
복음서
한꺼번에
Bel
남방
리베르
묘소
싸울
역도
철학과
측에서는
통폐합
트롤
하카타
휘발
##정부에
##발생
##택이
##희와
##ita
우승으로
지금까지의
만들어지는
##대학으로
##emb
레이디
활용한
득점하였다
감염된
Commun
실시간으로
신천지
GNU
구역으로
굴복
기법
노력이
문하에서
미군이
소행
양조
왕인
집현
총사령
최용
충칭
통하는
평야
##za
마을로
프로젝트가
해결하는
불교를
가입한
인사들이
사후에
머물러
의무가
아테네에서
성능이
노르망디
Web
궁중
다마스
방침을
불만
외부에서
워드
이니
이철
줄일
확장을
##좌의
##했으므로
##움과
##ines
사이트에
세계로
아이들이
참여해
개발하여
사무총
통과한
바람이
참석했다
니시테쓰
성폭행
스칼라
부에노스
Work
sigma
감자
공예
기니
동탁
마시고
모차
번역을
보도가
세례를
양념
온두
완결
잉여
잡을
재료로
전차를
좋고
천명
토목
패하고
##ious
##든다
##화했다
##설과
##암의
##즈와의
##친왕
##ating
선수단
감독이었던
제27
대학은
계속했다
계속되고
설치할
중앙아메리카
##ope
출생하였다
훼손이
강조하였다
엔진의
Sport
박정희의
정차한다
거짓말
아이템을
Sub
du
id
과시
기밀
담임
씨를
에볼
예로는
오시
조영
종이다
주저
죽이는
##다오
##29
그러다
제작하고
##idd
개인용
##ives
Champ
저작권을
촬영을
미디어위키
북서쪽으로
수원시
남서부
개칭되었다
간접적으로
두개골
비타민
Big
Tour
bas
나일
데는
부부의
비스타
빠지게
새마을
성질이
외할
음주
입어
적법
죽는
중개
지오
항성의
현장에
##데요
##EP
국가인
차지했고
월드컵의
40분
도착하여
확실하게
출범한
유벤투
집어넣
만장일
코호몰
8세
Mal
co
기피
단속
동급
동메달
밀리
바우
시오
앞뒤
재단의
제헌
종영
측면을
##리라는
##버리는
##데자
##탄은
일본군이
이어주는
시스템에서
활약하며
경찰서
기타를
소설이다
부여하는
본래는
편성되었다
얼굴에
weight
Gamma
cent
경계에
말소
반대의
병렬
보은
엇갈
위주의
조화를
좋게
주일
지분을
한서
##히라
##립의
20개
30만
프리큐
이론이다
차량에
State
2차전에서
시민들의
세포가
1984년에
당초에는
1칸
Nat
Pet
고찰
괴물
글에서
김희
단거리
박중
신들의
유감
윤원
이홍
정계에
중원
팀이다
##티와
##암은
##필을
국가이다
제작했다
돌아오는
행동으로
말씀드리
비율로
##상태에
아세틸
카카오
1세기
time
갈래
강은
로키
박해
베테랑
봉화
생모
연대를
오류를
우간다
의도를
자란다
케플러
황폐
##료의
##헌법
진행한
##ists
인터넷에
아내인
8대
PA
뇌물을
성행
손님
영리
절충
패망
표절
##기만
##바위
##소녀
##집으로
18m
당시는
연합하여
##세포의
조선민주주의인민공화국은
가격은
대성당
used
Jean
8세기
Win
끼친
둘다
말하기를
맥주
보행
부당한
영덕
왕래
직속
친히
회담을
##다스
##스전에서
##리이
##기하
##for
한국일보
독일군은
확인했다
##민주당은
자동적으로
이와테
조건은
승리하였다
인터넷을
캐릭터이다
파일의
즉위하였다
라이브러
프톨레마이오스
위스콘
AU
가공의
걸프
관보
규명
날인
도산
말린
매진
미만의
사정으로
상부
시키는
에른
예문관
정계
##주곡
##정동
##증과
##찬성
##돈의
기록하였고
중국에서는
구조이다
찾아와
통합되어
기념하는
대중에게
보수주의
Unypoly
베르나
시청률을
스케줄
유격수
일행은
낙동강
3일부터
가루
강호
고온
드립니다
믿는다
발산
비중을
상점
실효
저주
첩보
통역
##동성
##실장
##피아의
시작되는
기록과
세계적
영국에서는
반대했다
50여
종교적인
수행하기
삼성전
노르드
체포된
10년간
신앙의
받아들여지지
주지사
하느님
쿠르드
매카트
##cyclop
lambda
계정에
구에
금전
묻혀
벌이고
본관
살아가
수정을
슈타
이지만
자라는
청도
필두로
허베이
##층에서
이용이
대표되는
##시키면
##이드의
명칭이다
바로잡
컴퓨터가
제시된
식민지를
집합이다
혼란에
거절했다
대표팀에
완공되었다
앤드루
LCK
3주
Acc
Kh
건널
김천
되풀이
릴리
만화를
맛이
서바이
스플
이코
혼다
##기병
##문과에
##들고
##흐트
존재한다는
있습니다만
2009년부터
이야기의
##시간에
북한에
1869년
이주하여
원칙으로
중반부터
##ibr
##노동조합
자녀를
카스티야
충렬왕
미성년
##데자네이
NL
kn
공사로
공주시
김선
동부의
떠났
떠날
맡겨
사명을
서프랑
우위를
의회를
전조선
절망
칠곡
틀에
폼페이
행위로
행해진
##1은
##구미
##공장
보통은
1880년
고종이
1986년에
개시하였다
시티즌
체계적으로
몰아내고
대다수
헤르체고비나
Joseph
Bab
니켈
매립
변하지
비아
비리
위상을
태생의
홍성
훈장
##을때
##트레
##바인
사용해야
10위
생각에
11월부터
조직하고
시리즈로
오래전부터
좋아한다
어디에
자극을
유치원
프리미어리그의
오바마
5차
Da
Free
Mont
견디
산으로
솔루션
요소는
의심을
저에
쪽은
찾았다
초까지
토모
픽처
##사자
##하네요
##폭력
2003년부터
살해한
발발한
폭탄을
오디션을
날카로운
힘썼다
1과
거치지
내에서도
노란
다국적
당나라의
버스는
수인
아브라
정진
직원이
짧고
치유
##부대를
##li
##상공
##선인
##남에
##즈마
도시와
대학으로
설치하는
결정한
최고인민
어머니인
집중적으로
삼국시대
적절히
화재로
##press
나름대로
Windows
클러스터
Back
iOS
배워
소용
아드리아
양상을
어웨이
없었습니다
정문
증조
편의를
형제의
혜택을
##숙이
##민정
##례의
##잉글랜드
##iter
산업은
마르티
다카하시
가정용
자살을
그만두고
Id
무색
물결
부왕
상이
서진
신전
없었으나
왕조는
응급
일가
절대로
주제는
줄이는
체력
카피
해준다
##례가
##ities
정치의
제공한
제공하기
플레이를
그래미
공화국은
국가대표팀에서
##지방법
파견되어
성장한
가르시아
대비해
가담한
650
Battle
Fil
J1
끼워
드레이
믿음
생계를
시발
자리는
증오
찰리
탱크
##와도
##사단의
##해지면서
##iness
사람들에
15개
14개
영국군
##acy
계속하여
실시하여
조사에서
아무래도
불리한
파괴되었다
이슬람교
집안은
Progr
Pres
한글로
국토교통
익스프레스
포유류
포유류의
아이스하키
미스터리
가나가와현
Best
Jr
객원
미츠
바오
번씩
베오
변하는
보름
불릴
산호
여당
옥수수
외척
재앙
타지
##대체
##물리
##열은
##락은
##십니까
사용에
지방으로
##이트를
##리스가
##adow
보고했다
바이어
도쿄의
대체되었다
마드리드의
탈락했다
표제어
시외버스
2세기
Found
Sigma
권력의
떠돌
에다
원전
인식이
장소가
정일
정예
쳐서
추후
##토프
##부시
##했으면
##태수
##볼을
##각형의
##운은
17세
이용되고
일반화
##ote
인도유럽
노래의
사업은
결승에
베이비
분포하고
우려를
다스리는
우에노
프랭클린
1번째기사
Award
ass
web
고창
높았다
영락
이문
있겠
종을
편견
##아로
##손은
##러시아
##할만한
##히드
##승은
##젤로
##adem
기관으로
방향의
1875년
밝혀져
발언이
보도되었다
공항으로
에도르
필리핀의
명확하지
철저하게
히타치
리우데자네이
손해배상
결사
관상
그라운드
돈이
문자가
미식
복역
수염
수정이
신분을
워낙
이서
조조는
지음
총회에서
하겠다
##46
##르카
##95
##피크
##맥을
대통령에게
2012년에는
그녀와
연합군이
음반에
보호하고
사상에
자리매김
부정하는
결합한
규칙에
고정된
우루과
NGC
Dep
가우
구경
기원을
대를
대나무
문자는
반기를
사수
양평
주시면
집적
팀내
##문자
##설계
##왔지만
##케는
1973년에
하였습니다
부산에서
사업으로
영토가
즉위년
플랫폼을
브리티시
오클라호
볼셰비키
Aust
YG
게리
날은
남자의
두뇌
레버
실권을
에픽
오우
있지는
절벽
절감
차라리
출사
통솔
패스트
호랑
##니티
##레와
##행사
##임과
##ones
사회적인
연합국
생활의
판단할
애니메이션의
수준에
스위치
다음날인
이바라키
6일부터
80년대
more
갈리
건전한
내주
마디
마운트
목재
바흐
박진
불균
사내
스쿠
심상
쓰던
전주시
히브리
##니버스
##자료를
##바브
##절도
##만인
##됐지만
사이트를
사무소
애니메이션이다
승리하여
여름에는
디지몬
대항해
Lee
32년
NS
She
gl
길로
달했다
번이나
법령
아디
암모
엑스포
유방
책록
총리의
최순
화면에
##다양
##리드
##right
역할에
##ocal
##시간을
올라가는
스트라
공화국을
사진은
유래한다
완성되었다
출입문
예수회
히틀러의
전년도
Service
GM
GPS
SR
TS
던지는
도로는
문장이
싶다는
않음
없거나
여주
전자가
첫날
플리
##니언
##GA
##손의
##대지
##35
##회사를
##악을
##원칙
##먼의
##희를
처음엔
##reg
비판적인
적용된
구분이
통과시켰다
##지방검찰청
채택하고
등판하여
바닥에
고트
고마
끝내고
뇌물
북벌
옆으로
이보다
집의
치르
판명
##그라운드
##조각
##직과
##립을
발표한다
국민투표
출연을
##ather
유지하였다
대전차
이론적
그룹에
지배하고
사상이
삼성전자
근대적
사항이
모스크바에서
단백질의
주최하는
마음작용이다
교과서
프랜시스
무승부를
Di
Power
가결
갑오
권리가
꽃이
목회
밀가루
설정을
영역의
옥타
왔던
유독
죽일
체제에
헤센
##도상
##노조
##구간
##길은
##편성이
주장하여
참가하지
운영에
대상은
지나가는
생성된다
방문하였다
대중적인
국립국어
지켜야
분노를
Ha
sim
관점을
군데
등단
먼지
생리
원균
이덕
절도
진리
컨설
타도
푸젠
##아과
##pos
##진상
##ball
##족으로
국가적
참여하였고
구조적
여성과
인터위키
2017년에
거두었고
치료에
개막전에서
겨울에
끝나면
주어지는
취득하였다
무사히
단행본
Company
4명이
공국
단어로
분사
상자
요인이
음이
지다
청송
코린
획기
##ful
##피안타
##참찬
##최고
부분이다
마이니치
건물에
살아가는
충돌을
얼굴이
성우로
후쿠오카현
유효한
대결을
착공하여
불분명
6명의
남작
내며
방안
빨강
선조는
속성
전장
진한
초음
파리에
##기상
##씨로
##마켓
20일부터
조선이
2011년에는
여성은
이동하여
예정되어
결성하여
이번에
발행한
스테인
Prot
건립된
피아니스트
파라과이
자랑하는
모티브로
hyolee2
Sur
뒤따
밀레
복수를
사와
섬이
셰이
암석
였던
음모를
의병을
인증을
집단이
특성이
포츠
횡령
##하긴
##했기에
##입을
##NN
##임금
##막의
1983년에
제공했다
교통사
모여서
##ears
##ences
총칭이다
2를
대여
동요
러시
분들의
불타
불경
수위
첨부
최남
현립
##으론
##느라
##동지
##실점
##슨을
##탑을
##두리
##짐을
국가들이
중국이
편집하는
유럽연합
올림픽을
소련과
수행을
제기하였다
바탕을
발언에
엔진이
##재판소
로그인
주축으로
코트디
##ography
6000
FK
WC
겸직
공시
과목
기적
말에는
미카와
쓰면
예정이
우상
친왕
태화
포섭
향하여
흑백
##아트
경우의
가능성은
Stand
##리오스
표시한다
종료되었다
목적에
신성로마
입장에서는
천안함
성직자
보편적인
Research
750
Vir
gu
개기
날로
놓아
레스터
로타
무어
부인이
열두
외무부
의정
이들에게
찬사를
채소
형을
형상을
##아들로
##달의
##전력
##uter
##했는지
##외로
##둘러
##eration
1980
##라이드
우승과
기술적인
상황이었다
개최하고
기타큐슈
개통과
금지하고
고등교육
빅토르
정교한
2군에서
갑작스런
페르난도
##네티컷
2번째로
Ter
cell
나르
내지는
동전
물체를
배경을
번호가
선우
수식
신곡
장병
처리가
하려
##제어
##스키는
##명도
##토키
##주도
##발에
##측이
##공파
##천과
##ats
모두의
제26
편집은
국민이
발전했다
증가했다
회사에서
이주하였다
남동부
취소되었다
Frank
급격하게
히데요시의
6만
8회
Hell
가도
노보
말라고
배타
불의
심포
차이나
할인
행해
##사사
##좌에
##조작
##움에
##초로
##왔다고
##학교는
모두에게
##회의의
제2회
260
임명되었으나
언급하고
거두고
물론이고
기초가
확대되었다
전용도로
1972년에
##산업의
매장되었다
만드는데
스카우트
Ta
거처
끝을
남부에서
대책을
도도
뜻하며
문단에
번은
보이스
색상
수퍼
슈투
안됩니다
여자가
여자를
오해를
정관
조수
총기
추론
크기와
형벌
후백
##pect
##기시
##토바
##교류
##어류
##브와
##ois
##받았으나
##련을
##삼존
##ware
출연한다
발전한
Chong
추정되며
공항은
모터사이클
중시하는
객관적
NBC
first
may
궁내
남송
내포
눈물을
대머리
도구를
도구로
뜻에
송환
시네마
신문에
써야
와는
의성
인체
자코
줄리
중랑
차로
코네티컷
##설의
##숙의
##노미
##등과
##작업을
##순에
경우이다
문제삼
등장하여
클럽으로
단체로
정신과
정상회담
나와서
힘들다
세계대전이
European
5인
9일부터
K3
YM
귀여
내전이
무제
박찬
살면서
안된다
오가는
이랜드
참배
최영
출제
평원
폭력을
함양
##역인
##개정
##I는
##후는
##치카
##남의
##걸이
일본서기
만들었으며
포함되는
영국을
국제선
인정받았다
정의하는
찾아서
일반적으로는
조지아의
성격은
가입하였다
유로비전
받아들일
조정에서
동의합니다
현재까지도
웨스트민스터
인테르나치오
GR
RC
Tor
기입
반도에
셀틱
옮기고
의자
체제는
타인
##주사
##미래
##개미
##배치
##피트
1970년에
행정부
내려와
투표에
1877년
안전하게
안동시
이마가와
콜론타
5일부터
Div
Ir
공적을
내린다
비는
순서를
음운
피살
한자를
형이
회사로
##버가
##사들은
##하이드
##EA
##표준
영화제에서
가능할
관리에
230
출전하면서
드라마의
알렉스
라틴어로
Blue
신화에서
디자인이
캄페오나
Digital
Max
것들은
공로
나우
보령
살기
오일러
왔으나
윤선
정박
제명
탐정
호투
##지였다
##호에서
##box
##려야
##arn
1981년에
조선에서
있었으므로
사회는
이상인
연구로
리그는
축구단
러시아에
지원했다
지구로
기여할
지지하였다
##적이거나
2001년부터
저작권이
조약으로
거주하던
1859년
000년
프란시스코
##인가요
복음주의
General
뒤집어
바빌로
맥스웰
토스카나
오마이뉴스
1주
Dis
kt
군과
두터
떠난다
소작
원심
유영
입자의
작위
장녀
중에도
크기로
##카게
##시인
##포인트
##BN
국가들
있었기에
사건에서
연결을
태양계
유니폴리
거두지
소개하는
북서부에
나폴레옹은
누군가가
마카오
By
간결
구명
기가
대진
몇가지
방공
복속
세번째
신학적
염소
일정을
##31
##주머니
##군수
##혁신
##구스
##작전을
##네임
##때까지
##몽골
##컴퓨
생각하였다
2월부터
선거구로
교육이
요구한다
그것이다
근거는
선출되어
떠나게
1982년에
지식과
김정일
현상이다
논문에서
효고현
요하네스
27년
Human
PL
드레
무도
이만
인테
인재를
정변
치아
##그는
##급이
##EST
##당했고
##품에
##강도
8월부터
아이의
지원하였다
생산되는
형식이
##oung
전설적인
플라톤
대의원
무죄를
장로교
홈경기장으로
##sych
켄터키
2승
wik
능력과
다뤄
보기도
브룩
상식
유태
이호
장본
##협상
##ration
##여지
##적일
##lor
##보이는
##지향
##급은
##워즈
##황은
##탈을
시작했는데
활동했던
연구하고
##위원장을
##입니다만
나타냈다
결정은
변경된
발전이
##ops
국회의원이
달성하였다
증거로
인수하여
광복군
김종필
알고리즘은
브레멘
마르크스주의
플루토
bullet
1권
Ever
Ros
건안
규정은
기이
기차
능력에
독살
마에
만루
발로
불거
손오
수하
스몰
신지
에페
유이
전면에
정세
주었고
직교
취리히
페레
항만
혈관
혼잡
##메드
##0년까지
하나님
spec
계약에
사랑방에
지배하에
히로부
also
공부했다
태어났고
이뤄졌다
가끔씩
##훈련을
Fe
line
omega
구약성
기권
넓고
노랑
당수
말리
비토
생선
외삼
재편성
재계약
점으로
주동
질서를
채굴
휴양
##제조
##rt
##브러
##소방
##구장
14일부터
13세
가능하도록
부분과
언어와
전해져
교체로
임무는
##ruct
IRC
꼭짓점
역사비평사
Rem
UR
With
가졌으며
것만
기종
산하에
아들과
알림
양식으로
위법
의금
족의
청문
행한
##이시
##짓는
20세
만들지
기술에
출전했고
적용하는
시행되었다
복귀를
조각을
출마를
##eek
싱가포
솔직히
모닝구
3라운드
Doc
Law
간사
반려
사비
주며
지식의
##달이
##악단
##uf
##메니
##선택
##노르
##급한
##VA
위치에서
생각하자
사회과학
나라로
##기관에
##ersion
교황청
제시하고
드러난
달성한
브루클린
홈페이지에
Carl
##텔레콤
1남
Tw
부리
부조
사교
에글
와타나베
완비
외손
이창
적자
팬들에게
히노
##여행
##묘한
##빨리
##하기까지
아니냐는
incl
민주노총
표현한다
확인하는
시리즈가
##주시기
소설의
재판에
수학하였다
textstyle
GFDL
2위에
4승
KD
뒤덮
모를
발자
비긴
자부
제왕
지켰다
질투
토미
풍경
하실
회원으로
##마리의
##burg
##광고
##런의
##길의
등장하고
000명이
그것도
환경이
사라지고
작용한다
발언은
떨어진다
제도이다
매일경제
USB
그랑프
악의적인
##무스메
MD
Media
disc
강성
것들
구원을
글과
끊어
반민
사생활
서리
속보
육군은
임기는
직무를
파충
해군이
해안을
##tain
##학위
##이론
##현동
##적한
##국도
##차트
##예수교
##때부터
1986
16일부터
가능하고
##시키려는
제국주의
개념의
모양인
##htt
주도권을
출발한
성향이
세웠고
보냈고
조용히
폭넓은
저렴한
Martin
내구
도장
별명으로
설교
시켰다
없어진
요양
자존
종파
충성을
치뤄
탑신
파시스트
휴가
##리스는
##신앙
##업자
##구니
있다며
대학이다
참가를
데뷔했으며
임명되고
파일은
초반부터
종목에서
얼굴은
고전적인
공부하였다
이시카와
높아졌다
근본적으로
간행된
여운형
게오르크
인플레이션
클라이맥스
경복궁
몸길이는
천연기념물
pe
객실
거란
구례
국의
네모
다우
로테이션
마테
배양
변수를
복위
부르게
선양
에이지
원동
인코딩
제재를
##IX
##배의
##빈이
##리아스
들어선
발표하면서
전투로
상대방을
유명하며
항공사로
비슷하지만
사고의
마법의
강점기의
할아버지는
그외
김도
물체가
박재
백만
보도를
스어
인위
조조가
황색
##티미터
##방법
##데스는
##절도사
##태는
##Dae
10량
활동할
감독직을
아이젠
구성되며
불과하다
아름답
사가미
메디치
프레임워
German
3단
Dem
결렬
과다
다수를
볼프
빈민
소를
쉽고
신숙
영역은
이석
인하
일생
화면을
회장의
##전에서도
##지상
##EX
##변경
##생인
##코어
##남면
문제점이
##리그에서
사망하면서
제공하였다
이승만을
준비가
준비하고
슈퍼컵
고속버스
450
1세대
증명하였다
6699
해운대
##슬라프
hist
공지
과는
나면
마에다
며느
모라
무네
밝고
부인은
선대
손해를
수군
시원
시대로
열거
예로부터
완도
잔여
전범
집이
천체의
청일
##역이며
##cus
##졌습니다
##형사
##OK
선수와
대학이
설치를
이루어질
인정할
투표가
친구로
결승에서
조약은
모르겠네요
불안정한
연대기
Adv
1인당
아나운서
위스콘신
4분
8000
back
기분
리쿠
발송
브루스
상세한
일주
임기를
입장은
캄파
패하여
##타리
##크레
##S의
##탐정
11일부터
프로테
이용하면
발매되었으며
이미지가
임명하여
인정한
##ula
행동의
이끌었고
분야는
판단하는
League
신체적
자택에서
브란덴부르크
J2리그의
오세아니아
에른스트
오클라호마
6699ff
8번째
B의
East
House
Jack
Post
가가
거병
건네
낮고
녹음을
능가
땅의
랜덤
로트
맞배
못하면
변모
빨라
성인이
세바
조동
처한
효력이
후베이
##실점을
##관한
##독일
##곡면
##두가
##북면
##era
자신들을
당시부터
국가들의
활동하였으며
개발하는
사실상의
문화예술
로마자
기능과
오른쪽에
##illa
시설이다
종목에
고전적
Def
blue
거래를
##조판서를
What
메트로폴리탄
31년
NAD
Ul
근원
낙랑
라울
미친다
반감을
배재
별도
사나
사정을
상사
얻었고
취향
포천
홈페이지를
힘에
##통감
##모어
##웨스트
##먹고
운동으로
##unk
언급이
제시하는
미술관
경우에만
주둔하고
Heart
BL
PP
김우
나서는
동적
맞물
명왕
발포
소선거구
싸운
연대는
종래
측량
캐논
패트릭
##미나
##EFF
##광은
##링의
1970
공격한다
교육부
학생의
##드리게
증가하였다
사라져
근무하는
부모를
일치하는
무게를
준우승에
##홈런을
무실점으로
##거든요
E23
격자
고층
무찌
백지
복무를
##고지
##노카미
##오게
##검을
##주의자들은
관리자를
영향은
형태와
운영한다
없다며
인정했다
2000년부터
부족을
2세대
어렵다는
범죄를
포지션을
북동쪽으로
부진한
747
받아들이는
문신이다
브레이크
하노이
0의
금환
대전에
도약
모던
바쪽
변이
오사
완수
출구
치다
퇴위
##로쿠
##36
##OU
##농업
##쥐는
204
발생하지
로마를
있어서도
지속되었다
데이터의
김일성은
펼쳐진
본질적으로
화장실
대단한
회고록
인터페이스를
##ictionary
7일부터
ev
간도
금액
단계의
따위의
목요일
문교
삭감
생물의
온실
적분
팬들은
호모토
##덕여
##수송
##기반
##가며
##회담을
##달마
##분쟁
##지스터
##바와
##처에
##처벌
##언은
프로방
제1항
연구소에서
2010년부터
시리즈에서는
##unt
서비스의
헌법은
그대로의
들어가서
##센터는
원자핵
##ffect
박정희는
스탈린의
저술한
mon
간파
곳이었다
꽃을
막강한
만력
믿음을
비추어
성경의
양자가
유역
익산
재가
천장
헌종
홍익
##절은
##품과
##블릿
1949년에
연구한
표현으로
보고되었다
##모토는
Ref
##회사인
##스키가
정착한
오리건
##ulture
Grand
피아노를
##청년회
캄페오나투
6천
Tri
your
노골
당신이
듀오
병과
알프스
앤디
원소가
인류가
입지를
재회
함을
호랑이
후대에
##비안
##개와
##법적
##텐셜
##갈색
1987
2010년까지
만들어내는
멤버는
명령어
결성했다
등록되어
위험에
나무로
탑재하고
##전쟁이
평양에서
격파하고
원내대표
국가정보원
8번
LS
Ox
ge
기질
다치
단결
로런
버라이어
생원
여왕의
영월
쿠빌
타임스
피치
해시
후자는
##1동
##기며
##인터
##75
개발자
참가하게
기능이다
판단하고
추정하고
임시정부의
IP를
장애를
로스쿨
다니고
문헌에
선전포
멀티미디어
띄어쓰
COM
가설을
강변
교부
기사에
내다
당신의
무방
변광
순종
실정
쌓고
입찰
지위가
총사령관
파업
확대를
##체계를
##찬은
사용되었으며
연구소의
대표의
프랑스군은
만들어졌으며
인물과
대체하기
1999년부터
집합은
야마노
다카라
작가로
넘어갔다
##상태가
돌려보
##레타리아
2사
거머
걸맞
결론이
높이고
대주
매스
병력은
성리학
수년
순찰
신군
아들은
연료를
오우치
진전
천태
출자
합당
##aff
##건으로
##룡의
20세기에
가지를
##회의가
##omb
##ington
자유가
2013년에는
이곳의
나누고
맞이했다
끌어들이
패럴림픽
샌디에이고
7개월
Russ
가량의
결장
계의
공국의
공장이
녹화
됐고
물은
본작
부름을
세키
신민당
에노
집단을
코리
##무와
##보도
##백화점
##골이
##암이
##열차가
##더와
##헌은
세계가
##ison
방송통신
상대방이
Station
점령하였다
규정된
마련하였다
심각하게
##투쟁을
550
ES
If
Und
its
강렬한
면모를
모리스
몸은
아레
월터
이조참
장관으로
칭기
팔을
##스프
##아미
##무관
##오면서
##션이
##남매
경제에
평가하는
Street
종교를
정당인
규정되어
식민지의
도착하였다
##하시기
5년간
센터에서
마리아의
문자열
플레이오프에서
체계적인
그때까지
함경도
306EFF
Are
Hall
거창
골짜
나바
도우
목사가
바야
세키가
시선
쓰네
위백
일입니다
재개발
주식을
포식
##대통령
##m로
10억
1979년에
대회인
##ental
운동가
대해서만
제공된다
자연과
지배권을
표기법
비행을
지침이
재정적
올리브
장착한
함수이다
##유가행
Island
세종특별자치시
8량
FBI
강사
눈의
단사
당한다
배의
성화
속하게
신경을
인프라
입자가
지그
책에
한두
항생
##철학
##복과
##집이다
제199
상태입니다
2011년부터
##imedia
노동자들의
표시된다
대응하기
세력으로
8강에
캠페인
홈구장으로
안재홍
5가지
구을
릴레이
아편
월경
자궁
질량의
차차
통제를
필살
한가지
한마디
##비크
##메스
##능력이
##배에
##운송
##디자인
##없다
대해선
자유한국당
##정보를
지적하였다
설계한
바뀌게
##나무는
모르겠지만
계산할
논쟁의
후손들이
북동부에
플레이오프를
승진했다
나왔고
동성애자
용산구
아닐까
https
브래드
영등포구
Henry
2세를
ON
간을
국문
규장
다닐
답을
매표
바쿠
보로
삶에
소현
소부
수증
없으니
예수가
우의
윈난
작다
제도로
중거리
콜럼
포화
혁명으로
형이상
##아니
##버스의
##aut
##사르
##어머니
##금속
##학교로
선수인
역사학자
경제가
##ota
변경이
##ump
건설이
월드컵을
마음으로
데이터가
에이즈
행사할
##정책에
카메라를
신성한
남양주시
##해주시면
마천루
헬싱키
26년
4일부터
BB
구역은
기를
동거
버리는
보자
사생
상가
상습
원장
임금을
체스
파주
표결
휘두
##대행
##보존
##지라
##구락
##구조를
##리그에
이유에
계획하고
280
적용하여
구분한다
해석하는
회의가
Enter
헤르만
파생된
카디널
유식유가행
랭크
민중의
순항
신은
영사
이계
작중
재구
풍습
##링이
##질서
##규의
##율로
관계의
##이스케
여성들이
삭제하고
설명하였다
오늘의
예정이었지만
가로질러
정체성을
지바현
객관적인
글래스
##elopment
프랜차이즈
Let
letter
개정을
기자로
부자
분파
우쓰
전단
정거
주선
지대에
침례
코드는
##아노
##리기도
##원사
##상인
##노세키
##해로
##력도
주장하면서
인물에
마르셀
자동차를
아내와
글로브
도서출판
취급하는
트랜스포
갑작스럽게
영등포
ap
po
겨냥
과제
금정
시도는
장점을
접두
좌천
투수를
호찌
황소
히브
##ih
##ira
##동쪽
##공정
209
1984
사회민주주의
지방도
추가한
개념에
500여
서비스이다
정상적으로
천안시
마이애미
신시내티
가선
강진
기마
대인
루키
면적이
분홍
사안
설정이
세조의
진단을
출루
한산
흡사
히카
##그의
##그림
##지에는
##목사
1975년에
국가에서는
9월까지
방법과
##agement
공연이
제한하는
불구속
복귀하여
중재를
다르며
엄청나게
두꺼운
##진상규명
CT
Land
Mo
감동
과감
광년
귀순
깨어
노원
님은
뛰는
모아서
바젤
방에
상단에
않으면서
앨라
열리고
예일
전자를
할지
##제일
##기동
##가야
##명에서
##교인
##보며
##장치를
##건과
##유와
##잡지
##질적인
##압을
##값이
고려할
결혼식을
통합되었다
2000년에는
단체에
국립중앙
결성하였다
연기한
성립되었다
##고등학교와
아내를
기억이
수입을
1789년
##other
제17대
under
스리랑카
transl
치렀고
안드레아
hPa
non
결여
덕에
로써
루도비
마세요
면직
생도
성악
세울
속하지
속성을
스즈
원효
입상
정재
진실을
쿠퍼
후자의
##타니아
##설로
##할린
##욱은
##끄럽
기록했으며
위키백과와
구성한다
##시키거나
인도양
항공우주
사상과
저작물
분쟁에
아시겠지만
위치해있다
부탁을
남서쪽으로
저명성을
도쿠시마
주기적으로
영혼을
##appa
Mov
act
근사
났다
동물을
병에
성수
소아시아
양은
정칙
천하
청사
표창
현무
현이다
##로에서
##gen
##44
##소리를
##오닝
##규가
##강화
사용해서
제작되어
발생하자
추가하여
음반인
경찰청
Information
추진했다
결합된
독립운동을
비틀즈의
##duction
가락
갖가지
마구
볼록
부대로
아열
연주를
와이드
왕궁
외부에
이들과
죽여
지시에
취했다
크기에
틀어
패해
##다발
##ms
##포럼
##구단
##E1
##작업
##천에
##란과
##운전
##째인
##있을
##슬라브
##혔고
그러고
들어서는
개발은
사실로
조직한
정보에
생산이
거부한
성격에
나타나며
임진왜란이
열대저기압
플루토늄
가했다
거미
김치
내에서의
넓혀
도르
면도
백업
변한다
사단은
아츠
임계
정려
풀백
##연과
##스틱
##타에서
##정적
##문화를
##성향
##해석
##형문화재
##빛을
##링겐
##ori
시작해서
사람들도
아이티
게임과
민주공화
런던에
##사회주의
갈라져
다녀왔다
제15대
아즈마
Fried
유라시아
리베르타도
1단
Lab
MT
것에는
국공
디나
변한
보한다
손쉽게
아이다
왔고
의장을
휴게
##타에
##신당
##링크
##0년에는
생각해보
발표를
방송사
their
선거의
유럽에서는
데뷔하여
방법의
대학교와
발전된
##적이지만
작곡을
거부하는
드래건
보여주며
바라보는
코로나바이러스
##anced
연평균
보헤미아
캐서린
탄자니아
ChongDae
5명이
공기를
관성
나츠
넘버
단위의
도리
드나
미군은
백신
법적인
사투
석불
시위에
실사
죽임을
청탁
취직
학력
함대의
휘하
##버려
##행위에
##표에
12일부터
##km로
군사정
2002년에는
분야이다
변화하는
자료로
의원들은
왕국과
1858년
블루어
동원해
니콜라스
화합물
비잔틴
라이프치히
5호
결탁
고후
나인
농축
미수
벌써
법원의
비지
안겨
애드
위쪽
준동
쥐고
질병을
털어
테란
투하
평형
##청소년
##방과
##방지
##소인
##건축
##단체가
##범이
1974년에
아이들의
개최했다
상대가
바이마르
##unn
그림의
파견하였다
주인공의
##ights
태풍으로
정차하는
양자역
등급을
싸움에서
꾸준한
심사위원
선제후
Global
허드슨
8개월
가면서
마포구
반동
반탁
실어
야전
요리를
의도가
일인
주십시오
질소
튀어나
한자로
함대가
후난
##아비
##미아의
##내면서
##마니
##근과
##CO
##할지
##유전
##외국어
##익은
조선공산당
##회의는
돌아갈
언어에
영토에
지하철의
배경은
확보하고
보아야
것이라면
적합하지
최하위
Pan
뇌의
단계는
대백과사전
변혁
부전
사민
서구의
수다
스스
심어
오만
오르고
유위
진주시
커리
퍼블릭
행성은
##개념
##생성
##예정자
##투데이
선거에서는
참가자
드라마는
##cm의
2개를
관찰사
목적의
김성수
화성시
생기게
##ittle
##ification
안장되었다
히브리어
Camp
Sound
감추
걸었다
고노
군림
기금
뉴잉글랜드
동진
듣게
민감한
북중
영상이
일체의
출정
태도가
테베
팀들은
하워
한참
##기부터
##ram
##무에
##네트
##모양
##란데
##디드
##율과
##리아가
조선후
사용자분
진행되며
제공되는
차지하게
제3의
2002년부터
선택하는
방문해
권한은
주민등록
영토의
접근하는
재판에서
바람을
##201
나서서
사항에
김일성이
동성결혼
파악하고
로스앤젤레스에서
대법원은
갈릴레이
##아파트
에글린
Les
Rob
ob
공사에
교량
까다
논산
박은
보너스
성산
언젠
일행이
전리
주기로
초당
학자들이
##좌랑
##P는
##64
##조사에
##안타를
##너와
##머가
##투표를
나타내기
방식과
메이커
폐지된
주도하는
등록이
나뉘며
1812년
도와주
읽어보
무함마드
Fed
Lo
가혹한
공의회
노무라
동향
물류
벤피
보이기도
식년
오미야
외면
집전
착취
해역
##레븐
##M은
##ua
##보스
##노트
##술이
##죄를
##충의
##궤도
사람이었다
이름공간
중심지이다
대회로
##대학에서
비롯되었다
도쿄에
통합된
산업이
500m
일제히
소개되었다
언제든지
전설이
차별을
선보인
컴파일
Radio
세키가하라
28년
4층
Sn
Vis
계룡
고도의
글리코
닌자
못하며
보였으나
삼림
섰다
속편
엘레
##버스와
##플을
##저널
##누아
친구들과
제5대
에스컬
가로막
붉은색
지시했다
##레인저
보건복지
시상식에서
방정식
휴대용
MVP를
박헌영은
천도교
쇼핑몰
인플루엔
이규완
Ep
KC
hel
다닌다
달라는
당진
대차
리바
많기
못하자
무차별
문단을
산업을
시이다
싶지
약사
에인
에두
여고
외관
원조를
이걸
장자
재구성
정호
창고
초의
추궁
힐베르트
##1계
##라디오
##파일
##우스를
세계는
변경되어
이해하지
증가한다
시민권을
개혁의
연주하는
없어졌다
배경이
지키지
베를린에서
단단한
2남
Cat
EF
RA
군인이다
남부와
셔틀
신간
신학교
어시스트
여주인
이숙
취해
침수
학문의
합하여
행하여
후추
휴식을
##레스트
##일식은
##전철
##부에서는
##중계
##바에
##딘은
##arch
1963년에
비판의
##osoph
전국에서
1879년
유대교
어렵고
대항하기
요코스카
##지정문화재
백악기
평균자책점
Times
sur
거라고
고로
구내
구슬
눈물
리포
명제
목욕
무분
바리
세컨
여자의
온도는
왕자의
이별
접합
파문
학파
호스트
##스텐
##토에서
##지로서
##록대부
##베스트
##번역
##크리
##째로
미국과의
##oma
교육은
##ida
##스크립
2003년에는
형식이다
뉴욕에
시민단체
방문하는
그림자
에너지는
발행된
나타나기
종목으로
나카노
White
##출판사
풀려났다
##줄기세포
A는
ED
sec
가든
근교
당은
등지에
밀도
베컴
서류
실력이
썼으며
알리기
온대
운전을
전과
출항
편성의
한문
협회는
호모
##기소
##카에
##부키
##시트
##독재
##임시
##날을
경기이다
하나에
데뷔하였으며
사망한다
라이더
기능의
출시하였다
만나고
중단하고
반복되는
합의가
오리엔
공통적으로
빼앗아
Franc
급속도로
시직경이
무서운
조소앙
모닝구무스메
공군은
그릴
꼬마
남로
뉴올
대우를
때만
반항
오인
옥천
이요
이희
집회를
파리로
학회
향신
화염
##버리고
##화도
##칸의
##oria
프로에
경기장은
1978년에
제작자
##aster
아닌가요
학교로
언어에서
태양이
유전자를
그린란드
윌리엄스
##스럽고
단백질을
장착된
조카인
일본국유
클레멘스
소현세
att
데다가
리비
명과
복식
부지에
싶다고
쌍성
오일
용해
의주
전에서
친환경
칸은
키릴
타츠
힘은
##전국
##거리에
##ination
참여한다
##시키려고
자유민주당
항공기를
기독교를
저작물의
재직했다
Encyclop
고문으로
##왕후가
자랑한다
테마로
모으는
서스펜
다행히
메소포타미아
2량
Jac
공덕
루비
명성이
범람
열렬한
웨인
적에게
증강
지체
판이
해보
##전서
##화에서는
##개소
##번지에
시작은
대한민국에는
대표적이다
요구되는
정의하고
내각은
1854년
개봉된
마쓰모토
혼란이
포도당
임금의
어깨를
두드러진
1급
FR
Lim
Pap
공병
금천
등에도
불로
붙이고
상한
에마
유선
잃어
자수
장치의
조경
피사
항등
화북
희귀
##층과
한국프로
역할도
시절인
노르만
출생하였으며
은퇴하였다
세운다
인종차별
고고학
곳곳에서
YMCA
에글린턴
Bon
cor
격상
귀가
리프트
보정
어든
어나
에나
울프
이므로
인생을
절약
쪽을
초중
총애
커져
크메르
##아에
##oid
##55
##퍼런
##격의
##ering
계속하고
생산하고
학생회
건설에
노동자의
싱글은
정신이
의원들이
시도한
##시키고자
45분
1801년
확정된
일시적인
알찬글
개그맨
부에노스아이
검사가
그들과
나간다
낮게
내었다
대청
땅이
땅에서
백혈
법원에
본존
서클
자리가
장시
판을
##학습
##화합
##조사에서
##2동
##영사
##술은
영화와
사회인
차단의
##osQ
FC와
기관지
사업가
초대칭
전해졌다
왕국에
여객철도의
비난했다
측정할
트랜지스터
기소된
장르를
서사시
3기
mus
sq
도저
두번
반론
센서
어제
온도를
유스티
은둔
이브
자객
카오
포에
해전
##제도가
##가락을
##이은
##문서에
##urs
부족의
위원장을
320
마련한
집단으로
원작의
표제어를
고성능
원숭이
상파울루
7명의
A와
CV
대좌
메틸
명륜
민원
산인
쇼난
안토
오자와
용맹
조항을
주성
중신
진언
징계를
총통
타우
##티넘
##렌의
##보조
##산염
##민속
##란에서
##ora
나오는데
바로크
선택하여
출판한
이야기이다
연주자
사령관으로
김일성의
한반도에
파악할
지내다가
펼쳐져
예전부터
여론조사
발라드
스파이더
동치이다
파푸아뉴
최고인민회의
##바브웨
버라이어티
앨라배
2번의
3량
Bill
Way
강으로
골로
공상
날씨
넘지
둘의
머리와
상설
순례
시체를
시멘트
쓰이며
아핀
이대
짐바브웨
##경보다
##효율
##루트
##관측
##번호를
##B는
##먼이
##린저
##주의로
1985
##ico
만들게
대학과
추가하는
인물이었다
2021년
스페인과
대중음악
인용한
제6대
연맹의
선생이
추천을
##기간을
전공을
Cons
압도적으로
마찰을
Social
Louis
곳도
관용
내로
박경
빼고
생년
소시
원자가
월북
유재
페드로
평가는
픽셀
현에
##리거나
##사도
##타라
##TN
##위치
##근무
##빌리
##들이나
아이오와
작품들을
우승팀
1일까지
##uring
언급하였다
선출하는
##plic
프린스
초신성
해트트릭을
GL
Oper
end
골라
구도
근위
논리적
렌더
리히
배향
선별
성분이
세토
유족
이견이
친목
친분이
해명을
##수학
##철도가
##본에
##군도
##yth
##루크
##편성은
##겁게
##냈으며
11개의
시작하게
조선은
이적료
친구이자
대응을
해석이
활용할
맞이한
이후로도
침입을
소프트웨어의
금강산
제19대
##ridge
강서구
스트리밍
9세
데드
동위원
볼을
북대서양
어딘
에치고
염증
영역이
이효
저런
카니
##학술
##정류
##yt
##O는
##쳤다고
##범의
1200
만들기도
다시는
구성하여
토론란에
인정된다
졸업생
과거를
50m
top
사무실
바다로
출입구
붙잡혀
그레고리
시트콤
em
감축
강타
거시
구부
다는
문하시
바쳐
불충
서위
수번뇌
스은
여긴
정조의
제리
피처
##71
##결의
일본과의
18세기에
시작하며
1968년에
문제도
사회민주
##부분이
발생해
아버지로
다이빙
선발되었다
##riev
구분하는
가문과
제품은
Alt
넘어가는
사례로
무엇보다도
남동쪽으로
##축구연맹
테러리스트
공헌했다
지칭한다
엄격하게
자릿수
Just
Long
괴뢰
금동
능력으로
민요
바비
반감
발리
배로
배분
버진
서예
소사
않기로
역학
완행
종친
찬반
태조의
퇴출
호로
호날
##다람쥐
##지배
##시프
##2가
##ky
문제입니다
##ents
자연과학
올라갈
우주선
세포를
인민해방
아르헨티
한때는
멸망한
당사자가
싸움이
텍사스주
##프라이즈
3승
9번
Que
av
two
마태
민씨
반격을
버드
비싸
손수
슬램
아지
않는데
알마
오차
유카
테살
파격
##레에
##봉이
##쇼에서
##E는
##란한
##헌의
##혈을
##하고도
되었기
받았다는
분류한다
##경기장
수록예정자
수비수로
수립을
상징으로
받아들인
조정에서는
1793년
이자겸
대승불교의
##직할시
3번째로
Over
kappa
것부터
곡인
기계를
삼위
에히메
위나라
일하였다
창덕
추세
콜드
통신을
함수가
합천
##온과
##2회
##탄올
##림에
##값은
##쾌한
##lection
들어있는
##ros
지구로부터
##raft
종교는
관리자님
##overn
지적하고
유니버스
하이브리
남서부에
이민을
##시설이
승진하였다
##플레이오프
사냥꾼
방정식을
초록색
농어촌
고르
긴밀한
깨한
날개를
노다
라벨
리믹스
물의를
심해
운명을
음의
잡기
적에
절차에
정언
테무
편이며
훈민정
##화산
##왔을
##투어
문서들이
개발과
중앙집권
승강장의
분야로
클럽이
투표로
네덜란드는
제기되고
세포는
자동차의
교수와
방해하는
패키지
미야기현
뉴올리언
EA
Ju
데쓰
부부는
불문
비를
스킨
신안
어차
외동
정명
조준
할양
환관
후미
##3계
##방정
##거와
##채의
##갔다가
##극이
생각되는
##oud
25일부터
시스템과
내려온
추진하는
포르노
분석한
영토는
경쟁에서
4년간
무엇인
합의했다
반발하여
포항시
엘리자베
브레이브
노트북
부다페스트
슈투트가
간판
같으며
계략
담양
대면
둘을
마애
명분으로
밀고
박인
세대의
소홀
왕가
전류
코퍼레이션
평소에
형편
히가
##합성
##hr
##지이며
##뿐이다
##순으로
##각에
##필레이션
##듭니다
중심부에
지방선거
##urt
발전해
생성한다
시도하였다
##ians
개봉되었다
개막을
한번에
##로그램
선생은
호텔에서
Road
##ING
##살이풀
모노이드
로맨틱
4의
8일부터
Leg
구가
군주의
권력이
그도
남성과
네브
독려
동호
마도
몰도바
벽을
복종
비하면
스바
양국은
잔인
필하
하후
##협회가
##원장
##소나
##DC
##탄에
##탄과
##모르
##쿠르
##셨습니다
##멕시코
##5년에는
발견할
결정적
스타트
데이브
나오기
싱글을
지지하고
2001년에는
비교하면
Inf
##센터에서
비용은
중립을
뉴질랜드의
잇따라
Summer
한가운데
Cop
Dictionary
교우
길드
내기
무과
미생
변질
봉기를
성지
셀주
손자인
아저
일하던
입구에
정했다
카보
탄수
테리
##본부는
##oom
##른베르크
##영상
##끼리의
이후는
17일부터
##olit
아이오
23일부터
싱글인
선택을
좋아하고
은퇴했다
1851년
남편을
불과한
##기간은
##통합당
로렌스
행복한
망원경
America
서재필은
자메이카
2에
Fin
가두
기구를
다짐
로드리게
무수
문자의
수험
신촌
싸웠
아킬
압수
양재
조우
커먼
통로
행성을
##인구
##사항을
##화경
##of
##위도
##란으로
##겼으며
##ality
30대
음반이
체결한
1857년
게이초
편입된
올리버
삼각형의
이성질
세르비아의
개찰구
##ethod
한양대학교
최성기를
##플레잉
60년
SG
il
가스가
구강
노르트
롤플레잉
마켓
막판
많을
민영화
서광
소탕
시미즈
작게
줄리아
직관
하류
호가
후견
##캐스트
공격하고
##rov
확인을
100명
드라마로
수행한
기업은
기업으로
교황으로
판매하고
활용하는
재직하던
1839년
소수민족
병사들이
취득했다
장난성
Organ
허위사
##스러워
news
일조했다
알렉산드로스
국가보안법
아랍에미리트
5억
8천
Econom
같다는
곧이어
공소
구루
띄게
라자
부주
생생
소음
어미
작전이
장단
찾은
키르기
피셔
##일스
##면허
##파운드
##록에
##시미
##츠에
##IF
##곡과
##답을
기록인
들어가지
사회학
중국공산당
위키백과에는
관리한다
프랑스인
참여했으며
진행되었으며
분류할
요구한
지난해
국회의장
부정적으로
##사업에
탑재된
공유하고
승진하여
##개혁을
히틀러가
정체성
신도비
가로지르는
크리에이티브
도저히
2경기
Ast
Mill
his
교사가
누락
뉴클레오
다고
다채
대하
따랐다
변해
병원으로
샤이
아칸
전선을
전선에서
페라
학업을
휘는
##레네
##경궁
##마뉴
##속은
##눈에
##막에
1971년에
문제들을
5월까지
##inger
이유도
분리하여
물질은
출생으로
가능하다는
조성되어
학문이다
사단법인
연습을
프로이센의
전두환은
부처의
박헌영
기공
대광
동두
리모델
백운
성희
스커
스나이
알비
여론을
원했다
저조한
줄이
쪽에서
초회
컴필레이션
포스포
##제도는
##전화
##거스
##바오
##후로
##랑의
##차인
문제점
운영되는
이탈리아로
돌아간
출연하는
운행된다
2005년까지
건설한
판매되었다
제기된
규정하는
물질로
공항을
##mm이다
동료인
비난하는
베스트셀
번갈아
절친한
Camb
관철
관문
낳는다
내게
농성
드로
레몬
머리는
벽에
봉수
봉황
아드
없네요
에그
영미
유계
의례
전당에
지점을
처칠
충당
코이
하네요
학문에
##로스는
##MosQ
##cil
##했듯이
##백여
18일부터
시대와
형성되는
소련에
1998년부터
정당은
수록한
귀족들의
나무위키
내부에는
갖추어
##은행의
무장한
중반까지
건강이
출간된
송파구
위키피디아
어차피
1심에서
7000
Sant
car
list
sum
견지
높이의
도의
물자
밴드가
법으로
원세
이우
일한
전술을
지킬
초자연
취미
평화의
##실업
##장교
##E의
##RNA
##갔으나
경기장을
들어갔고
일부에
1930년대에
이전까지는
22일부터
인물인
보고하였다
유명해졌다
기본적
사고는
공연에서
요시히
결승전은
출처는
제4차
바다에서
계급은
1776년
Paris
말레이시아의
CoA
테크놀
푸에르토리코
long
공조
놓는
뉴시스
소령
수뇌
숲에서
스의
아쓰
인원은
체르
최전
판별
##버스로
##자리는
##인구는
##본기
##하리
##데스의
##름의
##격인
##첩을
##돈을
시작되면서
##ala
대표이사
참여하게
부분도
1900년대
000명을
반대한
생산한다
임명하고
환경의
불가리아의
비교할
멤버들이
##크로스
공작이
제출했다
밝히지
필요하다면
돌연변
상응하는
송진우
대웅전
아나키스트
1세를
5세는
DB
IA
가변
김석
김부
남는
넘은
단호
미트라
비석
사치
연좌
오닐
웅진
일대는
최규
허락을
##티야
##교섭
##파괴
##문고
##우병
##시카
##츠에서
##해준다
##터이다
조선중앙
1979
1976년에
연구원
하고자
변경할
270
##운동과
확인하기
설명은
적용한
관리자에
정당으로
가입하여
보수당
귀국했다
현실적인
확보하기
베이징에서
무너져
##조차도
사다하
호흡을
석방되었다
모으고
휴대전화
Network
하츠네
Pi
관내
국악
대장군
돌이
리즈
많다는
사네
샤프
성당의
스택
이도
중점
진원
추서
출품
타오
토성
한시
##아지
##eed
##준과
구성이
##부분을
소련을
##연구회
주변에는
소유권을
오르지
노부나가의
조종사
타율을
시나노
나폴레옹의
세웠으며
일방적인
클라이언트
컴퍼니
나미비아
29년
2단계
6명
DA
경종
고쳤다
군단은
데포르
띄고
림프
방면의
배아
백화점
뱅크
세르게
옹정
왕당
위축
이그
재빨리
절을
증축
창을
채플
천지
코로
현미
현상에
홈에서
##일인
##도호
##부대의
##소유
##감염
##ales
정치국
리그에서는
제2공화국
로마는
여성주의
표현된다
이야기로
유일의
도로의
불리었다
유전적
재판부는
1856년
Space
1597년
분명하게
양성자
일치하지
##해져서
치러졌다
미드필더이다
해협을
포인트를
깨닫고
방글라데시
맞배지붕
3위에
기도를
단판
담보
러닝
마나
맡겼다
문학과
미러
식사를
신학을
야권
원에
중상
짝사랑
철수를
친박
태도로
템플
##다코타
##청고시
##38
##방식을
##부사로
##EF
##패스
1969년에
1935년에
##스타운
전통에
피해자의
자료이다
관리자에게
부여군
Union
기후는
원정에서
받아들이고
자리잡았다
화장품
시직경보다
MR
가계
고개
누에
느슨
다쿠
달을
로우
매디
명단을
못합니다
받으면
방호
부대에
스트로
운명
일단은
장차
좀처럼
풀이
하키
한영
##행과
##화되는
##98
##요원
##단체를
##각과
있었음을
존재한다고
선발되어
피해는
실패를
구분하여
귀족의
귀족들은
달성하기
기사단
분포하는
##해주고
사유는
##노동자
체제에서
shadow
##님께서는
프톨레마이오
헤라클레
A가
Luc
feat
고기를
곡물
그간
글씨를
길어
김주
김보
나나
눈으로
닛칸
등산
막았다
불합
숭실
앞에는
애초
양서
양국의
의사의
인솔
인질로
조석
조문
직류
추계
퍼텐셜
홍명
흥분
##연승을
##수면
##동물의
##소재
##법에서는
##윤리
제작하여
역사학
형태에
출연하며
28일부터
요구가
나오며
이때의
출시되었으며
수준에서
개혁에
노력하고
공급하는
장교로
알고리즘을
선호하는
히어로즈
Special
팔꿈치
앨라배마
AH
Gi
Ig
꼭두
박사의
반하는
배드
보루시아
성적인
수와
싶네요
아루
양주군
연중
우스
유적이
체계의
카와
폐지를
포스코
한하여
혈통
훈장을
##연하게
##ple
##조약을
##바람
##해졌으며
##공로
##편찬
1983
1948년에
공격형
##omm
##리그로
##기관은
헌법이
지적한
페르미
출생한
##lymp
겨울에는
늘어나는
앞으로도
ext
장난을
예외적으로
Edward
Records
일렉트로닉
1심
과제를
뉴스를
대방
미인
바를
방탄
소가
소원
심문
와중
왼쪽에
용기
유틸
유학자
이황
카다
학업
헬로
##부대가
##균은
##엔진
##귀족
##격투
##엘은
생각하며
일부분
리그와
사실이다
인구를
진행되었고
모습과
언급된다
##모토의
##학년도
중재위원회가
제품이
다루었다
주인공은
4000
이하로
##사건을
취득한
해양수산
추대되었다
김해시
윤보선은
이오시프
RedMosQ
구스타프
군으로
궤도에
당상
마운
모조리
무르
바을
바치는
소도
승자
엄밀히
이한
지의
지위는
총격
치르게
특혜
협상이
홀수
##니우스
##적이었던
##부도
##상한
##마라
##관계의
##처로
##쿠의
##빈을
조선시대에
들어섰다
2월까지
중심지가
2012년까지
spacing
자연스러운
유일하다
공연은
최종전에서
##ape
##모토가
주민들을
고등학교의
강조하고
베르나르
종류이다
2층에
4대강
마그네
add
밝혔고
차남으로
9개월
Gar
Mel
med
개점
고모
골절
광화문
군자
남지
내에는
노리고
부문을
브롱
블리자
비핵
비옥
사에
열렸으며
중고
중이었다
지성
차장
참수
측면이
확인이
##게도
##키에
##bit
##맨의
##천동
##섬에
##놓는
사용되었던
21일부터
이것도
차단하는
추가할
표현하고
배우기
레이더
개념과
소설은
시민들은
종료된
네트워크의
##ysis
어떨까요
June
KS
가하는
구장으로
기호를
다방
박씨
본초
상계
은평
자사의
정리에
좌완
짝수
천마
출력을
피가
##방어
##부아르
##담은
##해지
##환과
##암에
##룡은
##있다는
15px
1950년에
고려하지
라이베리아
인정되지
상당수
언론사
2022년
물리적인
스스로가
내각총리
파이프
투입된
증명할
승객이
저널리스트
폭넓게
몽고메
여우주연상
6차
7천
MIT
괴멸
교제
교내
극적인
김문
꺼내
뉘른베르크
뉴멕시코
당했고
대타
대정
라디
백성을
삶과
신기록을
여부가
외모
의화
인버
있느냐
장대
정면으로
준플레이오프
태생
화약
##토지
##달을
##이동
##이신
##르스
##망원
##난에
그리스는
유럽을
변경하여
과정으로
아래에는
요구하며
평가받고
찾아온
마련되어
편입되어
묘사하고
March
##제국대학
장난감
내세운
자이언츠의
만장일치로
fil
과이다
더한
머니
사적인
악화되어
압하지
열성
오면
있겠지만
적재
지니는
초점
##라르
##철을
##본과
##화해
##데다
##공학과
##inus
##시아의
문서입니다
정치와
이탈리아와
노선과
즉위했다
벗어나지
강릉시
이념을
동영상을
총선거에서
스폰서
시부야
CB
FTA
귀신
기사는
대입
때로
몰타
무을
물었다
부응
사장이
성경을
속했다
쌍의
앤서
이선
제나라
죄로
중상을
칸이
하강
한민족
황보
##원주
##테일
##번과
##너를
##암리
##헤드
일부로서
존재하였다
이어받아
##합니다만
##이트의
레이크
기관에
데이터베이
공화국에
드러내
300여
일제에
인근에서
산맥을
3세와
신속하게
이케다
동점골을
글러브
알폰소
4세가
DOS
TA
가역
가사는
강압
계량
관저
단양
대제
마우스
면에
밑으로
버티
보육
비늘
비둘
순양함
안을
안산시
앨버
여권
오슬로
운하
의원에
인가를
인연을
있긴
잠을
제지
지브
크지
피력
##학기
##느러
##계승
##키스
##루이
##질량
##칙을
사용자들
4월까지
13일부터
이루게
방송되는
발견되고
추가되어
진출하게
프리즘
제외되었다
1995년부터
폐지되고
센터백
박정희가
의존하는
조선총독부의
기다리고
제이슨
주축이
성폭력
나눈다
세비야
몬테네그로
프로모션
1항
5위를
tri
경보
글렌
낙향
늘었다
범위에
분들은
세무
수구
영역으로
일행을
장소는
정황
중세의
진나라의
참사
캐나
퍼뜨
환자는
##3의
##이글
##도움을
##록의
##S와
##익이
조선어
활약하는
발전의
야구의
##리오는
지지했다
스페인에서
의원과
소재를
##센터를
공작의
개정된
부터는
어렵다고
레코드를
예비군
737
플래그
##장로회
산스크리트어
5km
Game
Mem
map
pop
공기업
니케
도치기
따랐
부결
부인의
사할린
수은
수단이
야수
입시
장은
전미
천리
최강의
코스트
코끼리
##gs
##만원을
##불상
##네프
##링거
##충이
##00여
##ester
세계보건
만들었는데
정치가이다
공격하기
돌아올
출전하였고
인정되는
연합을
형성하였다
지도자가
다이에
대체하는
판단이
출시했다
외교적
오늘날까지
반복하는
1849년
기계적
##사무관
Party
잡아먹
음식이다
프로토스
서해안
정유재
친일반민족행위진상규명
압록강
Ca
고승
과실
다자이
도큐
록히드
사흘
속을
억류
열도
유서
일제가
자판
자원이
재보
최경
친화
친위
캐슬
코민
타타르
특성에
##가면서
##사상을
##카테
##현감
##어하는
##세력의
##불의
##네와
##균의
##황후의
##닌의
있는지를
사람이나
제1호
##ilon
경제학자
아닌지
공동체를
지휘자
추정되고
파견했다
1800년
조선민주주의인민공화국이
전사한
늘어난
지향하는
내야수
플러그
마다가스카르
성소수자
Light
VV
개월
교대
구석기
군마
로만
말단
반정
발상
발음이
부위
분자의
불화
서고
쓰며
엔젤
연안의
오도
옮길
작가는
재조
책정
트램
##니즈
##가서
##송을
##si
##kt
##술과
##천문
독일계
설립에
2012년부터
생산한
상대성
공동체가
##ago
다이노
과학과
담당하게
##rix
판단에
통일된
주민이
Rep
##사업의
혁명에
상업적으로
남동부에
##order
16강에
백성들의
안드로메다
Karl
8만
IF
극작가
나도
내면
대서
덮어
매트
목사의
벤치
봉헌
사산
성찬
영적
예편
원나라의
정현
지명은
캐리
케르
퇴계
히토
##심판
##지수
##ki
##후를
##콘티
##틱스
하나하나
영국군은
##acter
##스와프
Stev
애니메이션을
그림과
##ava
가르치고
크리스탈
이렇다
내각을
스테판
대륙에
참석하여
새벽에
소프트웨어는
교섭을
이화여자대학교
4강에
특허를
LCD
입각한
하이드록
에스페란토
프롤레타리아
##rieved
ESP
Ol
가에
걸렸다
대파
대종
명중
베일
보상을
보도에
비약
사주
삼는다
새뮤
시우
연호이다
와다
일기로
전선에
정승
카드는
호전
흐루
##수정
##과에서
##재해
##됐다고
##채와
##강원
##혈압
경우로
활동한다
1966년에
##부분은
생산되었다
삭제할
이동했다
우선적으로
근무하였다
전개하였다
검찰에
아이디를
총선에서는
이벤트를
확산되었다
루마니아의
종사하는
시마네
콘크리
대니얼
실리콘
속보치
5층
6위
Sa
가창
강에서
과격
기자가
기체의
기온은
당을
뒤부터
많았던
맡을
백화
병마
숙명
양천
우물
인자
제철
주필
토양
##수석
##좌파
##방해
##ges
##직하고
##X는
프랑코
사회와
일부이다
축구의
관계에서
##리스와
지나고
위원회가
후반에는
소유자
예술적
수비형
근무하고
합의하였다
Show
좌우로
남아있지
##관찰사
제14대
##IVE
하얀색
techn
비단털
의약품
다이라노
Disc
Fred
ME
Mot
Ze
남이
묘는
묘비
버터
보기에는
브리지
빠뜨
사커
세련된
슬럼
조교
크며
호화
##명사
##송이
##담이
##양구
##암을
##히기
사이트의
1962년에
10월까지
알려주는
##이트는
자체로
변화의
대하여는
강화하고
논란에
드러난다
##지방의
마르쿠스
허용되지
##생활에
합병하여
##차례에
##리우스는
공군기
부친의
남극을
##해주시기
Corpor
한사람으로
Foundation
BY
곳이기도
끔찍
끝난다
넣지
님께서
믿지
삼한
새천년
수요일
신체의
심왕
쌓여
완투
왔는데
일당
중후
집은
토오
특산
퍼졌다
편성을
표트르
하세
##사우스
##상대
##시드
##바도르
##절차
##5호
##해결
##팔렌
##됐으나
##누스가
##혼의
##ani
문서에는
관리자로
공식전
확인되지
상대는
전국을
##했을때
파일이
중재위원회의
방영한
해외에서
암살을
위협이
1814년
페르시아의
부친은
절반을
타입의
##등록문화재
제16대
상세히
유벤투스
디자인의
헬레니즘
키르기스
1무
Fer
dec
곤살
까마귀
내적
라면
말투
미우라
벨리
부회장
여순
왕권을
우산
재신
잭슨의
주인이
지명이
클럭
티저
##제비
##자리에서
##렌스
##주면
##개선
##츠카
##책은
##모습
##겠습니까
##틴의
##섬유
10명
1965년에
사회당
참여하였으며
출전하며
지구는
플레이어의
Inv
아시리아
가입했다
사령부
거절하고
병사들을
800m
APG
발각되어
초고층
산티아고
프리큐어
##http
네브래스카
강연을
국기를
기의
기호는
더더
머큐
무오
민진
서신을
악기를
에바
유상
차트에
참패
탈삼진
테일
토로
편성은
표적
홀리
히트를
##스탕
##도감
##업무
##너드
##외의
##평이
##에게로
##enz
것으로는
독일군이
이용되는
##rey
행정동
열차도
작성하는
판매량을
강화군
법률의
해석할
가져오는
내각에서
강원도의
의사결
학문과
been
1623년
민주노동당
우쓰노미야
DL
경계가
구장에서
네바다
대선에서
더하여
따를
만으로
면적의
모시
모드를
발차
보였지만
북상
사명
소크라
승낙
시킨
시조로
예속
울주군
익명
임대를
잭슨은
존엄
청교도
통감
튜링
파주시
펠로폰
해왔다
##스로부터
##ME
##것에
##던가
##단백
##총을
##평의회
한국으로
기록했지만
포함하지
존재에
30일부터
이루어졌으며
States
지휘했다
파괴된
분쟁의
슈퍼스타
대륙에서
##cm이다
채택한
마드리드는
규칙은
##ender
트로피를
기다리는
일어났고
일어났을
지방자치단체
하이브리드
Please
See
Vf
Young
some
가정의
공은
과천
김구의
남기는
도가
마차
본부는
봐서
뽑는
산과
스터
승선
압송
엔리케
주루
중건
탈레
팬터
흥덕
##시각
##효과를
##테가
##오르
##혁은
##영업
##틀리
##곳의
가능해졌다
##해야할
삭제가
오스트로
산업에
##시킨다는
베트남에서
1996년부터
금지되어
근무하던
전시되어
탄생하였다
any
##슈타인은
소장하고
2번째기사
메모리얼
상호작용을
블라디보
압박을
다비드
과테말라
##ibrary
유틸리티
1명의
ver
골은
국호를
모을
목에
무과에
문구가
불복
삼형
새만
수능
아그
원유
유화
유익
이륜
인생의
입에
타밀
탁구
핵탄
혼용
화요일
##일간
##그와
##봉과
##당하게
##남은
##편에서
##ato
국가등록문화재
발표하였고
정보와
분류하는
그리스어로
노동자들이
2003년까지
클럽을
표시를
아시아에서
캐릭터는
주도이다
작가인
패배했다
무렵에는
남편과
버전이다
자리잡은
플래티넘
클라크
From
원로원
캠페인을
갈릴레오
다카라즈카
1달
1골을
HK
talk
가정을
가디언
거는
검을
공과대학
내쫓
내몽골
높으며
덕수
데니스
띠는
멘델
모형을
배트맨
버섯
법과
사신으로
오른다
요리는
이었던
죽는다
체인지
협약을
##기원
##중대
##시장에서
##호부터
##2를
##측에서
사용되기
일본어로
모두에
국제사
전투이다
000m
만들어야
결국은
생성할
##이로쿠
##지방경찰
파괴하는
살해하고
##정책의
개편으로
아우르는
절대적
급제하였다
이승만과
쿠데타로
파스칼
3경기
Dist
PK
VS
갔고
개수가
객차
계투
고압
공기가
균일
니카라
매슈
바트
버퍼
부득
부천시
북조
아흐
오영
원하지
육지
자갈
적는
정해졌다
주체가
주석을
증원
추밀
패퇴
펠릭스
현을
호치
##고스
##고로드
##무대
##내로
##광장
처음이다
##시키기도
사망하는
인정받고
##agon
전국적인
특정판
비밀을
시각이
만화이다
업무에
취급을
검찰이
3세대
법칙에
합쳐서
개칭하였다
ICBM
더블린
골키퍼로
분데스리가의
에디터
칭기즈
Gra
ja
rangle
걸린다
격침
구문
구역을
극중
달랐다
도난
메신
바늘
방면에서
세브
수서
시아
양쪽에
예금
인계
인질
재학생
조정이
진심으로
천년
테헤
프루
학창
##티보
##타자
##도도
##렸기
##오지
##ci
##민들은
##총회
##봅니다
일본군을
따라야
여러해
형성된다
정의가
적용되지
정규시즌
부여받았다
제거한
떠나고
남북조
상징적인
현실적으로
채택했다
변형된
사우스캐롤라이나
언덕에
KAI
개정에
걸그룹
구단을
느리게
덴분
멀어
모시는
묵살
미워
백남
부등
부지를
북베트남
안락
예부터
우디
유자
직렬
큐슈
흡혈
##정비
##문제에
##설에는
##득점을
##들였다
##빛이
##씩을
서울과
연구개발
방송인
선거로
가운데에는
한국어의
28일까지
사진과
국가대표팀으로
##거리에서
노력으로
합의에
장애가
부인인
일으켰고
다니던
구별된다
직전인
경유하여
플로리다주
힌두교
설일체유부의
디에고
새뮤얼
2종
Get
Hal
Nav
val
가닥
내성
단과대학
루프
모빌
묘소는
무비
물품
비야
성종의
악마의
양수
어벤
영수
이조판서
작사가
정시
티아
팔로
펼치
표면의
하얼
핵분열
호리
##카시
##HC
##부작
##였기에
##루스가
##백이
##2년부터
활동도
이용을
이탈리아에
생활이
멤버들은
500명
##ability
접근이
성격과
알렉산드
남편인
##기간이
##ugh
##oney
다이묘이다
스틸러
People
엔트리에
반민특
EM
HP
Little
Vict
견고
고난
되기를
벨트
소아
소양
송준
순위에
신분이
얼룩
예수를
오메가
위패를
정실
지대한
충실한
카드의
편에서
헤아
환자를
##신청을
##거부
##박람
##페라
##che
##나드
##쿠는
##쳤던
##곳에
##커와
것이니
##하다면
사용자들에게
1960년에
주장이다
개발도상
판단됩니다
예정된
파견한
황제인
일종인
위협하는
SK텔레콤
샤를마뉴
출간되었다
##rick
일원으로서
재능이
cdot
자카르타
Royal
코트디부아르
강우
관료로
규제를
길은
데르
레스
박태
살다가
새우
성분을
스을
시제
앙드레
애기
양양
잡지에
충주시
카미
폭포
학대
##하늘
##은하
##화되면서
##77
##업무를
##UI
##용에
사용합니다
시작됐다
15만
사용자들을
1964년에
1946년에
2007년까지
##해야한다
성공하여
제3회
15일까지
모양은
프로젝트로
들어가면
시설은
인사들을
제출하였다
1815년
탄생했다
에드워
건립되었다
예비역
사퇴를
기울였다
자원봉사
촉구하는
시그마
##플렉스
죽이려
5세의
BO
CL
Miss
gamma
sch
고성군
공사는
글자가
김시
낭비
당국
문묘
본디
비의
산은
살피
소노
습격을
영도
컬렉션
팔린
헌액
형광
희귀한
##라카와
##34
##go
##분리
##동면
##책의
##공에
##율의
##벤션
##3년에는
지역구로
프로필
존재하지만
가능하다고
유지되었다
운행하기
민족적
지상에
표기되어
비행기를
결성하고
신라에
동의하지
무시하는
중립성
국회부의
사퇴하였다
나왔으며
스케이트
오카다
commun
분당선M
호모토피
5천만
8명의
Bad
Dom
Rain
간편
경덕왕
고갈
곡들을
구비
버밍
범용
비변
서문
선물로
소라
송병
신약
안식
양성을
어사
영위
요금을
원자의
이을
이매
인스턴
출근
출혈
##TE
##화나
##화된다
##록은
##실점으로
##프셔
##머리를
##윤이
##강에서
##날에
그리스와
##로서도
256
선거구가
수도가
임명한
이끌던
반응하여
유전자의
베르사유
행성이다
char
후쿠시마현
서대문구
튀니지
##부산지방국토관리청공고
Under
2TV
fact
같군요
개축
남자는
단위는
덕흥
미미
수치를
신라는
심법
아놀
알았다
올레
일환
증발
지청
카드가
타일러
태블릿
할로
##eum
##ror
##발트
##국이다
##영에서
##쳤지만
##있다고
한국어를
한국경제
생각하면
2008년까지
사망할
계획이었다
유지되고
개인적으로는
모델과
컴퓨터와
우주를
통과할
회의는
끝나자
전후로
서술한
모토로
시모노세키
이화여
대조적으로
증후군
article
앞세워
공직선거법
더더욱
Oct
da
가시마
국세
대수의
데에서
독실한
동산
동프랑
방을
백범
번영을
부문의
안개
운임
종족은
주권을
칭호
한복
화력
활을
힘과
##연장
##비우스
##시계
##IST
##워스
19일부터
1967년에
서울신문
이용되었다
대표작
지방산
등장해
차량과
행동과
기타의
마음은
제품에
다르기
만족하는
상품의
지리적으로
메모리를
사범대학
Delta
라그랑
서포터
3번의
template
검사는
고졸
기지로
미켈
별명
불펜
블랑
스펜
영예를
오트
임종
조연
주제의
질을
처방
통킹
페인
현상으로
홍건
##레로
##스카이
##화한다
##반으로
##WA
##쓰키
##극은
##귀를
200년
포함해서
공격의
공격한
음악으로
발매한다
이것들은
27일부터
마을은
제안된
1993년부터
등록을
나누었다
바람의
330
1836년
하늘에서
사유를
한정된
requ
고립된
왕세자
내걸고
경희대학교
일각에서는
Na
now
가솔
각지를
곳에서는
도발
딸의
말려
말아야
모이
목이
반일
베를
병풍
사학
생제르
시비
시인이다
식물을
신과
왔지만
장군을
재야
찾는다
타자를
퓨처
하였던
핵실험
##대회는
##하진
##부족
##시도
##키지
##노이
지역별로
1958년에
발표했고
기술적으로
조직하였다
2006년까지
##ado
기여하는
열차와
유일종이다
받았을
##apt
움직이지
부르봉
가져올
허용하고
국왕은
참고하여
수립된
1600년
Princ
중립적인
하드웨
개조한
아카데미상
Conn
다운타운
상하이로
가슴에
김규식은
AEK
거치며
국산
당에
도끼
둘로
말해서
모잠
변성
북부에서
불투
서신
속에서도
수목
시신
연호를
예견
원주시
이기는
정중
조니
죽었고
지석
최북
##라로
##버를
##과장
##내를
##문헌
##중으로
##선발
##태자
##즈미
##뮤직
1981
1976
선수단은
##itte
생각입니다
사회민주당
이전과
2013년부터
이론으로
수상자이다
민족이
##시간은
변화와
떨어지고
베이시스트
확장되었다
이듬해에
황제에
only
지진의
업무는
규칙이
주관적인
실질적
##시험을
에어버스
내세웠다
오다와라
게시판
##ische
개명하였다
늘어나고
4집
7만
Fest
Hill
op
강이다
광서
구세
균등
기업을
단면
도어
루손
막지
문이
법과대학
분쇄
산체
서강
성추
성우는
세상에서
안후이
않던
알로
앞을
없으
오슈
완산
이등
줄임
토리
해군에
##수호
##수염
##사적
##무덤
##상수
##동기
##공사를
##됐다는
##폭격
##질라
존재한
##ouble
작품들은
조직인
프로그램과
계약으로
보내졌다
시행하고
##akes
시청자
만큼의
##ized
참전했다
과도하게
패러다
순차적으로
볼티모어
농림수산식품부
세컨드
1골
Mur
User
hom
sl
감히
건지
구역에
국적의
꼬리를
꾸미
너비
둥지를
디케
무정부
문장의
보나파
불렸으며
사장을
산청
수류
않겠다고
애착
에리
열강
의인
인피
인연이
정조는
조나
처해
출격
카슈
트레일
표면을
황산
##연대의
##나가와
##센은
##객이
18대
국가지정문화재
아이작
구성되는
235
상황과
지원하지
아닌데
모습에
종교에
##istic
TV의
교수이다
1855년
분포를
장착되어
말이죠
보컬을
살펴보
pres
추증되었다
이회창
거룩한
1개를
3시간
Olymp
Tim
my
가모
거점을
귀를
내연
냉정
논설
논리를
눈부
라미
리프
마늘
못한다는
무단으로
범위의
본따
불순
삼가
서적을
안되
약을
에로
올랭
왕릉
윤석
윤곽
자리로
정글
정체는
족보
카드로
플러스
회장에
##바꿈
##모임
##살인
##icht
##ams
독립군
설치되었고
조직에서
타이밍
지원으로
이동해
구간과
FC는
데이터는
1999년에는
교통국
정신병
작업한
자치권을
말씀하시는
K리그2
연맹이
오토모
사냥을
혁신적인
흐름에
일렉트릭
고인돌
x86
강판
김택
남경
낮에는
모피
몸과
뷰티
세군다
윤리적
의지가
일자리
조승
청각
친절
친위대
통찰
후사
##수준
##대항
##명령
##행렬
##도우
##반과
##지지는
##바우
##루즈
##술에
##왔다는
##YP
##채로
##톤을
##2년에는
##raw
아르테
동일시
여기저
오늘에
##aking
패배로
적절하게
부활을
이익이
project
거짓말을
가나자와
패턴이
1호선의
Wikimedia
바빌로니아
URL
6호
Sept
data
거스
그늘
누워
두게
루나
문장은
반하여
발광
방한
버클
사죄
산이다
소중
소중한
수있는
애프
원료
적정
적으로
중첩
청하는
축산
카리
타점
행해지는
화상
##레앙
##교원
##부정
##심리
##보전
##선교
##순을
##히며
##예산
##쪽에서
##훈과
10회
1947년에
문제이다
필요했다
제28
대통령인
대학원에서
교육과정
개최하는
활약했던
모델인
법률이
승격하였다
정착하였다
행사하는
타고난
장치이다
날짜를
착수했다
어드밴
##III
암모니아
af
공대
권제
나이를
대사로
돼지고
리본
몰입
무례
문성
병인
비참
사장으로
선인
신구
쓰루
씨족
유보
율곡
음절
일선
장신
전역의
캐치
큐브
클랜
태종의
패미
포격을
협정에
##회사는
##uff
##계통
##vin
##프스키
##태의
##국립
##불은
##책에
##처에서
##운드는
##녀와
##저작
##평면
도시형
개발되어
사실입니다
설치해
사망자가
항공의
Stad
일어나게
##ift
다카사키
위반한
교토로
아테나
##국민당
레오나르
불편한
##stein
외삼촌
70년대
Der
FS
Home
OF
Rail
Roman
aut
function
tv
강구
맡으며
무루
산책
숙박
안톤
없이는
온화한
위태
죽지
진리를
천상
침대
크라우
태워
티에
판문
합리적
##서리
##사라
##비어
##PM
##시이다
##변으로
##예의
##범으로
##륜구
8월까지
구성할
theta
비판적
Story
수상자
월드컵과
판매가
요시토
정신적인
제40
세종실록
공부하고
채용하고
부임했다
공통된
Conc
개별적으로
보니파
시상식이다
김영삼은
온타리오주
플랑크
셀주크
3호선
Down
River
Test
high
red
괴팅
국수
귀의
나시오
누렸다
대일
디펜
목동
상으로
색소
색으로
스완
시호
용량
입는다
재적
종별
캐롤
키리
탈북
##레에서
##덕은
##라쿠
##ios
##전설
##렬히
##님에게
##나무를
##던지
##슬레이
18개
문서들은
중심핵
동안은
26일부터
대학교로
2018년에
현대적
기업에
국내선
만나서
건너갔다
현실에
하늘에
계급의
정교회의
오버워
없애고
스크린도
오가며
막내로
충실히
브로드웨이
익스플로러
팬터그래
블라디보스토
vis
가급
게스트로
광장에서
구애
기압
까에
끝냈다
낭독
농작
매듭
모형은
못하다
미코
배리
선회
승을
용기를
음양
있기는
자정
전파를
절제
착안
피카
피쳐
해지
흡입
##대원군
##원들의
##중독
##오기
##오세
##되기에
##배로
##택은
##wood
##충을
##혼을
##ices
예정이었던
소개로
##rant
출생하였고
게이한
수여하는
##ART
이르러서는
당사자의
Johann
쓰러져
##OVE
기자회견에서
매사추세츠주
태평천
호쿠리쿠
레즈비언
##urrent
2km
BA
Bern
C의
M의
Omega
Sup
거처를
고즈
고바야
까지의
노브
논리학
매춘
바덴
보리스
본다면
부피
상동
선한
순천시
엔하
엘튼
영조의
원만
이극
일자리를
적인
종말
주상
차내
출병
현역에서
##손을
##협동
##교과
##도나
##유공
##예방
##쓰고
##립은
한국계
고려대
편집자가
이것으로
분류하고
아래는
이동한
공동대표
##ulation
##카이치
보통이다
TV에서
표준을
32비트
후쿠이
설정된
지진으로
맞이하여
삼각주
항목에
한정되어
타이완의
법칙은
지내며
보관되어
분노한
감옥에서
놀라게
영광을
현저히
바실리
2등
Kr
MG
Public
dist
가졌던
뉴턴의
단락
대본
듯합니다
먹이
밤에는
살며
않겠습니다
오징
요건을
우대
임오
절차가
찬탈
총선을
행해졌다
흔적
##서면
##사진
##우정
##시온
##오밍
##초와
##왔습니다
##WC
##걸로
20km
서울역
1950년대에
표현했다
표현하였다
공동의
운행하며
드라마에
##경기장에서
##rie
가문에
바뀌었고
##iffer
##ateg
나무의
좌우에
접촉을
싸움에
레닌은
가리키며
영유권을
한국철도공사
페르디난트
##정상회담
Single
셀레우
Line
Mir
거리로
경멸
끊이지
던졌다
도리어
멜라
명탐정
바스크
사악한
생성을
성간
센타우
숙주
아역
안경을
압니다
연화
옆면에서
오즈
장점
주황
탄약
태도는
퇴진
특화된
파파
펼치고
한진
향한다
현황
흐름이
##면체
##문집
##체험
##성면
##금에
##유격
그러면서
그러니까
하나만
있었음에도
아이스크
공격수로
진행될
they
돌아간다
상황이다
모양이다
##rian
다카우
IP로
아내로
주교가
검찰의
도와주는
승객을
매킨토시
펠로폰네
2급
Imp
Lu
UK
고쿠라
난입
달리고
도나우
동백
망가
매치
미생물
법제
별명은
병과로
붙는
섬세한
신발
않나
압력이
오랑
이분
제자인
중남
탄원
한해서
함정
효자
##니엄
##학당
##01
##선언을
##병마
##렉스
대한독립
##ature
##leg
연구자들은
제2조
공동체에
비판도
야구장
인간에게
승강장에
공화국에서
북쪽에서
패배하여
성립하지
공작을
상징한다
묘사된다
##ucation
브랜드를
참전하였다
준결승전에서
옹호하는
박물관이다
화살을
아미노산
신선한
Technology
리베르타도레스
420
견해도
구역이다
라인을
많다고
모태
배울
베가
본선에서
본인도
신부가
안심
안데스
약자
연산을
오피
외과
입자를
저와
제르
주면
커졌다
##인들에
##장비
##bor
##UT
##것입니다
##차게
##히어로
##범은
##견은
##칭을
현재에도
지원에
유지한다
진출하는
자료의
방문하고
##교육의
배치하고
1844년
채택하였다
연극배우
그곳의
Ext
구역상으로는
코믹스의
수수께끼의
지장보살
34년
KR
UF
wid
고취
기리는
김한
남자와
대뇌
등각
매월
방에서
베티
보였으며
북반
생몰
샤오
서아프리카
알론
옆에서
원치
유다
유폐
인제
준하는
초식
칙령
행방
##출한
##렌은
##베다
##네다
##커우
올림픽에서는
발전시켜
공간과
클럽에
선택된
##으면서도
시기였다
홈런과
조성되었다
공공기관
시내에
1796년
은행의
브랜드로
데이비스
매일신보
기재되어
개화파
유니폴리의
디렉터
모니터링
막시밀
Oxford
1점을
OR
고해
구타
기득
능숙
도화
등지
로이드
롤러
바인
법규
보천
부인과
생포
설을
아랑
애버
앨리
운항을
율령
잉카
접하는
정하여
정리는
제반
지게
지명으로
채색
측면에
치르고
카리스
태종은
홍무
##덕이
##티나이
##토끼
##달은
##현대사
##내각
##선사
##종공신
##궁에서
번째의
중요성이
운영된다
과정과
이동한다
자연적으로
형성에
##iron
기관인
승강장과
판단한
공화국과
교통이
동아리
제도에서
##ants
보컬리스트
무한한
합쳐져
무덤을
명시되어
직전까지
who
대법관
주세페
2권
37년
Bud
G의
RO
jp
가한
감탄
노사
단조
대국민
문구를
베드
부두
스퍼드
아님을
육박
윤영
자각
전일본
제정한
죄수
초나라
초전도
취한다
치하
탐욕
텐서
히스
##고사
##HT
##증후
##보단
##만화
##ker
##코치
##쿠사
##벨의
##묘하게
##학교가
##alysis
만들며
독일로
지원할
개통으로
1994년부터
분석하는
출발해
나타나게
전환을
건강을
녹음한
것이라며
불안한
##ideo
파라과
지내던
체코의
##왕후는
제9대
무관한
하시모토
AMD
흥선대원군의
기숙사
Direct
가치는
강령
기간의
기분이
나을
뉴사우스
도적
드미
마시는
무를
반유
세종의
소프
어나는
얻었으며
에이로쿠
올리기
우등
작전의
진의
짧아
침착
키타
특권
하수
현지에서
##회사에
##진에서
##였으므로
##백은
##것이다
##됐는데
##윤을
##축제
##돈이
##겼던
##렇게
##1년에는
시작하기
경우엔
##itary
##위원장으로
제작이
이어갔다
유럽으로
운영하였다
운영하던
생산에
연결하여
개최국
##osp
평가하였다
제시한다
고등학교에서
바뀌고
등록되었다
가르치
사라진다
인식하는
사태에
최다인
탈락하였다
##ftware
사다하루
달아났다
말고도
하치만
##도마붙이
등번호는
0인
Sym
Saint
mag
고타마
공백을
급기
도교
맞다고
못했다는
무거
버클리
보기에
부부가
상향
서장
섬멸
세일러
안쪽에
어스
왔다고
욕설
용접
유실
이설
이근
이들에
이의가
인노
잠비아
제물
좌의
증조부
짐승
천체가
철원
특기
핑계로
항의를
후로
흔적을
##정권을
##하십시오
##움은
##네스는
##쿠마
##렉트
사용하는데
존재하는데
독립하여
계속하였다
국민은
여성들의
반대되는
스타일로
마을버스
가족들과
연기되었다
계열사
합류한
갖추었다
마사무네
Deut
올랐으나
Play
부담이
체크유
조광조
몸무게
Smith
아나톨리아
어우러
1km
beta
ser
같았다
광대
기량을
나치의
내비
넘겼다
노을
도루를
박기
사보이
삶은
성체
쓰이기도
알베르트
유복
주기를
지시로
직경
타라
탈피
테니
파헤
##니컬
##티엔
##자격
##방면
##도라
##산읍
##담의
##관계는
##딘의
##특급
##포인
##퍼가
##약으로
##당사
##탑이
207
##이다가
기록했는데
위키에
아이누
문화유산
러시아를
중요하다고
민주당이
민주자유
건축의
26일까지
가문에서
바뀌면서
동물로
패배하고
소개된
미사일은
프로젝트에서
아내의
알아차
트레이드로
참전한
Health
질병의
아테네의
쇼트트랙
유러피언컵
1에서
Brown
Language
Tra
Two
계기
권리와
넣으며
막바
무진
불렸던
숨기고
액세스
원정에
유승
일족의
잇달아
있음이
추운
##수첩
##라크
##상품
##보게
##관왕
##해지기
##닌은
주장했고
의견과
반대합니다
##add
항공기의
건물과
경찰과
1997년부터
오른쪽으로
외교부
기초적인
이주해
오랜만에
레코딩
판결이
다스렸다
승려가
이즈미
고안한
장례식
매니지
평평한
Mr
like
sign
강하
국부
군인이
독주
동복
백조
북송
생김
세일
알수
알카
어도비
은언
인권을
전광
종용
증언을
직위
판본
푸틴
##레스가
##sen
##세력을
##코리아
##남으로
##런을
##플링
##궁으로
##하고는
10번째
기록도
국가안전
활동하였고
주장과
해당하며
발표하며
언급되는
20일까지
떨어질
29일까지
표시되어
대중들에게
부르는데
해안의
확보를
알렉산데르
합병해
서식하고
레코드에서
애플의
도모하고
등급이
임대되었다
바이에른의
관여하는
무리한
##ski
청량리
코민테른
새만금
하얼빈
생제르맹
0번
9대
HMS
NK
Nic
OC
가니
가세
고개를
남반
듯이
마사카
먹은
메콩
몬태
밤의
부역
사역
술에
아람
와해
우마
유세
유림
있나요
조간
좀비
지카
출진
컨페
탑은
파룬
편제
한기
헤지
##덕을
##주부
##세력이
##조치를
##조직을
##되다
##쳤으나
##흐는
1600
중앙대학교
개최된다
기여하고
구간으로
브라더스
차량센터
##리오카
선정되어
다카마쓰
소개했다
708
전환되었다
##시즌에
현실의
1794년
무시한
prot
차이점은
간행한
노벨상
전문가들은
수백만
신비한
Earth
안철수
##그마한
인테르나치오날레
0시
1st
9번째
Foot
er
강사로
개전
경합
공기의
관구
구실을
군복
늦어
딸린
레퍼
몰라도
번을
브렌
브리스
상냥
수문
수렵
어색
에든
영세
예전의
왔을
용액
의장으로
##기능을
##대수
##rom
##전지
##주민
##65
##부대는
##분할
##데냐
##배는
##집과
##평리
##커로
##몬의
대한축구
위키의
알려지면서
발견하여
발매되었고
철도와
평가하고
증가한
히로시
일어나면서
발달하여
공항에서
종류를
자세로
공산주의자
시리아의
에피소드에서
사퇴하고
재단법인이다
남극점에
콜롬비아의
나가노현
Afric
디나모
기노
김좌
눈동
단념
무겁
물자를
부품을
살이
숙종의
스에
시니어
신빙
악화되었다
원리는
유관
육군에
윤봉
저우
주셨으면
즈음에
참된
코우
특색
하자는
현으로
훈구
##L의
##본다
##토스는
##부사를
##게르
##골은
##패가
##받기도
##항에서
##운행
##밖의
##날이
때문인지
한국군
##itive
영화감독
포함할
13개의
정치학
하여야
29일부터
대상이다
브라더
모델에
천황을
1853년
마련하고
약속했다
어깨에
마감했다
##조정랑
네이션스리그
1500m
저질렀
에이전트
집현전
획기적인
2에서
Ga
met
가릴
과격한
길다
다이스케
대고
모자이
못했으며
발음을
방문을
복싱
산탄
신에
신문을
업계
여긴다
열렸던
일의
임을
정난
출세
퍼스
해전에서
현장을
형은
회차
##악기
##거로
##왕릉
##장관을
##김씨
##ba
##족한
##콘서
1982
1960
7월까지
정부에서는
1956년에
대부분이다
국민들이
유지하면서
요구할
##ivil
자연을
형성했다
합니다만
마음과
가족들은
제한되어
##ube
통과한다
개혁과
시도하는
훈련에
허용하지
마련된
해방을
사령관이
전차의
기후를
도달하는
사임하였다
CCTV
재단법인
공용에
대다수가
나타내며
옛날에는
안타까
송시열의
정류장
신념을
Academ
코소보
캄파니아
아열대
1m
4억
4호선
Bur
개폐
괄호
군단의
드릴
마모
미끄러
받들어
속초
순서에
신식
신재
신으로
아말
양산시
응하지
이공
조사가
차오
하층
##타야
##rough
##고요
##문사
##지대에
##츠부르크
##코비
##총관
##X의
##블을
##규정
##난히
사용하였으며
##atory
시작되기
1977년에
##icial
도시이며
대통령령
##자로는
2011년까지
이미지로
인물들이
나라와
인도에
육군사관학교
확장된
신문사
비디오를
무엇인가
운용을
1593년
만족하지
개입을
완료되었다
도망쳐
향상된
기하학적
망원경을
엘리베이터
앞장서
로베르토
NATO
Cast
go
were
개회
당국의
르완
모함
문학을
불타는
소문을
양극
열악한
오두
인도를
재계약을
초계
틀린
허영
흡연
##td
##비히는
##타다
##타인
##미도
##부원
##보컬
##off
##메랄
##물에서
##조연
##권자
##모닉
##튼은
##alt
##스트림
선수단이
서울고등법원
지방에서는
inv
##위원회와
이루어졌고
2015년에는
이야기에
개최되었으며
기본적으로는
생활은
발전은
열차에
마을이다
올라갔다
프레드
계승하였다
수립했다
강조한다
알아야
위협에
레코드와
등판했다
몰아넣
프라하
코믹스
잠재적인
북극해
증권거래
2D
Fall
대용
몰살
받자
발목
방응
버락
순간에
싸우고
양원
인문학
주심
카스트
쿠루
헌터
##HA
##43
##6명이다
##day
##kin
##IO
##욱의
##6년에는
##esis
문서에서는
17대
##대로부터
시즌인
영국군의
설립되었고
##스터의
변경하고
직접적
##스타의
##대학에
거쳐야
나오기도
완전하게
국내에서는
공산당은
내려갔다
후반기
24일까지
표준화
대응할
1850년
##단체로
훼손하고
나카소
마리아는
계급을
답변이
타이거스
증언에
기동전사
Ital
촉구했다
경부선
역설하였다
펜실베이니아주
모서리
하코다테
Austral
야마노테
4분의
Van
골격
광시
궁수
끼치는
눈과
다이나
당대표
도하
도자기
몰라
무정
무마
미흡
바쳤다
박해를
반도를
범유
사계
상층
설리
식이
쌍용
어필
여흥
욕구
육식
이거
지형을
항우
행사는
후대의
##연대를
##레알
##과와
##사노
##교동
##어항으로
##부스
##오염
##유기
##플러스
##망과
있는지에
한국인의
참여했고
대회와
고려한
추가해
이론적으로
특징적인
25일까지
언론에서
부여한
다르지
금지되었다
마련해
2세에게
고구려를
1847년
마이크로프로세
헤이세이
갈등으로
단어이다
히로시마현
지내면서
##부장관
##해보면
보편적
2루수
제노바
##소시엄
가늘고
꼭두각
2nd
7차
군주가
기점
단위를
도자
때까지는
마티
많았고
보어
보트
섬세
소켓
시킬
신호가
여태
오사무
이학
임기가
자라고
장타
정할
중령
케인
트라우
표는
##학파
##베를린
##건강
##back
##암과
##탑은
##납니다
##착륙
##하는게
2009년까지
민주주의를
시설의
기초하여
편성되어
1830년
의심되는
남극해
준공되었다
북극점에서
개관하였다
delta
##minus
병자호란
6학년
HS
good
hat
남학생
로젠
리저
모후
볼드
악당
원소로
인스
전횡
접목
조율
조조의
준보
지뢰
치중
카터
파피
학명은
행위의
##합시다
##대인
##인으로서
##사회를
##협정을
##고문
##루스와
##포도
##들까지
##치아의
##남을
##억원의
##F는
##새는
##헨에서
1945
##ament
##elle
계속되어
방법도
이동통신
50분
행동하는
모델링
상당수의
평양에
저장된
##사건에
가격에
##자들로부터
통상적으로
이기붕
Who
탐험가
급진적인
내외의
장학금을
승부차기
자오선에서
파나티나이
앙골라
세르게이
KB
RD
Tur
det
강북
견습
기사에서
데다
마피아
매복
밤을
사지
산마
슬롯
승률
시기로
잡힌
착한
타파
허물
##합작
##GE
##레르
##라시
##회계
##보우
##중량
##테아
##추지
##2품
##들게
##유산으로
##표기
##견의
##찬이
##폰을
##풍으로
##én
##ona
선수들과
일부인
##ask
information
멤버인
않아야
공항이
##ains
stud
1795년
해체된
전후에
기다려
##rict
사임했다
France
서북서
조기어류
제18대
바꾼다
슈투트가르트
Mass
Old
경선이다
김구가
닉슨
다리는
대타로
동명이
두번째로
묘역
부녀
분량의
불허
비춰
상투
수상을
신명
신정부
열중
원거리
자로
저가
진성
펜타
포니
협주곡
##제20
##전적
##주며
##하듯
##성공
##포에서
##육군
##fess
##코스트
##코치로
##표와
##곤은
기록한다
##itar
1969
관리의
구성한
발표하는
게임에서는
상태다
국민을
지원하여
제공하며
이루어지며
도쿄로
동일인
환경과
증가를
##정보통신
크로노
연기하였다
왕국으로
than
소개하고
교체되어
나무가
상업적인
투입되어
Council
테러를
소장되어
Plan
Ell
조별리그에서
into
##ledge
강습
군도
군주로
권의
그대
낳고
넣으면
농도가
다나
대적
대소
도바
돌렸다
되거나
든다
로스트
마레
매드
미처
보신
사파
사정이
신채
아워
안다
원제
유흥
이내의
천주
힘들어
##3명이다
##정도의
##도니아의
##원에게
##브나
##거에
##골의
##RA
##더레이션
##더니즘
##섬은
##애의
##언의
위치와
국가원
사용자입니다
모두에서
사회복지
##이었으므로
가능하지만
운영되었다
계획으로
분류로
그리스에서
생활하는
학생들
부족하여
제안이
회의의
해외로
붙여서
윤치영
요소들을
표제어로
멜로디
##ween
우호적인
Modern
GPU
Angel
Cambridge
Corporation
PH
code
가온
고영
납품
뉴기니
도지
마른
미망
밀러
빌드
선조가
수력
수사에
엄정
업체인
왕비의
유예
전후의
창안
취지의
포러
하순
합장
현은
환기
후회
##레노
##아카
##PA
##시외
##숙을
##C의
##퍼의
##국가의
##변화
##골에
##형무
##곡인
##애는
##win
##큰롤
##3년까지
##esc
현재와
##icense
대표이
선거구에서
인터랙
출전할
아래쪽
졸업했으며
제34
지도자인
소련군의
과학적인
전통의
공연에
1998년에는
우리나라의
식민지로
해석에
페르세
들어가면서
탑재했다
탑재되었다
탑재되어
1840년
나뉘는데
대립을
반영한
도달한
쓰여져
물려받았다
스승인
견해는
어울리지
재발매
##rightarrow
호찌민
sqrt
Bra
TBC
b는
cal
개구리
기독
납작
달콤
모드로
못했다고
보았습니다
상시
시안
안주
우체국
최단
치르는
코나미
##비노
##반트
##계수
##절과
##마타
##마니아
##영역
##코스는
##암사
##옥을
##하였음을
아니냐
##랜드의
아이들은
출신이
24일부터
생산할
진출해
계약금
제35
지도자이다
작곡가이다
출처에
##시대에는
들어가고
##ellow
대륙간
스토리를
가담하여
조절하는
책봉되었다
##ublish
밝혔으며
신탁통치
신입생
거머쥐
뉴사우스웨
4선
OK
language
mult
ot
고치고
기사로
김이
높을
모세
민자
병조
부안
서상
선로가
스베
암스트
앞당
에세이
일이라고
잎이
재외
저스틴
전조
질적
출장을
퇴치
팬들
하려면
해커
협회가
홍준
흑해
##다카
##대기
##사단이
##송은
##상담
##테러
##루로
##향교
##삼진을
##엔의
경기에서도
16세기에
연구하였다
제29
되어있
##asy
##ader
인정하였다
비판한
판단했다
거주한다
되돌리는
##obile
##해주었다
##ques
상륙한
샤를로
비트코
폭격기
한국독립당
스포르팅
3명을
Att
B는
SW
Wolf
mat
교류가
극좌
극적으로
나니다
다르고
달랐
대목
데루
도대체
만류
박준
분개
사사키
산술
세조가
수마
시해
양식이
용수
육사
의장이
일제는
자들이
자취를
재무부
전기에
주이다
키우
통지
특검
##68
##문트
##한정
##N의
##약에
##코에
##곡이다
##VF
##열과
##팀이다
##듯한
##했다면
이상에
존재의
리그컵
참여했던
211
중앙은행
##urity
2014년에는
보고서에
운행하였다
언어판
##르트가
전문적으로
사상이다
공산당에
광주군
연맹은
ang
##국민회의
1775년
1군에서
##action
맞추기
원시적인
모험을
간섭을
MPEG
##이즈미
##엔터테인먼트
성북구
에든버러
2명을
3등
Far
term
공론
교착
나스
담배를
독수리
디즈
땅으로
마신
밀워
버스터
범행
봉작
사야
생전
성범죄
스모
심부
에치
유산을
의열
자르
정약
제프리
중량
채운
치킨
화면의
##기성
##교회는
##이전
##베는
##왕에게
##차에서
##승람
##촌리
##ée
##8년에는
지역별
문서훼손
활동하기
이상하게
영향에
요청에서
변경에
만들어냈다
반대가
제국에서
서로마
정도이며
##학과에서
##방송의
강화하는
대응하여
아프리카에서
패배하였다
편성된
고속철도
ant
브루크
선포하였다
달아나
##미술관
조용한
제약이
신속한
있으신
시종착
##ause
무지개
흥미로운
4위에
5의
A에
A를
Ra
Ray
Sir
XML
낮추
넣어서
대안으로
믹스
배는
변속
부총리
뿐이며
성형
셰퍼드
소론
신기록
위계
일설에는
지대에서
티무
퍼부
##L은
##인수
##인증
##방법을
##씨에게
##5m
##급에
##예보
##천읍
##필의
##갔지만
##감리
##돈은
영화인
프랑스군
##omet
설치류
차단에
라이센스
지원하며
배우이자
결혼식
##레스테
China
사무엘
내려다
지난다
##사업으로
달러로
관찰할
적절하지
이시다
##리우스의
회전하는
Boy
내놓은
돌아온다
건의하였다
드물다
라이선스를
사르데냐
발원하여
마르세유
롬바르디아
귀여운
쿠빌라이
Friedrich
올랭피크
7명
But
Fire
Hor
Hand
Mult
과달
귀향
기회로
농지
로시
말하지
말라는
문구
문학적
미적
배치를
본사가
상관이
생리학
석방을
손바닥
예카테
유추
총알
춘천시
커맨
크래
포의
폴라
합산
해동
##버섯
##3조
##지다
##산드로
##장도
##핑을
##퍼를
##종인
##캐피탈
했다가
일부에서는
운행되는
종교와
사상적
27일에는
논란은
대응한다
가져야
들어가기
동물이
저장하는
시내의
재정비
파악하는
도달할
주어졌을
요소이다
루트비히는
프린세스
##ilde
다이아몬
##월드컵
##부상서
J1리그의
1경기
Est
Jer
test
거사
게일
고요
구운
권력은
귀납
내란
래리
리모
북진
생기고
송광
슈바
알브레
연호
오경
오마
이브라
장면에서
재창
제각
조제
존슨은
키에
타자로서
통째로
팬클럽
해치
형무
##아메
##자카
##기면서
##gar
##그리스
##경연
##설립
##데를
##맨이
##약은
##삼아
##샤는
##매의
##8년부터
이후부터는
고려해야
언어학
피해자가
형식적
없었다는
가입을
혁명적
신라가
정리해
확보한
천문학자들은
1792년
##만큼은
1인칭
어릴적
##ENT
어울리는
이메일을
무작위
비대칭
퍼포먼스
안티오키아
앤서니
Lat
Train
Ur
격돌
귀양
김씨의
도읍
리차
맞다
몰리
문고
미일
뿐더러
선로를
솔라
숨은
승격을
열렸고
주기도
파블로
하구
확고한
흔하게
##아들이
##1과
##손이다
##발전에
##시스의
##바키아의
##받으며
##네이션
##쿠치
조선과
사이는
세계와
것으로부터
1959년에
일반인
발생하게
##etween
이유에서
차량이다
없이도
부족이
연속적으로
제안에
통과하여
합류한다
포르투갈어
합격한
모임에
##다시피
남아있던
파크에
평소에는
펠로폰네소스
Bong
number
강탈
교동
나주시
떠났고
로리
명하여
문장에
박동
승문
심취
오신
오호
외상
읽은
정리가
진화의
채팅
타석에서
펼치는
포를
협회에서
호지
##으라고
##가이
##여명이
##정치를
##uary
##my
##장성
##UL
##face
##투르
##디스크
##oli
설명해
적용될
후반의
작곡했다
시행하는
Reiro
주도하여
동아프리카
도움말
수학에서
LG전
미니시리즈
집필한
들어와서
언더그라운드
백과사전에
장택상
매리너
950
가사가
고르바
날의
매료
방울
번복
서둘러
심근
양위
연개소
원한을
일들을
짝을
친구를
켈리
코페르
하지는
##제2
##수나
##기한
##통계
##속이
##례에
##균이
##익의
##풍은
##7년에는
15개의
1961년에
이용자
전투와
차지하여
남아시아
1년이
뛰어나다
12일까지
정당화
개통된
개통하였다
남쪽에서
여겨져
얼마든지
There
수립하였다
알아서
세이브
올리며
급제하고
1636년
번뇌를
고안된
친선경기에서
무의식
플랑드르
안녕하세요
제퍼슨
DFB
통합진보당
프로테스탄
4차원
6명이
B가
Op
YTN
book
rem
기민
김세
꾸려
묻자
민선
발터
보카
보수를
산사태
속이
않음을
않겠다는
양분
재결
전부를
주름
중이
토지의
포틀랜드
피스
피스톤
해는
호적
호엔
##텔은
##라스의
##파에서
##부대로
##oj
##kh
##너지
##벌식
##붙여서
##밖에도
시작되자
한국민족
생각하시는
대표인
가능했다
이전을
발견되었고
가운데서
상대적인
##기관과
적용을
판매량
##ogn
증가로
정당을
구분하기
네덜란드에서
대구에서
이듬해에는
신문은
조성한
정착했다
고향에
007
##영화제
분열을
무덤이
##공간을
일상적인
호흡기
##그래피
밀접하게
유니폴리가
싱어송라이터이다
호응을
이와테현
서바이벌
렌더링
고르바초
Pier
free
간통
군국
극소
기약
기온이
남조
농사를
높였다
덮고
맡으면서
문양
미달
봉우
분담
뽑은
신세
입교
자식을
장치에
진핵
진지를
청나라는
현수
##티어
##iation
##전환
##여의
##문제가
##지점
##들에는
##들어가
##네트워
##플라이
##줄을
##난으로
때문이
일부와
프랑스어로
독립협회
수도는
1일을
행정안전
비판과
월드컵에서는
15일에는
언급하는
소설이
소설가이다
언론은
반응의
가수이자
제품으로
수정할
발사되었다
국방부는
변호사로
광고에
학술적
합쳐진
스미스는
골든이글
##psilon
표명했다
출토된
온두라스
리모델링
친일반민족행위진상규명위원회가
33년
6세는
JS
X가
ro
걸릴
공평
광동
구스
그란
금관
눈은
당국에
로널드
로큰롤
마자
맺는
무패
물로
사병
사하라
서주
속씨
슬하에
않네요
어원은
영일
왕비가
원리에
의대
이심
이쿠
저수
철로
총파
춘향
트러
특파
하토
할지라도
행적을
##버로
##가지를
##사단을
##이탈
##전공
##현상
##61
##성이나
##곡에
##OCA
##더릭
##범을
##찬의
##끝에
##촬영
11세
17세기에
아니었
여러차례
##이었다가
##ette
올림픽과
시대적
건설하였다
작성하고
상당수가
기독교가
나가고
위원장이
표시된
잉글랜드와
출판했다
하이델
브라질은
분쟁은
동맹의
소재의
살해되었다
모르지만
무시할
계급이
주관적
약속한
##쿠스틱
맞추고
궁극적으로
엔지니어링
아나키즘
델라웨어
알프레드
비정규직
8명
Band
Lev
가만
갖다
끼어
남궁
대왕의
댄포스
두었고
드리는
링크는
마수
막부는
모기업
묻고
미르
미첼
밀착
박승
반군
사안에
삼지
생을
스마
안무
업로
오던
운운
잡게
처단
탈선
통증을
투구를
##자로서의
##비츠
##37
##이씨
##르스크
##호흡
##IK
##WS
##함에도
##북부
사용되었고
문제제
1954년에
알려졌으며
학교와
도입하는
자연수
챔피언스
강화하기
정규앨범
채택된
회복을
건강에
소프트웨어이다
보급을
고정되어
명시된
발간한
객관적으로
크라운
리얼리티
버려진
새정치민주연합
부에노스아이레스
컨페더레이션
1패
9명의
HIV
RPG
감각을
교의
기구의
다리의
덮개
말하는데
면책
무대가
미스코
빠지는
삼도
세그
세탁
세리이
앨버트
야심
엔트로
우랄
위서
유혈
인프
인원이
정우
정안
조중
주류를
주선으로
진다
진구
축약
콘라트
클루
타구
투기
홍길
##교환
##물도
##오스트
##포리
##능이
##들로는
##field
##턴이
사용되던
##9년에는
##스트리트
국가들과
사용자로
이용하기
1930년에
프랑스와의
##eting
않고도
민주정의
않았으므로
시리즈와
결국에는
2004년까지
계약은
인간에
명칭인
전문으로
올라왔다
선정위원
어려웠다
투표는
##anger
실험은
식민지가
계정명
신청이
제거하기
최소화
아키라
목적이다
전력에서
연설에서
앤드류
협동조합
이득을
드레스덴
컨설팅
군청
김응
남짓
달라이
때나
리어
만났고
문신으로
발이
빠르
사각형
선장
시체
식량을
않다가
역량을
연한
왕권
자외선
주나라
초안을
친구의
친분을
퍼진
포리스트
##리치
##pa
##자형
##어군
##보상
##광복
##예비치
##룡이
##막은
시작될
시작하자
프로페
존재하던
30km
출연하고
민주적
##ading
언론을
전기통신
친구들
구분을
획득하는
불리는데
내각에
보도하였다
종합격투
입학한
공공의
ent
연극을
달라질
다니면서
세월이
내셔널리그
돌아와서
파크에서
급속한
##ruction
partial
다항식
##주자사
박람회
리조트
Daniel
성동구
싱가포르의
Advanced
5집
COV
Hom
Library
LOVE
Sev
UH
가석
구역의
그된
날아가
내시
다들
단수
도전을
두만
등에서도
먹기도
무고
배기
북측
산케이
서아시아
성령
성장과
순치
액티브
여자는
유물이
전태
접미사
조희
집사
차이에
키드
태안
투영
티모
##제공
##일자
##신도시
##르템
##들에서는
##살라
##죄의
##저장
##블럼
##헨의
##4년부터
시간당
스타일은
계약의
사업자
선정됐다
선출하였다
애니메이션으로
2일까지
목표가
의사표
살해당했다
해안에서
다섯째
전사했다
오토바이
경계선
터널을
목포시
칠레의
결심한다
여운형은
비틀즈
엄격히
카롤링거
안테나
트래픽
흐루쇼
간척
간격을
끄는
도코
런칭
마운드
못했습니다
산에서
삼천
새턴
성삼
세가지
수아
수지
숭정
실명
야당의
여당인
유비가
음란
이색
일개
전하지
전선의
정태
준주
진시
타석
폭동
호메
호크스
##덕의
##티카
##39
##P의
##키오
##나비
##겠군요
##름에
##결이
##올리
##농구
조선공산
##라이스
이어질
참가했으며
로마가
사망하여
변경하는
분류되어
##ima
있을지
건설했다
사랑이
지배적인
서비스로
특징인
변화로
5일에는
추진한
표시되는
그림으로
반응에
규정하였다
파견해
주연의
경쟁에
4년제
침공에
아사쿠라
불법으로
이민자
창단되었다
감사합니다
김대중의
대변인
Engine
만남을
스텔스
괴팅겐
암스트롱
Hi
see
such
가가와
곡에
교역을
당분간
대강
대수를
도호
딸은
마거
막혀
벗겨
억지로
예명으로
우성
장항
증류
지로
진위
틀림
휘하에
##아져
##사당
##보라
##메네스
##됨을
##NS
##님도
##모양의
##린다는
12명의
##주의자들이
16개의
13대
##들에게서
등장하기
2014년까지
연결이
기능으로
아래서
드라마를
이적하였고
영어와
이라크의
컴퓨터에서
30일에는
##인데도
제한적으로
예정입니다
##ief
성장하는
신문의
수용체
인사들은
개편에
##그룹은
죽음은
증명하는
합격하고
완공된
후속작
선박을
웨일스의
입대하여
오염된
돌아오지
아우구스투
끊임없는
컨트롤러
현저하게
다음해인
불러일으켰다
아칸소
35년
6식
Call
ROM
Sat
cop
ear
가전
결집
달마
면에서는
명장
모션
몸으로
물가
민첩
버스로
본질을
브릿
선물을
설정한
수심
수학을
여유
워커
의도로
자그레
점의
조치에
충숙
태수
테두
토기
트란스
패스를
행정을
##은사
##바타
##바니아
##테를
##월의
##길로
##곤의
##lete
##ished
연결한다
대학교가
나라이다
인도와
전통이
올라간
가족들이
외교관계를
경쟁력
다루어
제거할
출발하는
마련했다
1846년
예선전에서
1831년
헤이그
##사건이
##사건으로
단백질은
자녀가
Beat
프라임
레닌그라드
체험을
##ample
일대일
마땅히
미에현
불완전
행방불
Cross
Emp
EMI
net
가파
넬슨
뇌졸
무주
바치
병용
사피
사자를
속도와
수월
알현
액세
왼쪽으로
우의정
임재
잡지의
접전
짓기
칸타
패권을
폐교
화이
##아에서
##발표
##데의
##포병
##등에서
##율에
##학교와
시작되고
시작했지만
경기였다
1964
1955년에
대표자
공격과
중앙선
##idge
상황으로
반대파
##osh
이때는
태양광
관심은
##ogle
선출되었고
17일까지
위원장으로
방문객
제조된
##지역은
설계되어
1945년에
금지된
노력은
떠나서
오사카시
안정적으로
충돌로
오르기도
예상되는
노예로
브랜드이다
제20대
개국공신
구입할
##ynam
에르난
아인슈타인
되어서야
도네츠크
##엔터테인먼
파격적인
September
5학년
Mach
감사를
고작
급수
대미
대등한
도합
번으로
별시
식을
아쉽게
알프
어쿠스틱
에트루
종주
주유
차에
채우
체계에
최치
충선
태도에
패하면서
휴가를
##수스
##중학교를
##했거나
##팔로
##모하
200명
##였다가
##ench
국가재
아니한
연구에서는
참여가
우승컵을
변경한
##대학은
프리츠
그렇다
언급을
##방송이
자리한
계승하여
실행하는
분포하며
1791년
##ucle
등재되어
집권한
시상식
이에야스의
장편소설
Again
사이타마현
setminus
5칸
8세의
AGB
SI
고관
관행
귀화
까지는
남만
남포
들었고
마리가
말하면서
모반
불륜
상온
수학과
스콜
슬퍼
실제의
악명
영종
우니
이두
일류
전경
정미
정씨
조개
쥐과에
철기
치를
터진
트리오
하겠다고
##사에게
##하르
##세인
##마력
##됨과
##2조
##센의
##망으로
##욱이
##inary
세계관
1974
17개
1914년에
사망하였고
돌아다
여성들은
지금과
생산의
차지했으며
##스타는
##시켰는데
배우자
발전하여
##aya
북한을
정신의
출판하였다
다루기
정리하고
만들었다고
기획재
전차는
프로듀스
베이스로
찬성하는
페이퍼
고시라카와
재건축
법정동
유배되었다
Orig
진학했다
should
시달렸다
##마저도
연루된
돌연변이
새끼를
불명확
Hard
e스포츠
mac
골자로
국정을
군인들이
농협
등에는
디시
만회
면의
무능
부관
브리즈
수주
수급
신이치
아자
안달
업적
여야
여호
완주
용어의
인현
전출
카마
캠벨
한남
항거
##리한
##교구
##경험
##소장
##불로
##킹을
##쓰카
##결과를
##았다는
##head
다음에는
진행해
지원한
출전했지만
전체에서
다이요
지배에
수준이다
발달에
북쪽과
오늘날에도
##나무가
##aka
게이밍
진보적인
창단되었으며
서버를
박물관에
주둔한
사법연수
대성당의
처형되었다
동양의
김대중은
비트겐
Team
1392년
콘스탄티노폴리
용이하게
재활용
집정관
Edition
피라미드
##여지승람
##overnment
코페르니
4위로
Cry
TTC
epsilon
world
가혹
계층의
군관
군에서
권영
귀인
급습
김순
대충
맺었고
본편
본관으로
소장으로
속하고
수명이
식료
업체이다
의왕
적부터
정순
코넬
통정
포고
학무
현상의
화제
##사이에
##달에
##원들을
##체어
##조절
##퍼트
##민들의
##생과
##당하면서
##더로
##4년에는
경기와
1973
1968
##하면서부터
감독한
러시아인
이미지는
100km
실시할
그것과
500년
설명에
10일까지
26일에는
우리에게
명령이
베이컨
물질적
발달해
That
계산하는
전사하였다
검토를
포도주를
벌어지고
테이프
8강전
입사하여
불렀고
중순에
하야시
메르세
미소녀
카롤루스
떠올랐다
동음이의어
##샤오핑
막시밀리안
1순위
Data
경로는
계기를
관청
교사를
궁을
귀하
금고
내일
노회
대전을
두었는데
디스코
발부
부위에
사본
삼일
서얼
성인의
시신이
신고를
아들에게
양지
전류가
정운
좌의정
지망
친필
퀴즈
함선
항구를
##출신
##레미
##행위가
##하워
##무라는
##kn
##후쿠
##요청을
##벽이
##톤급
##깊은
19대
1940년에
독일에서는
1952년에
이루기
작품으로는
우승하는
##학자들이
올림픽이
개최를
tool
분야가
방향과
가족들을
강화도
##ards
브라질에서
통치하는
구별하기
정복한
의존한다
가와치
유저가
상하이에
##너스컵
잠재적
편리한
아르바이트를
콘스탄티누스
맞물려
에인절
##ifferent
##르템베르크
Bor
Ball
M이
PV
간택
계십니다
공경
그치지
기사의
노량
높다고
닛산
도를
미아
보시
산정
속임
속도의
시트르
악영
여대
연대가
오야마
위성의
있습니까
처치
추월
출퇴
카츠
티라노
판서
푸에
한상
한지
해체를
현청
##po
##기금
##과정에
##교리
##바드
##절에서
##오버
##되기를
##형성
##쿠스는
##랄라
##승인
##옥은
1957년에
1920년대에
소속이
24개
보고서는
기본이
기본권
건설하는
50km
그룹인
지도자들은
작성하여
공산당이
28일에는
경험한
충분하지
소개하였다
근무한
세종대
부모와
발사된
자본의
4169
생명체가
진보적
구별되는
보장하는
주최로
유닛을
가설이
user
오가사와
마코토
우두머리
사이언스
버밍엄
4기
Cam
EV
mem
고혈압
도구이다
때였다
마라도
만민
박세
방금
병원을
수강
슈뢰
신창
신관
신영
아연
않나요
염화
예조
왜성
원생
유창
인목
증인
클로드
폐간
표류
합체
##대사가
##사단과
##도인
##데오
##호크
##펠트
##애국
##탈의
##누이
일본군에
일본어의
구성원이
발표하였으며
개발할
국제법
작품과
국민에게
##ides
2014년부터
##운동으로
항공은
자체도
##ogen
번역이
1997년에는
차례대로
1992년부터
준비하는
분쟁으로
발행되었다
활용해
없어도
설정할
##전쟁을
##iale
전후하여
항목이
서버에
급제한
chang
출간한
DNA를
국토해양
수요를
발간된
##ought
이케부
수양대
Know
줄어든
에볼라
성희롱
센타우루스
Wes
경산
넷플
당할
돈으로
미세한
민의
수족
스로스
썼고
유역에
장관에
재귀
접착
정국
주무
집단에
팽팽
포상
포칼
합세
혐의가
히스파
##합이
##리츠
##ault
##철과
##악산
##부고시
##드래
##안정
##페인
##뿐인
##용어
##머의
##병원에서
##축의
##곳을
##덜랜드
21세
중앙행정
중앙아프리카
상황입니다
후보자가
3일간
23일까지
##ified
계열에서
공항의
##고등학교의
갖추어져
##cm이고
저항하는
공급을
이슬람의
오스틴
빼앗긴
첫째로
##생물학
소프트웨어가
극단적으로
명단에도
##자스시티
조조에게
요미우리의
안창호
민사소송
애매한
맥락에서
마거릿
4169E1
1순위로
70년
Bank
RE
equ
고우
기기의
늘리는
능통
땅콩
목격한
무역의
미화
보이나
빠지고
산간
스털
알자
양기
외부로
일신
전갈
전에도
조던
총체
탄화
투니버스
펼쳤고
해와
호스
히비
##대응
##무지
##거리와
##물질을
##viron
##론적인
##CD
##던트
##치부
##승과
##촌면
##앞에
##강으로
##매는
10개월
사람으로서
1972
시즌2
##는다고
발매를
여성으로
변경되었고
2013년까지
상대적
그리스도를
부산시
종교가
서비스에
##광역시에
위원회를
27일까지
친구와
처리하기
인터넷에서
부정하고
동맹국
대륙을
관측할
신뢰성
변호사가
집안이
녹음했다
후손인
##사건의
안내를
이성계의
공화정
지금까지도
강점기에
그레이엄
기둥을
부적합
들어오게
부장판사
움직임에
Steph
소나타
December
컨페더레이션스컵
COVID
38년
Ba
C는
HE
Psych
Sil
감시를
거센
구는
군단을
기네스
남면
논문은
달인
류성
말년에
망명한
벌였고
불상은
비호
뽑혔다
수메르
순정
신부는
쓰쿠
앙상
윈터
자원의
잔디
장경
정병
증식
캄포
킬러
프라우
하로
향하고
홍진
후시미
##가치
##8명이다
##교회에서
##경상
##vey
##롭지
##5년부터
##ites
1월까지
방송하는
theory
다양하고
참가했고
확인하였다
삭제한
민족해방
분야에서는
사고에
확장팩
소재지는
카를은
시각에
##리어스
대규모로
개별적인
기소되었다
전동차의
팔레르
남한산
##보병사단
염색체
##준비위원회
면허를
유길준
인터랙티브
3전
Cour
TG
Wall
type
가수가
겪으면서
고스트
난폭
니콘
다각
모티
무제한
버스의
보그
본작의
북마케
습윤
안세이
않더라도
외로
용도
의욕
이었으나
전권
종5
지상의
짓을
카레
컨소시엄
클레오
탄탄
홍백
##라야
##행동을
##정신을
##반경
##less
##진화
##소비
##키요
##해준
##나트
##예비
##볼트
##족들이
##열로
##더라
##즐리
15대
게임인
inc
확인되었습니다
310
제38
민족을
찾아왔다
##ocol
거두면서
복귀해
대사관이
전개되었다
조선민주주의인민공화국에
운용이
##슈타트
출범하였다
미야코
트로피
##보통학교를
안양시
대지진
없애는
석가모니
그랜트
Liber
농산물
알맞은
누리꾼
Entertain
Encyclopedia
Bay
FL
Fort
Log
Mount
가시와
감성
갑과
구아
금은
더구나
동티모
디바
로제
리브
마산시
변장
불멸
사보
사변
선명
성대
소마
숫자로
식물이
없지
엘살
우사
우이
임실
장군으로
재결합
저에게
절정에
정대
직역
처남
초점이
카잔
케이트
판소리
힘써
##가리
##심리학
##성사
##세트
##보좌
##담으로
##창에
##할을
##나치
##외에
##딩을
일본인이
1937년에
부분에는
요청할
2015년까지
대상에서
발전시켰다
여자친
드러내는
불교가
소개한
묘사되어
마리아가
복잡하게
제7회
반발이
승인하였다
명명된
본질적인
기용되었다
수직으로
Museum
사랑방에서
별칭으로
보헤미아의
감싸고
자책점
##cription
두터운
인플루엔자
FF
bi
금색
기기를
꾸다
도독
돌며
두었으며
마저
마틸
맺게
몇년
바디
부기
분과
비활성
서동
수분
수완
스캐
승리의
시조는
실렸다
아산시
양준
역동
였으며
예장
오목
우여
을미사
저조
정량
정묘
주도의
천궁
총의에
활기
황실의
##의사
##연극
##니히
##1조
##PR
##도시로
##경보
##화재
##무트
##las
##테스의
##케가
##각류
##줄이
##9년부터
##inh
##는데요
1950
이용했다
구성하였다
토론과
출전권을
후보와
생산된다
표현에
유지하며
인정한다
요구된다
실시해
소련군이
적용되어
태양계의
최종적으로는
21일까지
60여
귀족들이
중단된
종합적으로
케이크
##그룹이
##해주신
폭발적인
간주하고
연고지
저지대
창단한
prov
##체육회
무게가
프로토타입
이복동생
선진국
아가씨
사카모토
##uthor
니가타현
Polit
Philosoph
group
오와리
라치오주
width
리저브
수마트라
0이다
3골을
5로
mark
것들이다
경이
군수로
근교의
나게
난부
남해군
대사가
도깨
뒤쪽
리키
매튜
메로
반향을
배송
버전과
보았고
뿌려
사기를
성가
순서는
신년
아이는
양해
엔드
옆의
왕이다
외형
응모
임해
입적
자회사로
쟁탈
종실
주화
중흥
지면
지요
직권
충신
통로를
특권을
플뢰
행해지고
현이
##티스트
##에스
##음보살
##일라
##판에는
##결한
##립이
하는게
문제라고
아이들에게
##시키게
진행되지
관계된
작품에서는
시간적
조직이다
추가했다
여성에게
아버지이다
열린집합
부족하다는
스트라스
부여된
오스트리아와
달성하는
전반기
평화와
2개가
본선과
검색을
인공위
주고쿠
활성화를
전형적으로
개량한
히데요시는
세미나
TOP
##ajor
Design
주한미군
드미트리
하이델베르크
1단계
4골을
8세는
KN
Run
건에
경위
구단에
권투
궤멸
김만
나기
노엘
노리는
못했으나
묵시
부양
설화
소관
연례
연재를
온전히
올리지
원어
입게
전폭
조그
찍었다
차우
토성의
특성은
한옥
행사에서
화친
힘듭니다
##비상
##타바
##gu
##화폐
##zi
##노헤
##ko
##구사
##용품
##킨스는
##잔디
##엔젤
##칼레
미국산
활동하기도
1938년에
결정하기
225
삭제해야
##istry
3일까지
16일에는
실험에서
분석이
가져와
제품이다
목록이
these
집안에
영입하였다
자세하게
유도하는
반발로
합격하였다
머물고
이뤄지지
Scott
스카이라
일어났던
##계열의
자발적인
자바스크립
아우구스티
바그다
무소속으로
빈번하게
가독을
카르타고
리우데자네이루
아이젠하워
규장각
3당
List
Last
Now
간담
관을
광도
구룡
내렸고
당이
독성
바벨
보일러
사목
속출
송영
악몽
요네
울트라
이안
입선
지났
질이
짜여
최정
##로키
##ny
##사화
##행위로
##내리
##mas
##74
##DI
##변수
##먼과
##치사
##료와
##슬리는
##텍스
##롭다
조선으로
##itation
되어있는
발견한다
관계자
인물들
차지해
나오면서
차례차례
무기징
원칙은
이집트에서
전개했다
##조판서에
향토문화재
ATC
와이오밍
Management
이즈모
Education
조항이
소규모의
이지스
##uke
포괄적인
이오니아
관광객이
##여래좌상
엔터테인먼트는
무실점
오를레앙
가환환
제니퍼
articles
British
서귀포시
점진적으로
전용도로로
Festival
B조
Dar
VH
source
간소
같을
견해에
공군이
국회는
나잎
내역을
네가
로고를
리시
리소
마포
마더
바레
박희
부는
북부를
비문
빛은
소대
소정
실을
아내는
엘람
여유가
열광
인삼
일화가
잇는다
정3
최적의
출몰
파장
퍼센
포천시
한니
할수
해로
홍문
회송
##가사키
##좌석
##토스의
##트인
##den
##마리를
##육성
##향이
##치산
##천에서
##항쟁
##봐도
지역이었다
1920년에
경제성
자연적인
이적해
작성할
2000년까지
위원회에서
전기적
베트남에
1차원
어떻게든
장기적인
장악했다
##버그는
##카가미
일으키자
##조판서가
다중계정으로
일상생활
파이어폭
연금술
프론트
단국대학교
2와
3을
고스
근세
기린
낙엽
내통
돌리는
라스트
면적을
명승
사키
상법
섬식의
심복
쌍둥
악단
얻으며
우메다
원상
이로부터
장전
장지
정구
졌다
종양
증설
진안
체계에서
최재
층을
코드가
쿠바의
키로
탄산
한민당
합치
향하던
협의를
##연대가
##로메
##par
##MB
##활동이
##시장을
##갔는데
##궁은
##텐데
##매체
사용하도록
##습니다만
때문으로
아니더라도
주장의
11월까지
발생하며
이어받은
계획된
만들어졌고
삭제토론
연합군을
달리기
기관에서
교황을
모양과
km의
가까스로
판단해
##aph
표시할
목록에서
존재한다면
없어지고
조각이
통신사
원작에서는
선고받고
생겨나는
프로듀서로
끝나지
베이징에
가격으로
추측이
의존하고
희망의
유학하여
지리산
줄어들고
대다수는
백성들이
신칸센의
##ground
이슈가
즉각적인
Review
라스베이
토마토
히메지
총학생회
피오렌
##원자력
그러고나서
우여곡
1명을
Lov
van
교대로
나탈
너는
다부
도부
리는
리뉴얼
무모
스턴
신겐
압수수
애들
양현
역명은
의외로
이일
이부
주살
지켰
지었다고
청렴
추봉
특전
파드
페트
##제에게
##1회
##내버스
##보유
##데는
##법원은
##식스
##유치
##육을
##벌리
##되었으므로
##레이스
##이었기에
대표한다
계속해
등장으로
운영하며
##스터는
이탈리아가
차지하면서
##민주공화국
대신해서
진출이
기여하기
평가되고
특징이며
##선거를
동쪽에서
동생이다
공작은
개시되었다
태풍이
교토의
레닌의
개찰구는
사천왕
동학농민
이강철
박원순
모른다는
850
갑을
고케
고조선
국기는
궤도가
낳는
누명을
느려
담았다
댄서
둘레
뒤로는
로쿠
미숙
박수
발톱
사대부
수나라
순양
연회
왕명으로
요시마
욕구를
욕설을
자들을
장관의
장치로
종단
체중
취지로
탄광
투명한
펜티
피선
혼인을
화성의
후생
##가슴
##2로
##펠러
##엽은
이름만
1977
##etic
기술자
분류되는
2016년에는
##rab
여자친구
다이너
올라오는
지속된
시민이
22일에는
중재위원회는
경쟁이
##iano
디자인과
강조한
센터의
지침은
수집한
로켓을
서명했다
Sea
크리켓
여수시
타원형
삼국지연의
베른하르트
콜라보
백두산
Alexander
Business
##ittee
3km
DT
Mnet
dom
개는
넘긴
넘기는
바투
빅터
승상
신도시
실로
양상
요리의
음역
이구
이스턴
인턴
인조의
일절
적혈
조나라
즉흥
최익
칭하는
피타고
필기
하스
한자의
##레트
##가정
##3회
##우도
##색에
##위키의
##영에
##환자
##블던
##ergy
존재이다
관리할
표현되어
프리덤
제3공화국
##ulus
노동을
1년을
애니메이션에서는
형식에
11일까지
드러나는
분석에
좋아하지
스웨덴은
작용에
##지도자
침공하여
요리이다
보여주지
전철화
백작의
art
작동하는
Central
개장하였다
갑작스러운
의문입니다
Ern
맹활약을
##예수교장로회
에치젠
Sem
결부
관공
기온
김안
꽃은
난바
남자를
네우
녹아
놓이게
당부
당신은
등기
따져
로망
맡기고
무력으로
묻혔다
미추
바지
바바
백년
밴드로
버로스
법원이
병조판서
볼수
부상이
뿐만이
손자이자
수치가
순국
안시
안된다고
압력으로
얼스터
역에서는
위원을
인장
인척
임영
잠복
제약을
존경을
지이
친하게
친동생
키우는
##Gon
##iod
##가들의
##인해
##rd
##부여
##무용
##데일리
##장관이
##츠로
##만여
##입자
##퍼센트
##나이트
##쿠젠
##쿠스의
##빌의
##임으로
##표현
##두와
##톤은
##és
기록할
선수에게
##rod
수도원에
로마와
표현된
표현하기
10일에는
증가하여
획득할
배치하였다
##aven
##라스노
반란에
1852년
합류하는
남동쪽으로는
승인했다
연출을
명시적으로
일어났으며
##azine
폴리네시아
방정식은
조항에
이에야스
추상적인
최적화
며느리
정유재란
메신저
오가사와라
Entertainment
Dark
J3
mov
가부장
경마
고운
구워
구하고
근데
대장으로
도핑
못마
미타
민심을
반도에서
비에
사격을
삼성은
상이다
승리는
심사를
쌍방울
안된다는
야만
옥수
원이
유역의
인출
저희
청진
포은
항저우
형성을
후이
##ais
##aft
##사촌
##말이다
##보아
##불가
##orth
1978
지방이
고려를
공식적으로는
인정받지
2015년부터
자기장
선택했다
애니메이션은
뉴욕으로
21일에는
인천광역시의
##방송은
이사회는
배치한
물질에
##고등학교에
시각적
유리하게
1837년
1598년
보아도
찬성합니다
8강에서
when
편의상
방정식의
미나토
##othing
아우구스트
합법적인
엔터테인먼트의
괴롭힘
Control
일리노이주
양호한
박테리아
비정상적인
아뢰야
##vironment
Games
UD
가치와
구보
금액을
내부는
단점을
당하면서
등이었다
만주로
면접
명이었다
바의
배심
배웠고
보이자
사형에
서안
숨졌다
시켰
심판을
온양
의식의
의문의
자고
장면의
진술을
집단은
커지고
킹스
파급
폭격을
학년
호송
##버튼
##회복
##카페
##주이다
##트론
##uh
##mar
##51
##법연
##받던
##싸움
##두었다
##디온
##돌로
##섬과
##혔으며
##웰은
생각으로
다음이
##omy
대통령직을
개발해
기술하고
경제와
##uture
싱글이
2차전에서는
데이터에
효과에
정신에
드러낸
지적한다
실험에
##artment
시기인
오사카에서
발사할
확대되어
배경에
1832년
##미터의
조절할
Hein
##프리드
백성들을
PD수첩
다녀온
CSS
##선수권대회
상대방에게
아키텍처
갑신정변
Baby
에두아르
비옥한
6가지
Cre
Pers
가메
가넷
건드
구약
극심
노던
동시대
땅은
명부
문단의
바하
방랑
변수가
수사가
실격
에니
에가와
여래
예선은
유즈
일정이
임베
절연
정토
조치는
주자가
채집
치타
투고
평의회
피루브
홈경기에서
히말라
##의료
##수행
##좌상은
##4의
##면에서는
##마어
##혁이
##IE
##술로
##됐을
##빌에서
지역적
1971
것으로도
관리와
리그이다
이어받았다
이어졌고
참가하였고
돌아다니며
여성에
활약했으며
형성하여
보호할
민족자
연방이
18일에는
표시하고
1995년에는
직후의
Report
도착한다
집합이
다르다고
슈퍼히어로
갖추게
38선
본선에는
전차가
불과했다
##스케가
가담했다
사퇴했다
##ATA
선박의
장소이다
보냈으며
신중하게
Google
거제시
입헌군주
자회사인
조르주
헬리터
Development
포터블
##스케이팅
부파불교의
유스티니아
다채로운
디케이드
인노시오
708인
BongGon
못마땅
EN
교란
노려
레프
루피
만국
만화의
모국
배웠
병력으로
불화이다
서던
서인도
쇼팽
시선을
역에는
유연한
이었고
조속
줄거리
지기
창문
철도로
펼치며
헤로
현감
호노
휴일
##ez
##기구의
##카로
##이상의
##장기
##호아
##크롬
##코프는
##히로가
##플래
##홍은
##매가
10번
문서나
독일어로
##amin
30분에
##이지의
개발하기
유지해
##대학이
번역된
표시가
발달로
준비한
보도한
알아볼
죽음과
공부하는
장악하였다
윤치영은
구입한
가시광
제11대
암컷은
엔터프라이즈
타지키스탄
필하모닉
생몰년
산마리노
Lin
TF
est
syn
강준
고야
구자
군산시
내년
냈고
니스
대기의
따위를
못했기
바는
반열에
백괴
분장
열이
예수는
요소의
입었고
있겠습니다
적기
정은
조시
진로를
참으로
통행이
피리
협조를
##로만
##가로서
##대회가
##인지를
##sf
##촉진
##메시
##테로
##순서
##헤르
##평등
##축에
##짐이
만들거나
포함될
프랑스군의
1923년에
설립해
독립선언
구조물
##스터를
성공에
생산과
공개되어
기여는
사상자가
등으로도
시설로
이번에도
##센터가
Anton
제50
365
1804년
재직하였다
하면서도
340
order
느끼지
지냈던
복합체
##anna
부친이
혼합된
옛날부터
Asia
Philip
바람직하지
접어들면서
무언가를
otimes
ER
RFC
겪어
극작
꽃잎
넘었다
무기와
반월
비시
산수
설비를
소위로
순서가
어째
에탄올
엘프
여과
연일
연천
왕성
유치를
이력
절의
제자로
치과
포교
헬기
혼슈
##레지
##제도에
##아우
##버거
##미카
##발과
##조지
##ja
##나간
##런던
##wa
##혀서
10명의
10000
##는데도
14개의
프랑스군이
사망했고
건설은
항공기가
찾아내
주변은
아직은
언론과
증가에
인천시
이와키
9일까지
주도하였다
다르다는
수용소
문학에
시내에서
인공위성
##ends
항목은
process
독립운동에
단백질이
메시지가
##상태를
무너지고
인조반
헤르베르트
8강전에서
맞추는
서독의
카이사르는
카이사르의
이르렀고
CNN
필사본
야마구치현
무쓰고
조에쓰
미합중국
includ
볼프강
스파이더맨
데포르티보
스크린도어가
Fa
MO
SQL
UP
pur
person
개수는
거물
관목
관립
국화
기한
달래
도에이
만기
민생
박주
보러
손히는
수명
슈테
시영
시장으로
야드
어이
역명
와타
음식은
이괄
제고
지명이다
추는
칭하고
코팅
통보를
팬들을
페가수
평신도
포세이
하향
한눈에
허목
현지의
혐의에
활주
후부터
##eh
##보트
##지도록
##간과
##쇼핑
##fore
##쥐속
##축산
##매니아
##쉬는
시작과
함께하는
세계관을
위키에서
이용자가
정치경제
필요해
이전인
1919년에
추가하였다
행정부의
통합한
##ocr
판매고를
우주왕복
연속적인
관리자분
18일까지
시설과
32강
사라지게
개봉하였다
정리하여
센터는
##세이브를
##astic
채용했다
완벽히
브라운은
라운드에서
자발적
호칭을
일제강점기의
무라카미
ABC의
동대문구
공과대학교
지자체
##서비스를
아리스토텔레스의
이바라키현
에스컬레이
8식
EL
File
Field
Moon
Oh
dr
day
가케
권익
기는
논산시
니키
데이트
말엽
먹지
면이다
무안군
박규
반민족행위
벽화
병사가
보임
불일
새겼다
설과
설사
스네이
습관
아고
않다면
압력에
요인으로
이사로
이민족
인수한
장정
정한다
종반
주게
지대를
진양
진화를
차종으로
척준
탑의
판사로
피우
호국
환산
회생
흥국
##청문
##이치로
##입상
##민국
##션의
##웅렬
##총의
##링으로
##벤스
때문이라는
가장자리가
가능성에
구성에
##asc
발표에
방송으로
조직했다
연결할
보여다
형성한
##연구원은
관심과
25일에는
위원장은
이와는
9일에는
차례나
스포츠의
보수적
완성한
마쓰야마
합병을
오리올
출마한
트리니다
조작을
방출된
탈퇴를
무사시
시나가와
생애를
아리랑
바이러스가
루스벨
떠오르는
등장인물이다
무궁화호
##구락부
일본국유철도
3종
Gh
NO
OVA
Us
같지
겸하고
경계는
공주의
기체가
꾸민
동부와
두바이
방황
사세
선정을
선고를
쌓인
앞쪽
유루
재정을
집약
탄성
향교
향상에
현에서
##레스와
##내용
##진출
##효소는
##CH
##집인
것이었고
선수에
1910년에
선거와
타이탄
##iding
표현이다
특별법
레이건
선정했다
5일까지
구분되는
시행한
발언으로
체결하고
Maria
유엔의
북동쪽으로는
유나이티드로
구속영
##고속도로와
거듭된
발음은
노출된
사운드를
1453년
극복하기
불렀으며
총괄하는
안티고
McC
전세계적으로
##차량사업
스크립트
##륜구동
출퇴근
3m
Sy
Women
ip
rad
가지만
강해
거치
곡선을
광장에
국경에
높일
도맡
매니아
모이는
무장을
바란다
비슈
사제가
사물의
성장에
아드리
위엄
의종
일레븐
재단이
주청
축을
표기에
협회에
##연에
##수립
##사이의
##명령을
##원리
##view
##추를
##장이었던
##위생
##집론
##촌에
##애니
20개의
학교법인
군사력을
2년을
보내기
20일에는
사무총장
개통한
##선거관리
유전자가
발행일
##iana
떠나면서
##epend
예측할
배출한
국민의당
단계적으로
##박쥐과
조선시대에는
무관하게
PDF
왕위계승
올바르게
끌려가
방침에
거북이
해수욕
어워드에서
둥글게
미식축구
B에
DO
local
건가요
공언
기흥
내한
노히트
다문화
동포
등지의
루크
명상
모면
바입니다
번주를
범주를
분신
소피
스틱
신작
액정
오정
위문
유언을
작전으로
저서를
줄기는
총선에
최창
치사
타서
판다
포탈
한탄
허버트
홍보를
흑색
##라오
##자금을
##학에서는
##방사
##타노
##이든
##도에는
##부로부터
##상승
##홀에서
##약품
##공사는
##네이스
##련은
##예는
##즐랜드
##옷을
사이트가
##iti
구성원의
1933년에
##ila
자유자
##cht
이것의
Theory
지원과
연합군에
구간에서는
언급하며
판매되고
역임하였고
추진하여
서울특별시에서
예술과
##기술의
충돌하는
고구려가
게이힌
1세에게
##세포가
누구에게
370
한자어
##브리튼
편찬된
##보호관찰
박근혜는
1519년
과학자들이
리스본
남아있었다
데려가
3루수
무상급
3인조
허정숙은
##vention
바나나
휘말려
부드럽고
##오스트레일리아
Like
꿈의
대흥
돌진
라바
랭커
레프트
막부에
막판에
명지
믿어
생명이
숙고
승지
씨와
여왕이
열매를
위클리
윤웅렬
일생을
죄가
주미
초밥
최씨
칠성
칭한다
합치면
##사전에
##역학적
##sl
##상속
##중이며
##페리
##br
##팔을
##갔던
##질수록
##헌이
##궁이
방송되고
1928년에
진행이
상태에서는
소속팀
역할과
##스타일
졸업을
자연히
결혼은
2002년까지
인간으로
노래하는
40만
북한에서
지적하는
규정했다
파괴하고
주인공을
인사들과
##ector
책임자
연고지를
부임하여
ann
형제인
항목의
빠져나가
적합하다
인지도를
지시하였다
명시하고
학살을
성씨이다
Studies
Master
Champion
2군으로
UAE
bel
public
rho
검사로
결함이
계산을
고도로
공보
그쳤고
놓는다
닥터의
반증
반대에
벌을
부대와
소자
신승
에스타
오니
우문
이기지
인류는
장으로
재확인
점심
주어야
직원의
차후
최윤
취하여
타석에
티탄
팀들
패하며
##1명이다
##하듯이
##경제의
##루프
##번호는
##7명이다
##들께서
##유키가
##받았지만
##족들은
##투안
##블린
##wer
##텐디
사용하지만
##리아노
14세의
시즌까지
자유계약
등장하게
요청의
컴퓨터로
북한군
소설로
우주에
스페인에
친구들이
제기되어
경험에
소비자의
대응되는
이곳으로
외교를
출발했다
구체적으로는
Mary
붙여넣
##스케의
판결에
코미디언
도모하기
무한도
스카버러
남겨진
테크니컬
필립스
##글로색
슬로베니아의
끌어들여
아이다호
급기야
펜티엄
36년
Four
Vo
개진
경화
괴로
기악
내선
넣는다
동이
마당
말하기도
매력을
무로
민권
방조
법령을
소리로
손목
숲의
신드
아프로
알칼리
양파
양평군
유비는
점포
접하게
즐거운
파일에
폐막
폐허
하산
학도
형평
호의를
황성
##레슈
##협회에
##정도로
##파스
##파트
##분야의
##우나
##중주
##소리가
##호프
##2명이다
##불집
##려한
##콘텐츠
##애가
##격에
##컬럼비아
11번째
##leph
##itle
알려주
진행되면서
자유로
결과와
223
만들어지고
가운데는
차지할
배우가
그렇고
상당수는
관리자로서
공화국으로
승리하면서
실험이
분석하고
대응에
야마나시
체결하여
논의는
태풍의
논쟁은
1813년
전철의
지켜보
1821년
높아져
무너진
유성구
실용적인
나갔다가
바나흐
어떨까
access
원활한
의사소통
아쿠아
경건왕
##변호사
콜론타이는
jpg
1장
R의
most
갔을
고레
광우병
귀하의
넘나
당국이
도성
말년
몸돌
본문에
서드
쇠고
시기와
식용
신예
안에서는
안쪽으로
영성
예시로
윈스턴
육영
자재
자켓
재빠
저당
적군
집요
청풍
총살
추력
태권
태우고
통하지
하라고
학파의
함평
홍대
홍영
후대
후두
##렌을
##4는
##47
##파티
##브에
##보내
##시대를
##르나
##개국에서
##데다가
##만도
##킨슨
##빈과
1951년에
290
시절이던
진출권을
우주가
지속되는
Ins
경험은
이곳에는
황제에게
계승했다
실행에
##해주셨으면
중화인민공화국은
##연맹의
한나라당의
##고속도로가
##혁명당
다중계정을
##건설교통부고시
남아프리카공화국
프로듀서이다
adv
성균관대학교
무력화
추증된
무승부로
게오르기
시에라리온
앤더슨
레버쿠젠
파충류
가솔린
##아메리칸
A에서
Cro
Form
Nuv
Rom
Tem
각계
값에
고단
곳에는
기계가
내리게
높이를
라임
로코
루즈
리마스터
받거나
베다
삼진
생일을
성경에
쉬워
연정
열리지
의의를
의장은
일하면서
장점은
적십자
정릉
죽었다고
직원을
차분
초원
타블
투과
패주
한라
합당한
허목은
##tor
##회전
##MM
##데시
##왕조의
##관념
##했었고
##벽에
##플리
##택의
##펜의
##칼라
위해선
문서들
선수단이다
아니었지만
대한민국으로
다음을
1934년에
계속적으로
기술하는
프로그레
성공은
성공으로
타이어
출연하면서
아버지에게
상황의
##iving
##문화대
FC를
이르면
지휘봉을
입단하면서
수준은
전해진
노력하는
통치에
방어선을
편입되면서
##세포는
##정책은
공급이
##만큼의
채용한
주교는
유나이티드의
##조직의
탈락한
트로츠
로켓의
화이트삭
고가역이다
피렌체에서
유니버시티
실전배치
티켓을
독창적인
승용차
매력적인
열린우리당
언젠가
매디슨
C가
KE
hand
light
would
값으로
개표
개조를
것보다는
고리를
공황
공습을
교직
극도의
남중국
달과
당쟁
마타
만리
맺는다
미안
생중계
수화
시위는
아슈
연천군
열정을
용납
의도는
적는다
제보
증상은
창이
출전에
폐비
호평
화석이
회사와
##제나
##버와
##정거
##부지
##문제로
##활한
##거북
##건물
##해에서
##모리의
##웨이는
##쳤는데
##윤은
##ania
##되었는지
지역까지
공격하게
방송하고
1921년에
고려가
결정되는
나오면
기념비
기념으로
스트레스를
도로로
24일에는
작곡하였다
표기한
분석하여
런던으로
300명
신청한
바다와
타이틀로
비디오는
##은행은
카운트
마드리드에
달라진
총독으로
에피소드를
장식되어
설득하여
마이크로소프트는
나폴레옹이
선포했다
알바니아의
번주이다
영혼이
저택을
다가오는
시즈오카현
중앙정보부
브리티시컬럼비아
리히텐
부득이
4시간
6위를
Es
IL
LNG
self
개구
기장군
낙점
노팅
리하르트
마흐
매그
무더
병력과
본능
살리
실었다
애인
위성을
유무
윤씨
음을
장시간
정조가
좋다는
증여
질환의
참정권
철근
최선을
친밀
카펠
코토
##라다
##자산
##드루
##오사카
##국장을
##월은
##런이
##저축
##갑을
##갑니다
일부였다
대표와
##0년대부터
게임기
##km를
우승자
로마로부터
국민들에게
최고위원
##민주당을
시대인
제37
제39
레이커
2차대전
사진의
14일까지
부여하고
외국에서
설계는
1991년부터
there
동맹이
활용되고
##작용을
1805년
붕괴를
서식지
##어져서
의심이
제어하는
파라오
공정거래
환승이
NHL
추기경이
억제하는
취약한
자서전
##덕여왕
국회부의장
2조
3이닝
8비트
Gard
Hans
TP
WK
기름을
김사
놀랍
농도
뒤셀
듣는다
모리오카
비합
수찬
실점
아과
안이
언양
연체
요건
위력을
의사에
자성
자식이
적습니다
정년
차는
층의
패트리
푸는
한길
혹독한
##티스는
##4명이다
##신고
##시스는
##5명이다
##나타
##알데
##예선
##디안
##폴레
##편성의
12대
16비트
내용이었다
##ache
국민당의
유지한
공개되었고
비판은
부산의
도입되어
사랑은
어린시절
멤버의
멤버들의
그림에
남쪽에는
주도했다
참고하세요
파이낸
1806년
전략은
베네치아의
평양의
구축하고
##하신다면
분명하지
에피소드가
한나라당은
브리타니아
연습생
국제공항을
시카고에서
항의하는
유용하다
크레타
관객을
아프가니스탄의
힌두교의
별칭을
상세하게
빈번히
은혜를
매개변수
코호몰로
이케부쿠로
프로그레시브
3계
B로
GE
post
간격이
곤도
교훈
금방
끝낸
남길
네스토
다산
답했다
동고
동결
몇번
박명
사물을
생화
슬픈
쓰이게
야후
에워
연마
연세대
오동
원인에
의식에
이면
일파
읽는다
제위에
줄무
최충
캐피
편도
혈통을
##토론을
##이기에
##발달
##지법에
##시위
##96
##해한
##급행
##요시의
##당초
##규제
##well
##써의
##글이
206
국가보
##icus
1967
연구하여
중국과의
게임플레이
발견은
고려시대에
##stant
기원이
비판에
제36
레이아웃
우주에서
선출했다
정당성을
##스코프
6일까지
번역하여
물리적으로
육군사관
결합되어
장기적으로
센터가
##교통공사
만주에서
중립성을
부상자
구별할
지어졌으며
##동맹의
##동맹을
arch
직원들이
이혼을
##AND
무리하게
웹사이트를
세부적인
유용하게
싸우게
캠프에서
Second
명목상
모란봉
파푸아뉴기니
여러해살이풀
JP
OM
개요
농사
놓였다
동맥
명기
물품을
민물
밥을
빌미로
삼진을
쇠약
수정한
수학의
양전
온게임
왔습니다
우메
유공
의사로
잃지
전원을
접어
정체가
조사는
침식
코모
쿠도
쿠모하
파사
파편
해군을
헤럴드
호감을
##nes
##자위
##음반
##rad
##어파
##상선
##지엄
##ober
##yo
##개토
##소생
##었으므로
##혁의
##구조의
##피로
##누키
16세의
1953년에
알려지고
관리하기
1936년에
개발의
국민일보
##ivid
공개되지
활약하였으며
생활과
명칭의
##레스비히
Child
작성하였다
40대
16일까지
17일에는
자리에는
dep
움직여
자치통감
이야기하는
후쿠다
디자인으로
1842년
확보할
MBC에서
출마해
철학은
폐쇄되었다
생태계
뮤직비디오를
바이러스의
##blem
후한서
만화가이다
동국대학교
문하생
카스텔
낙하산
창씨개명을
##평론가
##아미타
훈민정음
VVVF
온게임넷
1군으로
BR
RF
Vi
bec
가내
가칭
구한다
권리는
궤도는
그람
김익
독소
로고가
방계
배치는
버몬트
북인
사일
서산시
셀러
속했던
수혈
알토
였으나
인사가
일면
장식이
크립
타인에게
하러
하단에
행복을
후원으로
##hav
##행위의
##이긴
##군정
##무사
##지였던
##온에
##마침
##cel
##유정
##패에
##던스
##킨은
##함수의
##피에르
##엔드
##wn
##샤와
##잠수
##되었음에도
함께한
##도로부터
영향력은
기술한
중앙에서
학생들과
프리랜
지지한
지지율이
실패한다
실패했고
사무실을
내려진
베이커
초대형
하루카
신라와
개정안을
Spr
실질적으로는
도요하시
장남인
일으키게
법정동이다
그로텐디
소득의
라이프니
##형태의
제휴를
오하이오주
무작정
상원의원
모나코
Apple
based
Hun
Matt
곳이며
김구와
다량의
등판을
맡기
매장을
먹으며
번개
사단의
서보
시어도
심층
양정
예산이
올렸으나
이아
입소
접경
종자
주교의
진격을
초인
트란
품게
행하고
흐르
##비에서
##T의
##았었다
##분위
##동리
##동사
##거리로
##va
##론자
##테라
##해달라고
##맨더
##변속
##코파
##암면
##살이를
##림동
##옥의
##매일
##뛰기
생각해서
제1기
정치는
방송과
방송분
발견되었으며
시간으로
선거구에
등장하는데
중앙에는
행정동이다
000원
상황에서는
건설할
선정되는
3일에는
우주비행
규모에
입단하며
표기하고
자치주의
제5공화국
관측을
에게서
경향은
갖추지
묘사하는
알렉산드라
탈출한
##상태로
쓰러진
초상화
부의장
불어넣
맞대결
데카르트
안드레이
띄어쓰기를
KAIST
하토야마
OP
Pass
langle
serv
계좌
국교
그램
급사
깊고
날개가
뉴프셔
늘렸다
됨으로써
면치
버크
법안은
보우
불우
사나이
삼별
서약
송금
쇼니
아코
안은
오존
유원
인형을
전근
진평
칼레
쿠릴
토대를
피하는
현도는
협정이
##아요
##put
##가량
##사토
##렌이
##고양이
##활동의
##호선이
##kW
##해수
##I를
##뿐만이
##섬에서
선수들에게
14대
감독하고
내용입니다
##이지요
진행하여
1912년에
고려는
모습의
있을까요
동일인물
2001년까지
방향에서
조사되었다
승리하며
저작권에
##지역이
2세에
아닙니까
채널의
기후현
예상된다
애플은
반영하고
##play
박물관은
무게는
청구할
화려하게
이끌어냈다
최저임금
부패한
버지니아주
진영에
무승부
개개인의
스테파노
교통사고로
아르헨티나는
흡혈귀
after
Nuvie
1천만
Jon
KA
Kids
Som
bu
lim
간간
계기는
고의로
기체를
냉동
누설
당하며
대원군
딸이자
라인의
벨로
변수의
산소를
손이
썼던
쓰이던
애용
영사관
외조
워즈
원한
위기가
작위는
전류를
중단을
총명
추도
친근
켄트
타일
태클
팔려
펴낸
피하고
##1을
##hip
##대중
##사라는
##고보
##M에
##어로는
##KA
##키노
##78
##bar
##락과
##쌍의
##학교육
문제였다
주장하였고
중심에서
프랑스에서는
중앙유럽
##struction
보고가
부산진
정의의
경찰을
이끌었으며
이르자
사업과
챔피언이
13일까지
거두는
치료가
중단했다
해외에
프레더릭
보존하고
Arts
상업용
##세포를
채널에서
영입을
그곳을
orig
organ
남서쪽으로는
복무했다
디스커
생기기
Computer
Internet
유발하는
보르네오
Volume
현저한
재미있는
오브젝트
확고히
3권
5세가
Gall
Water
가압
강태
공적으로
굳게
기지에서
나사
돌핀
들러
레비
반기
발해의
방지를
붙인다
비선형
비효율
살리기
서점
성유
성층
수없이
시르
양과
영상은
인수를
임시의
있죠
자폐
잔인한
컨벤션
호놀
##출연
##자리와
##대부로
##인조
##사쿠
##브루
##우편
##세계의
##지대를
##지원을
##dom
##선도
##2에
##ced
##만명의
##되곤
##DB
##맨은
##요소
##독을
##두스
##외과
##찰을
##랭크
사용하거나
10가지
시작했으나
따라가
국가나
1965
1941년에
space
이동하고
공개되었으며
##시켰다고
건설하고
소련군은
부족과
불가사의
예정이라고
##방송국
번역하는
구분은
표준적인
크리스티나
시기부터
방어에
나타나서
제5회
신설을
정착하여
고구려는
1843년
엔진과
교토에서
제7대
헤이케
취급하고
이성계
효율성을
많아졌다
##awa
5개년
사임하고
허락하지
무라야마
페어리
투르크메
글리제
맞대고
스트라이크아웃
January
2천만
4km
4번의
6세의
Code
IB
OG
Son
Sot
VR
ko
가출
구급
군소
군인으로
기구이다
넣었고
들게
문자와
발주
벌일
볼가
사미
살롱
설계에
성토
소주
소포
소시에
수공업
순위는
슈바르
안데르
음식이
이왕
일하게
자산을
제구
즐기
직전의
진에
진영의
충정
컬링
폭은
함안
호주의
##G는
##문예
##분자
##동아
##54
##5hPa
##었으면
##재료
##속도가
##투가
들어있다
구성으로
1939년에
##대학이다
과거와
정의되는
Stan
기업인이다
노래와
표준으로
제기하는
인민의
발달된
제4회
하이든
브라질레이
허용한다
이주민
국왕을
1803년
중화민국은
건국한
산맥과
공통의
##느냐에
조종하는
파르티아
체육관
유나이티드와의
구사론
가설은
테오도
##soft
토요타
삼위일체
끔찍한
##레스테롤
BJ
big
open
개개의
거액의
겨루는
교실
근현대
기자의
김효
김호
날에는
누출
능히
대자
대국
망설
머리의
메시에
무녀
미쳐
배당
부록
수륙
슬리
시급
신호의
싸운다
암묵
열혈
웃음
잃었고
전하를
제위를
제천시
참관
포메이션
표의
하라는
호이
혼재
혼돈
후세에
휘트
##수에게
##대이다
##인식
##사냥
##군과의
##왕전
##페어
##오린
##쇼를
##골과
##술한
##총은
##돈녕
##첼로
##씩의
10m
기록하였으며
생각했던
이용하였다
정치자금
필요하며
공격수이다
이전했다
자유는
자유한국
시간동안
형태인
않았다면
##민주당이
원래대로
Cho
방향은
컴퓨터는
멤버이다
규모이며
22일까지
개통부산지방국토관리청공고
구분되어
유니코드
신설되었으며
##전쟁의
##cm로
저항이
복잡하고
채용되었다
전공했다
도망치
호소하는
추기경은
착용하고
초청으로
기하학
전염병
춘추관
아오모리현
알베르토
밀레니엄
니케아
매니지먼트
밀워키
슈바벤
가만히
0을
3배
4급
4칸
Men
che
cong
dem
고바야시
곡들이
관개
근친
김자
남부를
년이
다메
대하는
두산은
드니
명도
못하다가
밑의
발명한
비와
상선
성스러운
속박
수산화
신안군
애도
역부터
연기가
위시한
입장이다
장례를
정하였다
주면서
지었고
총액
칼데
컨퍼런스
트와
하밤
##철에
##타기
##고개
##상가
##소니
##빌로
##새의
다른데
지역에서도
처음이자
제22
##라이브
태어나는
전투기를
조직적으로
##chan
##학자들의
의견으로
행정관
제공하여
확인됐다
이동하였다
근거지로
변화한다
실패하여
애니메이션에서
국회의원으로
##교육과
실험실
만나기
부정확
발달되어
북쪽에는
1945년까지
Anth
세종대왕
장기간의
오르며
사례이다
묘사했다
원작이다
중화인민공화국과
모스크바에
일으키며
##장애인
라이온즈
위안스카이
테크노
히데요시가
상반기
교구장
##aurus
안기부
필연적으로
최순실
도도부
people
키르기스스탄
2달
2m
510
OO
Tre
elect
구식
기대에
기법은
논평
능력의
도안
동갑
들며
들자면
레가
박격
북북
브리트
뿌리는
셀프
심정
오타와
윤두
인력을
입혔다
자백
줄었다
중부의
지토
총에
추징
친밀한
터져
퇴단
투척
특명
품종
홀딩
##카드는
##트럭
##혁명의
##벌이
##승에
##림사
##F의
##병합
##극으로
##극장에서
##곤이
##따라
##홍의
##하였기에
한국과학기술
사이에서도
활동하게
감독직에서
발생하기
1925년에
인구밀
등장했으며
모습도
학생은
계약했다
##utt
언어들은
이끌었던
11일에는
1996년에는
이사회의
움직임은
해석은
북쪽을
성장해
705
이래의
공항에
밴드인
전반을
상징인
초반의
1841년
국무위원
절대적으로
간주한다
연맹에
녹음된
후손이
반발한
맞이하게
구속된
반영하는
높아지고
희생자
개방형
식품의
초래할
실종자
초창기에는
피렌체의
1루수
되돌아왔다
라트비아의
입각하여
분광형
신익희
July
카지노
나시오날
투르크메니스탄
Lar
LIVE
Sar
Ven
거기에서
경력은
교파
기지에
망명을
목사는
몸통
못하면서
무위
문건
문익
미녀
미뤄
박철
박순
반으로
반다이
발기인
백제를
벌인다
빈에서
소진
소스를
슈미
슬라이더
심소
열기
저온
저자는
전초
종일
종전의
주었으며
총리에
총리와
특진
팀들이
호몰
화원
##로봇
##인산
##화되지
##uz
##동포
##지명
##지식
##실천
##국가를
##생태
##런트로
##더에
##검사를
##커뮤니
##찰사
208
11대
한국형
하였다는
사건이었다
의미와
지정할
조직되었다
상황에서도
제공해
상대에게
플레이오
연합은
FC가
##utzy
자체적인
수상했고
지나간다
마을인
연방은
지지자들은
##사와는
1998년까지
19일까지
저작물을
도착하자
유전체
중단하였다
후쿠치
IPv
참고해
인사들의
##TV의
합류해
세이브를
태어나서
대립하는
교토부
모스크바의
노부나가는
농민의
방출되는
포기한
완료된
항복한
Board
절반은
명백하게
준결승전
3루수로
순위에서
왕족으로
같은데요
##duct
몸길이가
각색한
이데올로기
트리니다드
자유자재로
Si
Type
걸리
계파
고전을
광개토
규율
금을
금나라
내전을
낸시
네이트
라벤
모에
방학
배설
법관
상도
쇼토쿠
시판
신유
알린
역습
연해주
우세한
저상
전입
추앙
함자
효종이
##스라는
##손인
##카드의
##gin
##4U
##어에서는
##uit
##심소
##중석
##산역
##소단
##Ch
##션은
##YS
##곡리에
위치의
선수로는
##km이다
선거법
있고요
차단할
##iger
##시켰으나
평가받는다
##thur
##ista
처리한
배치하여
1990년부터
1991년에는
좋아하며
##센터의
게이머
평양을
기후가
1604년
영입했다
이스라엘은
어디에도
공통점이
440
가담하였다
지내기도
마이크로소프트의
넘겨주기를
Exper
##발전소
송시열은
의뢰를
다큐멘터
HTTP
Revolution
프로레슬링선수
공양왕
4선의
Bell
Feb
Non
Ry
가량이
구전
국조
기구는
다을
다리에
다리로
답습
당하게
도라
됨에
럭키
매겨
모드는
묘소가
무령
문은
바일
부트
세간의
손힌다
엑셀
역행
열의
은밀히
이보
있더라도
자막
장비의
조엘
총장을
타개
탈바꿈
통상의
투병
화물을
##수군
##기주쿠
##대신을
##사회에서
##카인
##TO
##발전을
##내용을
##분투
##개입
##테니
##엽의
##날드
20명
한국기독교
자신들
제1공화국
제작사
하고있다
1929년에
지정한다
성공시켰다
공식적
되는지
보고는
연결해
항공기는
도입하고
현대건설
기업가
Chap
출시됐다
시민권
위원회에
우리들의
잉글랜드는
수용하는
동쪽과
하루히
방어하는
출발을
의사결정
건너온
전시회
Marie
핵심은
##스럽다
서양식
Block
##시설의
밝히며
고고학적
하사받았다
교차로이다
창시자
낭만주의
모호한
##중추부사
이누야
페미니즘
눈부신
오징어
make
가정에
간청
교전을
국토의
군비
끝에서
남도
다당
독수
때마침
떨쳤다
맞섰다
모였다
모드가
묘사가
범주에
변하게
볼스터
분양
비문을
속칭
스팀
에베
오성
유부
음식으로
인도는
전보
제일의
종점
주술
진천
창당한
청정
청백
추석
특공
팔렸다
폭을
폴리스
호나우
##라비
##라키
##대신이
##시위를
##노예
##열전
##투사
##셔주
##콜로
##5년까지
##ati
##alog
하나였던
1961
정부로
##랜드는
##부분의
토론으로
자유민주주의
출전이
대상인
졸업하였고
수상하는
소련에서
단체에서
통일한
더욱더
서쪽에서
수립되었다
선수권에서
설정하고
영입되었다
##ension
입력할
네트워크에
건립한
서술하는
통제하는
아파치
동계올림픽
페이지가
##계획에
니시노미야
개설되어
의정부영의
트위터에
승차권
##프스키는
Histor
머무는
기생충
##반응을
Peace
이남의
헌법재판소는
Georg
무작위로
소선거구제로
Queen
메르세데스
3세를
410
Bart
Du
M1
갖기
경비를
공장의
기로
기지가
김철
남대문
납북
뜨는
레베
로어
로베르트
메이드
붙일
삼부
삼남
생후
선상
소친구
수소를
슈칸
신자들이
아게
아모
안았다
않겠다
옥사
유괴
은닉
이무
일고
장도
재는
재건을
전과를
접할
정을
정광
조그마한
존은
천호
철제
파리를
패의
하버
##iers
##미노
##경사
##지하
##장구
##읍이
##투스의
##탈삼진
##델라
##막염
일본제국
축구선수
대회에는
소속이며
발매하고
기능도
학생과
이적했고
Chin
전국체육
나가토
제안한다
조사하고
뛰어났다
예정이며
강화된
스웨덴에서
사라지는
적극적
구단에서
정리하는
동료들과
오스트레일리아에서
초반까지
개선하기
구별이
방출하는
베를린의
확률을
논리적으로
물려받은
히트곡
재료가
적대적인
마찰이
것인지를
내장된
제수되었다
기아자동차
불이익을
곤란한
이리하여
하셨는데
원나라에
BMW
가선대부
셀레우코스
지요다
히말라야
Cas
Han
MI
bre
가할
가수의
경전을
만경
먹어
무기는
벤자
부끄러
사라고
상은
속에는
손가락을
시문
아까
애스턴
영접
영창
오코
오치아
완만한
요아
요직을
우라노
익명의
익산시
인성
인원을
쟁취
조미
주앙
직물
짝짓
최선의
판은
풍경을
학설
함수로
화승
##으시
##사회에
##타석
##원소
##말과
##진영
##소서
##향으로
##공군
##판이다
##볼로
##빌은
##8년까지
##리아에
##스트와
한국에는
1975
생각도
생각하게
가능케
참여하면서
관계와
2500
이유만으로
선거구를
조직적인
22개
##ivity
그리스도가
자동화
명칭에
기업들이
북한과
제시하지
기념해
분리하는
##iev
대중적
유니온
바꾸기
세워졌으며
충분하다고
위해서였다
경영을
Albert
동맹에
후쿠자와
전달한다
##ources
개선된
확정지었다
비용으로
##하마드
머리에는
병사들은
ISBN
기울여
아오야마
파르티
배제하고
회담에서
풀려나
파이터즈
Cyber
노원구
뉴사우스웨일스
Cong
GA
M16
NX
n의
pm
개간
계시는
곳입니다
국자
국회가
기금을
나설
누벨
다낭
대지의
도제
동군
로베스
루카스
말하기
몸집이
백자
버금
보답
부상에
비이
비무장
서게
수혜
신자유
아군
야로
엄연히
였고
영흥
오다가
원문
의학적
자문을
점토
정원을
주원
청의
푸드
하기에
행군
휘하에서
##대첩
##법원에서
##치쿠
##판결을
##단체는
##벌의
##섭은
##곳에서
자신보다
당시로서는
##itor
##eld
수도원의
##시켰다는
건설되어
레이테
지배한
부족하다
선출되었으며
단체와
지상역
13일에는
##아가며
오스트리아는
평화로운
불가능하게
협력한
400만
자본주의의
폭발로
구속되었다
##노동당
1787년
exp
갈라진
1763년
아오이
신의주
텍사스주에
바르셀로
##ussia
신속히
최하위로
editor
모방한
피드백
공휴일
super
격렬하게
시크릿
지브롤
르완다
홍준표
4주
B를
UM
tilde
경은
경술
고이즈미
그린다
김혜
내서
단련
동상
마자르
몰린
무굴
버블
벤저
부정한
속도에
수단의
숨진
양구
얼터
엑스트라
자외
적립
주모
증보
지인
지대로
진중
코를
코타
코멘
토이
파트리
편파
행진을
현도
호종
##버지니아
##HL
##악은
##그가
##군데
##성이라는
##지진
##지선
##ville
##해지게
##유한
##요원으로
##션으로
##림에서
##있지만
프로파
사용자도
##itter
결정적으로
중앙부에
##urus
##문화예술
있을까
기업과
Cha
지휘자로
선택에
국회의원에
소유권
도착해
수정된
관할로
##하이머
귀국을
보이저
##mm이고
##은행이
##스럽습니다
1590년
선보이며
Phys
Sci
미쓰히데
재개되었다
2루타를
강등되었다
성과가
개인정보를
압둘라
에레디
적당히
##클래스
Retrieved
서프랑크
불경이다
프레임워크
여주인공
브라질레이루
5m
60년대
law
건다
계양
고지를
교감
군량
녹훈
대제학
동족
로의
로사
리바이
멜론
문법을
볼트
빈약
상환
샤르
서훈
신원을
악한
없었는데
여생을
위원이
입건
장강
전장에서
지우는
통증
파장을
파장이
포을
풍요
##레벨
##리니
##카노
##상어
##K의
##시장에
##물이나
##CE
##않고
##임관
##름으로
##머리에
##섬을
##헌대부
##톤이
1962
개발되고
지정하는
인정되어
건물들이
정의한
과학적으로
비교했을
1999년까지
7일에는
2019년에
강화하였다
처리하고
##선거에
구성되어있다
원칙이
엔진으로
범죄의
공부한
보컬로
거듭제곱
터미널을
탈퇴한
대리석
전동차가
선포하고
영혼의
users
것인지는
것인지에
무효화
김포공항
할당된
##코프스키
수컷은
피에트로
사우디아라비아의
직사각형
무분별한
Hon
NM
ever
mar
관서
광업
군사가
궁지에
던전
만수
모자를
범인
법학과를
봉기가
소르
양측의
어난
어니스트
여부와
열강의
입안
청자
초거
칼빈
컵위
타나
피크
한경
향과
허구
홍국
환자에게
후면
##텔라
##티로
##아오
##발라
##부인과
##ui
##봉산
##메이라
##조류
##진에게
##공연을
##코이
##남과
##검은
##엔을
##ication
만들면
제작되었으며
관련해서는
300년
고려하면
다양성을
성공하지
##ston
연결하고
##스크에서
시대에서
도입에
아르카
야구부
기반하여
불가침
도로교통
형식적인
추진을
물리쳤다
아시아나
세포에
제조하는
비행기가
##ika
발달했다
32개
황제와
달성군
전달했다
센터를
##그룹에
비난하였다
K리그1
누구든지
부상당한
실현을
명명했다
차이점이
보편적으로
Commission
##달러를
배정되었다
트라야
저널리즘
team
일컬어
시바타
맞붙었다
카테고
전교조
부드럽게
민족문제연구소의
조선후기
세계보건기구
승문원
2n
4단
5백만
IEC
Jes
cond
jo
결단
계보
계곡을
국군의
기자는
꺼려
낙양
냉장
달팽
도다
마취
마이스
막부가
만찬
망라
모건
모질라
반년
방안이
변조
불상의
사성
사에서
사장의
섭정을
세실
신병
십진
싱크로
안된
안국
양식은
얼어
여가
용감
위아래
유민
은사
익숙한
있군요
잎을
작년에
정육
조력
종들은
총감독
카가
콘클라
태생으로
화해를
##합동
##리프
##rome
##고교
##6월
##군단은
##보입니다
##oe
##테와
##je
##오피스
##9명이다
##영어
##탄으로
##공주의
##복시
##워진
##축이
##규를
##값으로
##샤를
당시에도
조선국
##heim
##roduction
수도였던
유명세를
플레이할
기여했고
적용해
애니메이션이
조사병
추정한다
정신분석
통과된
통과되었다
잘못이
치료는
가르친
크리스마
취임하여
필리포
전달되는
구단인
위반이
1982년부터
##사령부의
150만
유리수
제6회
운용되고
감소하고
북서쪽에
북서쪽으로는
청나라가
사태는
##전문대학원
progr
제8대
도와준다
학습을
##느냐는
좌우합작
탈출하여
천연가스
호소하였다
경유하는
구사하는
행렬의
중지되었다
싸우다
배급한
가득한
시키고
ARM
줄어드는
성명서를
마스크를
##군다나
지류인
November
아저씨
베스트셀러
가급적
몬태나
6기
Jim
Low
Pac
Ram
VL
ep
effect
개선이
계투로
공석이
관리는
담양군
더러
도나
발데
발열
번이
본체
봇을
부위를
불특
빼어
뿐이라고
산후
서두
성재
신자가
신학의
연이은
열등
워크래프트
이따
자질을
재고
전액
직영
처리에
체르노
측정한
커트
판관
피폐
해제를
헤딩
홍천
화학자
##합병
##무도
##거라
##간부
##실히
##물들을
##테스가
##점도
##차단
##층에는
##붙이는
##헌을
##글러
한국현대사
1966
##elt
필요하게
독립의
상태이며
238
##하려다
##하려다가
추가하고
스타드
유지에
분류의
2016년까지
진출하고
나라에서는
##irit
선정되었고
##rik
도로와
점령하여
국회의원은
폴란드를
개혁이
크로마
준비했다
하이웨이
##아가라
제정하여
근대화
##메이커
감소하는
레코드의
수입이
갈등은
출입을
시티의
1627년
1624년
타율이
호소했다
전면적으로
유행한
홈페이지에서
폭탄이
##ollow
##종합운동장
근로자
item
순조롭게
전념하였다
제조업체
갈아탈
들어갔으며
노면전차
진지하게
##ructure
고케닌
J3리그의
임베디드
Rog
각인
결함
그에게는
단계가
못한다고
문명을
부인을
상쇄
수질
슬라이
연혁
예송
와서는
외치며
웃는
위성은
의상을
인의
정밀한
조씨
지크
차려
찬성으로
취하지
취지를
층으로
콜레스테롤
쿠키
크릭
토의
풍기
함량이
허나
허정은
확산을
##자이기도
##협회를
##카즈
##게리온
##세라
##보시
##간에서
##나리의
##유물
##린에
##름한
##올림
##투라
##평균
##편과
##탐사
##숨에
##졌다고
시즌으로
개발되었으며
자유민주연합
소속사는
사망으로
국민적
##스크를
드라마가
항공이
지도적인
승강장에서
언급한다
선택한다
실험적인
전환하는
프로젝트이다
살해된
전시하고
태어나고
업무가
1591년
중화인민공화국이
신앙고
공통적인
출장하여
미니앨범
보관하고
사임한
질병에
포항제철
확률은
의정부좌
##조참의
스키타이
극복하고
반달을
1부리그
통용되는
해운대구
##aterial
칼럼을
요시아키
Album
history
만민공동
A조
Gab
Ren
leg
거성
거치는
경도
경직
고제
교관
네번째
당하자
대모
대가를
되나
뒤떨
때보다
라부아
리사
맞을
미로
밀수
반야
방해가
법안이
살았으며
상비
색상은
선풍
세도
셜록
송정
수납
수모를
숙성
시무
쓸데
연간에
오거
음성군
의의가
이국
이점을
장식을
적장
접견
정점에
진영을
치면
트릭
파도
평방
포커
한명으로
헤엄
호시
##연군
##가라
##명이었다
##협약
##시장의
##접촉
##마사의
##관왕을
##700
##bol
##했으니
##었음에도
##해제
##액에
##UM
##영양
##향의
##털이
##감시
##십리
##허는
활동하지
선수단을
문제에서
1931년에
설치류이다
러시아로
소속기관으로
##대학교와
행정의
민주당과
100주년
마이어
적용이
근거리
어려웠
선출된다
헌법상
4일에는
주의해야
반응으로
500명의
교통카드
통과하고
가져갔다
발달하였고
이번이
동물은
비밀결
제도적
저장할
스피어
철학에
효율이
페이지에서
연관성을
시위대
제10대
보냈는데
전향했다
공동체에서
토착종이다
파키스탄의
이에야스는
에반게리온
##협동조합
임오군
Sand
Treat
간과
걸어서
곧장
그야말로
기꺼
깨뜨
다포
러더
로크
문명이
방면에
배영
버로
브론
브레인
상금
새해
성실한
수라
순화
숲을
시호가
쓰였던
우연
우체
우르바
유구
이젠
입단을
재규
전한의
제식
족이
준다는
집무
천체를
페데
피닉스
할리
##와디
##티우스
##자전
##타이어
##계급의
##났다고
##왕도
##5회
##59
##국가로
##배와
##재에
##공예
##댄스
##슈는
19개
한다며
##되었었다
15세의
만들려고
관리로
영국군이
진행됐다
25세
요청한다
개인에
개최하여
언급되어
제안으로
7일까지
획득하여
표기법을
아시아와
이사장을
파견되는
좋아하여
시도했지만
상호간의
한번은
단일화
통해서만
기대하고
에피소드는
참전하여
1582년
침입하여
노출되어
저서인
관여한
부동소수
구매할
##하셨습니다
중성미
사막의
아즈텍
시점에서는
Indust
두드러지게
아비달마
무의미
Secret
꿈꾸는
육체적
이형주
맥아더
미합중
리서치
##아니라
비단털쥐과에
패미컴
미스코리아
악영향을
앙상블
##글로색슨
1녀
5기
5백
8km
Apr
각운동
강인
강좌
건은
넓어
대저
더군다나
드린
루드
만연
말기에는
명분
몇달
물체에
분량
분자가
선체
시일
아라이
악화로
양주시
업체가
예산군
외출
유적은
유형을
윤창
의복
이발
이치로
일자
일축
장비가
적과
조치로
족은
줄인
청하였다
체사
탁발
터지자
트리스
틀입니다
호스팅
회로를
흐른
##수상
##사장
##일수록
##ract
##우체국
##색이다
##보류
##왕국의
##선진
##졌었다
##공구
##디우스
##되었거나
한국명
중국계
정치권
토론토의
유럽인
비판하며
평가한다
아르키
전통과
지배하던
제한은
시민들에게
요시타
작곡은
인터넷의
1994년에는
개혁은
1992년에는
동물원
그해에
내부적으로
범죄에
묘사된
마드리드에서
64비트
나이아가라
조합을
1000만
페이지는
인지하고
1680년
스탈린이
##후보로
Committee
나선다
황후가
요리토모
유길준은
반유대
2백
3자
512
KF
Publish
pos
가평
값의
공여
굴욕
권리의
그뒤
김필
나돌
네르
노린
다가가
르노
만능
못하였으나
반미
반자동
보현
본토의
부코
분자를
상피
서천
선더
선데이
설령
세제
슬래
외젠
외모를
우타
장영
절도사
조공
지형이
축제를
코크
타계
팬이
포탑
푸스
효종의
흑사
##텔로
##스투스
##시비
##물질의
##위하
##오브
##bus
##었기에
##나갈
##벽의
##필드는
##표시
##촌의
##촌동
##높은
10주년
중심인
게임보이
발생했을
참가하였으며
운행에
건축을
조건에서
표기할
육군참모
##교회와
국왕과
넘어선
참석하지
관측된
조금만
종류와
침공으로
Cla
테이프를
1675년
올스타전에
전작인
대변인은
conf
포괄하는
Neo
대답을
전성기
해명했다
이내로
need
페널티을
사쿠라이
again
이례적으로
마스코트
튼튼한
코호몰로지
오스트로네시아
모잠비크
여기저기
2백만
80년
9000
Iv
how
opt
sing
가면을
강세
과목을
끝마
나침
남침
녀석
덴무
미용
미혼
미시마
밀로
방과
변의
부로
분투
불선
빛과
선의로
소각
속주
수니
수잔
스님
쓰가루
어시
오해가
입힌
장엄
점수가
증광
지남에
치부
패밀
포위를
표했다
##티지
##학연구
##본부의
##이드는
##부수
##내에는
##드려
##지므로
##개시
##book
##했었던
##요크
##센티미터
##차이
##염색
##투스는
##쇠를
##논문
사용하면서
주장할
연구하기
방송국이
##리스토
확인된다
개최되고
철도역
선발된
영어권
연방에
생성하고
지상에서
후반기에
친구였던
##지역과
##iforn
발사하는
##mm로
400여
연극의
후손들은
한반도에서
##여자고등학교
진학하여
Coll
범위에서
content
포인트가
들어오면서
부장판
때려냈다
평택시
연평도
진사시에
뉴저지주
드나들
몽고메리
벤저민
2녀
2군에
Den
HR
Key
OH
Town
Template
pat
거인의
경교
교체를
굴착
기을
단숨에
대야
라몬
물체는
바친
밝힐
배합
백제가
보기는
사멸
성기
시야
쓰다
아에
아픈
에코
우라와
은근
전신은
정점을
조제프
중종의
진봉
청두
최동
축복
출소
특사
패자
편성에
풀럼
헤더
형주
회남
##레스로
##제국이
##1에
##내는데
##창작
##노마루
##2000
##DR
##AX
##xx
##공사로
##St
##품질
##혀진
##탱크
##하여서
위키를
생각과
도시들을
##ela
1932년에
대통령비서
1922년에
##usion
편집하고
인터럽
후보자의
차지하였고
유명했다
발전하고
부산에
mathsf
정의하였다
이끌며
이르지
선정되었으며
나가게
증가할
##ova
결승전을
경험과
반란은
70여
재판관
성립하는
떠나자
구단과
1809년
불가능하다는
감염이
사태의
반영된
박물관으로
개설된
나왔는데
질병으로
가이아
대원군의
코스프레
인기가요
유격수로
아케메네스
바이러스는
바이러스에
없었으므로
앞장섰다
간략하게
장준하는
감마선
문무왕
중생대
수페르리가
카네기
리차드
1명은
4번째로
K의
LM
Syn
간은
강도를
겸손
구실로
궤도의
귀하가
나리
내전에서
노획
높지
당역
대시
대류
렌즈를
맞는다
물방울
미케
바으로
반가
버이
버림
본회의
비사
산재
삼을
상당의
세로로
열었고
오시마
일찌
일대가
정희
좋겠네요
찬성을
창세기
출옥
키라
통계에
틀로
포워드
표면에서
합천군
혁명은
협상에
##텔레스
##티니
##수영
##청정을
##사슴
##전동
##T는
##어족의
##하셔서
##상호
##yes
##설치
##장관은
##입된
##급에서
##른의
##쪽이
##엘리
##텐베르크
필요도
##스크의
공개하지
활약하였고
제국대학
도입해
기독교인
40km
##적이어서
4일까지
오른팔
여겨지며
1989년부터
지하철을
##베르토
신라를
신뢰성이
멕시코에서
게이세이
380
1506년
교토에
변호사를
1603년
3개를
장관과
병합하여
나왔던
진주만
선박이
이념으로
토벌에
증언했다
Seoul
코로나바이러
연락이
옛날에
크루즈
고민을
심장마
주차장
노면전
##ribut
레논은
루터교
게이오기주쿠
장준하
암호화폐
헤르체고비
아데노
손잡고
Sports
##iddle
help
music
외동딸
##증후군
소프라노
Ly
POS
RB
Sin
Walk
개수를
누릴
다진
당과
덕양구
도지사
마한
문수
박현
부어
부차
분을
사시
산문
삼엽
생쥐
서한
세베
소학교
수미
수년간
아크로
에리트
열세
요인은
우주는
원으로
이과
이신
인연으로
일등
잡는다
장유
재기
죽었을
진남
징발
충동
친미
쿠알라
화자
황교
##서구
##자다
##느니
##중간
##시니
##식민
##형에서
##크트
##환경을
##히면서
##속도는
##염의
##름과
##저리
##귀가
##슈테
10살
들어섰
##ito
존재하기
대표하여
결과의
##운동장에서
개인을
활약에
3166
그리스인
##osm
자기장이
사고이다
언급하지
처리한다
주민들에게
부르키
이야기한다
300m
달러가
나무에
상징적
고구려와
포르투갈은
나뉘게
투입하여
카운터
Prince
농업이
480
block
##프레임
타율은
DNA의
Head
형사소송
다중계정이
예외가
반박했다
요금이
보인다고
각본가
아즈치
NGO
고다이고
프렌치
동등하게
4연
OEC
between
가처분
것까지
남발
다키
대불
동률을
록맨
무당
바니
박사를
방일
방북
블러드
비올
사나다
성급
소급
솔로로
순방
순창
예민
완충
요안
욕계의
의사는
이질
임수
재소
제법
종이를
줄의
집게
취역
측과
카멜
크다고
퍼플
평했다
한결
한정으로
함에
헤로도
혈압
호아
화양
회중
##레코
##제동
##군관
##내기도
##드니
##동부
##세자
##지대로
##베리아의
##마당
##관리를
##포장
##등기
##측정
##례는
일본어를
##orum
1942년에
1400
연구했다
개발로
발견을
##roph
중앙당
데뷔했고
국민총
계획과
지원해
언어적
담당하며
나가오카
12일에는
부여했다
실험의
폐지되어
도착할
연기하는
야마자키
스테이트
스위트
Three
전용으로
채널이다
경성부에서
취급한다
멸망하고
연재되었다
대개는
배출하였다
확립된
1637년
거짓으로
그래픽스
강요하는
##브라더스
철거되었다
지중추
##helm
간호사
엘리베이터가
무서워
성추행
Stadium
레오나르도
UFO
Football
종합격투기
4경기
M4
Ts
경관
경감
농장을
대선에
디랙
말갈
미치게
바르게
변하고
블러
상주시
생겼고
승천
신대륙
알이
애정
어류
어퍼
열었으며
영재
옮김
왕조에
요리에
용문
울진
윤선거
융성
이었으며
자기를
재단은
정무를
제비
제단
주안
증산
투사
팬덤
포용
학원의
현과
회자
##티르
##아마
##서에는
##회에서는
##달리
##상사
##신호
##절차를
##러스는
##근본
##양식
##입구
##해냈다
##처리를
##피해
##커녕
##닐슨
18개의
제작할
발표했으며
1926년에
##리스타
운동에서
변경되었으며
인터콘티
확인되어
##스타를
시리즈인
이동은
이동휘
그런지
6일에는
해결되지
잉글랜드에서
부여한다
국가대표팀을
##지방에
출처의
부르기
1988년부터
계열은
밴드에
부모님이
촬영이
삼국시대의
1845년
1799년
창립된
사태로
식물은
Leon
유나이티드는
##슈타인의
서술하고
3차전
도달했다
의존하지
800만
접속을
When
발휘할
Commons
구로다
이광수는
정벌에
일행과
시라카와
김옥균은
성리학을
차출되었다
글씨로
위촉되었다
화강암
도르트문트
know
세바스티
October
피쳐링
720
Cath
Tu
Year
sol
감사의
급한
기축
김화
노숙
논문이
니더
대함
드와
루터의
만년에
무예
밀턴
발진
백마
백련
부이
비웃
성혼
세조는
수치는
스무
실습
쓰면서
의식은
인조가
정상을
정원은
즐겁게
탈영
탑을
하북
행차
##아과에
##이용
##gg
##rat
##그란
##경원
##경우
##원종공신
##드볼
##통화
##메테
##오니
##백화
##입하는
##들러
##들랜드
##구라
##패드
##친은
##ét
##0년경에
시작하였으나
##aria
경기장의
15km
아니한다
1948
존재하여
##위원장에
##eland
제2기
진행하며
1911년에
반대에도
민주주의의
기원에
분류된
발전시킨
기관차는
교황과
제시할
언론이
2일에는
헌법소
추정할
네덜란드령
서쪽에는
Anim
수립에
수립하고
1808년
이루어져야
목적과
마쓰이
폭발이
공유한다
베이스타스
소녀의
머물면서
일정하게
Death
##버그의
통상적인
사우디
관여하지
프라이버
코스닥
라이온스
Common
수반하는
모순을
design
협박을
##itten
밀양시
동독의
승부차기에서
보성전문학교
하반기
Walter
옥타비아
DE
가치에
권력에
내면서
단언
달력
되려
로리타
마누
막은
많았지만
목도
무기의
무리의
바에서
바레인
반혁명
브라이
수있다
아일
야망
완주군
웃음을
월등
율리오
이교
이휘
이황의
재물을
저주를
정에
판독
할것
히치
##방식은
##rum
##하타
##지침
##메는
##물질이
##조원
##바사
##프리트
##치다
##항일
##열차는
##더지
10km
##주의자들의
있었는지
독일과의
부분만
기술되어
임명하는
2016년부터
##ager
플레이어를
영어로는
보내게
작성했다
##anda
##ries
비교해서
언론에서는
표시한
법률상
움직인다
예술을
부르던
불교는
즉위하여
특수부대
##나무의
하이난
알렉세이
작용이
반란군
천황과
프레드릭
완성하였다
발사한
내부에서는
이집트를
위반하는
묘사되었다
분포되어
1798년
Prov
총독부가
둘째로
포기했다
##ahn
트랙으로
해주었다
##문제연구소
대변하는
고객의
요금소
착수하였다
게재된
익스프레
구미시
양키스는
트라키아
반공주의
##hemat
흥선대원군은
Sky
스테인리스
##관한법률
방탄소년
비둘기
3천만
3단계
520
CU
His
Ham
Java
Ky
RAM
game
sev
걸림
결의를
공적인
과업
광종
구심
기미
남측
농담
높다는
대천
동종
듣기
띠며
로라
멀지
모교인
묘법연
묵인
문관
병역을
부식
부사관
불렸고
빈도가
성원
신센
심도
싶어서
영주시
요소에
용량이
유난히
일년
조공을
좌초
주방
케로로
코나
코레일
태조가
통학
푸르
해부터
헬라
형벌을
희박
##합플레이
##텔의
##tim
##전리
##주차
##드린
##세계를
##노베
##혁명을
##패와
##광과
##디지
##튼의
##글루
##밀도
일본인의
##6년부터
리그베다
구성했다
정책이나
앨범에는
멤버를
가까이에
선언한다
결합하는
1993년에는
시도했으나
참석하고
개선하는
##개발을
모스크바로
소녀가
검토하고
##전문대학
병사들의
단어인
변환하는
김성수는
이온화
Laur
##시스템을
겸임하였다
비서실
사직하고
강경한
카이사르
낙선하였다
요리토모의
시간대에는
헤라클
메커니즘을
완봉승을
드루킹
남로당
한길사
5호선
7명이
Gro
SAR
Wr
가위
거침
경구
구역이
기법으로
김천시
나토
당도
모임이
문맹
미지
미션을
바서
벌레
변희
본국
빠진다
살포
설정은
성씨는
아포
엔도
오데
완패
은하는
의성군
일직
일할
장진
정윤
정맥
지었으며
집시
짓게
차체를
철의
칭했다
코치가
피하여
혁신을
혈연
황국
##비이다
##현상을
##TH
##악단의
##med
##동맥
##oz
##시하는
##효가
##bon
##배출
##삼국
##운용
##평가를
##왜성
사용했으며
일본군과
##esh
만들었던
ins
차단한
유지해야
연합에
역시도
지나간
형식적으로
방문할
메이플
Reform
불교에
교수인
동생으로
완성했다
책임은
계산한다
##obe
조선민주주의인민공화국에서
블루레이
아메리카의
연출한
국제공항으로
광역시
파르마
이웃한
진격했다
PSP
블로그에
예언자
미하엘
##uther
맹활약
##호르몬
K3리그
아즈마카가미
블리자드
안달루시아
기꺼이
610
Circ
Civil
geck
vec
가다가
감속
개체가
거리와
게으
관점에
괴로워
극에
깊어
단성
도자이
마돈
명단에서
문부
번안
범주의
보니까
빛에
사오
사극
사임을
삼존
서인의
세차
야코
양동
여겼
역삼
요리가
윈드
일하며
잘츠부르크
전소
점화
정혜
정반
조국의
지를
지킨
커밍
콘월
쿠페
키예
태정
푸카
##스어
##49
##브에서
##체제의
##한번
##산대
##바토
##처와
##읍과
##머를
##익산
##규와
한국인이
조선민족
사이공
문서들에
세계일보
포함하였다
중국인민
있어요
전쟁이다
프랑스군을
##ili
설립허가
전투에서는
23세
정의와
그룹과
Stat
적용하고
부족하다고
선출한다
제시해
고대부터
조건부
거주하며
배치하는
도착하기
##ellig
대사관을
헝가리는
확보하는
예선전
농업과
아들이었다
언제부터
카이저
1589년
버전인
무사시노
그레이스
##부대사
폭력적인
마감하였다
북아메리카의
##공동체
나가사키현
만났을
##우회도로
##overussia
어지럽
모자이크
파이낸셜
KL
Los
NR
Pot
Some
Wild
강박
공자의
공집합
과세
그물
김나지
내부를
넘기
늘고
대본을
레저
리의
미지의
바다가
박병
버스와
법학을
변론
변함
세인
쇼크
스루가
승전
시점을
신노스케
역무
연료로
이연
잃는
장충
재출
제패
제향
철자
코끼
태조는
폴로
합금
해금
황우
##기다
##대도
##대상이
##협회에서
##전선의
##전보국
##문이다
##메이드
##베가
##창한
##장수
##입법
##퍼드는
##너티브
##길래
##허의
경기들을
16대
##isk
존재합니다
으로써
부분적인
##use
받아왔다
1908년에
하여도
월드시리즈
스페인이
보여집니다
찾아보
규모와
뛰어들었다
정확히는
캐나다와
파괴되어
동맹은
##iance
반복적인
세종은
살해당한
조각으로
센터에
eng
경성제국대학
변호사는
엘리엇
단일한
스튜디오가
하늘이
은행은
대수기하
Deep
창단된
ISIL
구현하는
동해안
1689년
동성애를
번뇌가
불편을
##ether
사헌부대사
결심했다
프리미어리그에
일관된
저택에서
관통하는
연상시키는
중산층
너무나도
여고생
에트루리아
Ak
AW
Jud
PM
Rud
gold
가스를
각주
갖은
과부
교사의
국채
균형이
기라
기르는
날렸다
노컷
놓을
답답
대유
동기를
등으로부터
맞선
메일을
미트
방해를
변수는
병원의
부원
부정부
비닐
섬기는
성이다
성당은
아토
야훼
양치
어학
에번
예천
오딘
옹진
응축
일러
잉글
재촉
중이었던
차종
초능력
포이
표면은
하모
헬렌
화의
화면이
##h0
##이스트
##소총
##식물의
##형식
##공수
##차고
##웨이의
##억원에
##있기
##곳이
##돼지
12만
국가원수
여러개의
포함하며
30개
발생을
의미하고
##cher
스타워즈
발전하게
프리드
나오자
이적하면서
이해관계
부족은
사무국
규모이다
8일에는
23일에는
유사하지만
에너지로
드러내지
출처에서
부르군
회사들이
체결되었다
평균적으로
공작으로
수비수이다
근무하면서
부모님
촬영은
시각으로
##전쟁에서
농업에
동원한
공포의
조합으로
개조된
##리우스가
법칙이
가와고에
전동차는
세우기
상하이의
레지스탕
벗어날
##소송을
트랜스젠
업그레이
프로게이머이다
대합실
Office
해왕성
Visual
구부러
재신임
미켈란
아르테미
오랑캐
행방불명
6촌
Greg
Ltd
NET
RX
doc
wr
개경
계림
고칠
궁전을
기회는
깨진
너희
넘기고
다해
담수
데에도
마조
막론
매체를
명동
베스
봉고
부상과
불출
비인
빈센트
사정에
산신
산물
생물이
설은
승리가
신현
신격
않습니까
앞으로는
연장을
온몸
왕비로
왕성한
원망
일드
임박
입자는
장사를
조원
지온
첫사랑
카톨릭
크세
타인을
퇴사
평생을
피라
형과
형제를
호라
##기초
##가나
##비용을
##거루
##바니
##소닉
##노라
##cast
##태와
##공룡
##모드
##멸을
##때마다
##감치
19세기의
1800
##학교이다
가장자리에
1924년에
등장하면서
스타인
앨범에서
분류되었다
인정되고
인정받은
개인은
자연적
50개
정의당
##리오의
공연했다
선출하기
시민사회
14일에는
즉위하면서
경쟁력을
방영을
동쪽에는
스웨덴과
통치권을
떠나지
##연합의
시기이다
논의에
옮겨져
마련하여
##ante
나서지
기계적인
통해서도
올려놓
양성하는
도달하였다
진압을
##문학상
페이지의
관료이다
conc
결심하고
포털사이트
도마붙이
한국방송공사
미디어를
기인한다
##컴퓨터
하세가와
컵위너스컵
##근본번뇌
1이닝
Bul
Kill
Os
Od
T1
Tod
count
dim
wiki
갑자
갔으며
같으나
겸하였다
곡률
교두
늘리고
다면
데와
도상
도매
두른
띄워
맡았는데
매핑
매운
몰라서
묘가
백성의
법흥
본부가
사돈
산소가
시녀
시공간
신에게
안면
안상
약물을
엑소
엘비스
오가와
우정을
워리어
인내
임차
입수한
주문을
진관
초판
측도
콘도
히딩
##pose
##대사를
##하느라
##그린
##적이라
##분까지
##베크
##번길
##량한
##DX
##법도
##구이
##형이며
##초에서
##책과
##모리는
##플라스
##돼야
사용하였고
##1년부터
##icle
선수였던
중국공산
##위원장이
방송국의
문화에서
우승의
교육기관
국민들은
인정하여
형성할
##opter
연방을
자기장을
8일까지
##essage
제조한
계정과
시도한다
수정하여
슈퍼리그
재판이
연장되었다
종목을
기후에
비용과
1810년
주교로
추측하고
우려한
기대할
서버가
지붕을
1970년대부터
감정적인
웹사이트에
OSEN
캠프에
바이러스를
##원숭이의
MP3
추첨은
이륜자동차
캄파니아주
AGB닐슨
어째서
얼터너티브
3은
45년
Bal
Creat
die
psi
가하여
결투
고심
공원으로
구상을
김모
끊고
남성은
대수는
도승지
릴리스
먹으면
명료
모사
무에
베릴
보세요
빠르다
상실한
선공개
성상
수선
승마
안될
안젤
어수
예조판서
운명의
위너
의탁
입력을
잠금
전역이
정이다
증직
증가와
퍼거
행사로
호러
##으리라
##사슬
##토닌
##이어서
##경에는
##우에서
##베트
##장으로서
##I의
##법사
##요금
##폭을
##함으로서
##케스
구성원은
운동이다
돌아서
반대하며
임명한다
시대까지
군사적으로
국내로
우주로
처리된
임시정부를
승리하고
단순하게
##지방에서
아마가사키
바뀌지
제47
1988년에는
경영에
크리스틴
필리포스
남북협
넘어간
대사간
확대하고
베르디
멕시코시티
사회주의자
만들었다는
자본가
합병되었다
1797년
라틴아메리카
신앙과
##연맹은
동작하는
침략에
1583년
드래프트를
유한한
600만
발굴된
타이거즈
오카자키
철수했다
유입된
하시바
모노레일
정벌을
전승에
웨이크
콩고민주공화국
학부모
경신했다
을사조약
타락한
불신임
형용사
Microsoft
이니셜
견디지
다치바나
##청고시제20
지석묘
1패로
3급
5경기
6km
lo
n은
고리가
공판
내리지
농업을
달았다
대일본
도금
도플러
동부에서
로는
많으나
메스
발신
법상
복음을
볼턴
북방의
숙련
신체를
썼는데
연임
연대의
왕건의
원핵
이로서
일광
자치를
전치
정계에서
즉위를
즐기고
채우는
처한다
초급
치며
칙령을
칭하였다
키즈
하카
학내
한계에
향상과
현생
호시노
##합은
##덕면
##nam
##카베
##우사
##씨에
##나온
##R은
##공공
##코스의
##남이
##넬라
##캠프
사람에게는
그러는
1963
프랑켄
가지기
시즌과
##ione
아이러
중심은
1927년에
설치가
교육과학기술
지원은
후보에게
인정되었다
플레이가
##osis
보여줄
##iae
판단된다
29일에는
개통되면서
지적하며
제목에
경영학
경영하는
치료하는
수정하는
동물이다
thumb
전반의
1세에
베네벤
요리사
천문대
1835년
인수했다
측정하기
고향을
1817년
조작하는
대표팀에서
반영하여
브랜드의
조선총독부는
편찬에
항복하였다
해제되었다
영구적인
에르도
자라며
김영삼의
정통성을
Andrew
비공식적으로
지혜를
백악관
정서적
메일링
아키텐의
아끼지
Febru
1백
Mind
li
갔으나
겪었고
경력의
골수
구레
굳건
근무를
금주
남태평양
동차
머리로
명절
복장을
사옥
사제는
색계
서는
서라
손실이
숨지고
스푸
식스토
신태
아을
애너
에라스
옥고를
와이어
육아
이비
일회
지루
질문이
카로
칸을
콘퍼런스
키케
타구를
태종이
페터
피자
필로
해상에
현명
현관
화교
##hard
##대장군
##6의
##적도
##증명
##문학과
##러기
##직인
##창으로
##마리아
##D를
##후사
##불명의
##히로의
##쳤을
##몬테
11번
그리워
하나라고
아이파크
구성원으로
필요없
상태인
다양체의
이미지의
1905년에
000명으로
이야기도
선택적
지상역으로
시행하였다
도착했을
3000m
시험은
달성했고
전달하고
1986년부터
발사했다
보존하는
침공했다
운용하는
공유할
물러나게
의혹에
입력하면
우려하여
상륙하였다
수송을
트로트
연관성이
1567년
자이언트
살펴볼
레닌주의
남아메리카의
대승불교
순수하게
##국토교통부고시
이광수
미네르바
몰락한
남양주
충격적인
분당구
과학기술정보통신
쫓겨난
좌절되었다
##펜하우
Berlin
아리스토텔레스
선거인단
불완전한
온라인으로
수페르코파
Film
Hello
장본인
인버터
홍길동
피오렌티나
7세는
B형
MY
S의
Set
WA
pages
개성을
검사의
겨루
계단을
구절을
군대에서
기구가
기구로
김신
까은
날리는
내수
노아
노블
다승
단바
대사는
독신
돌고래
모병
벌였으나
부위원장
불안을
브람
빌어
선덜랜드
숙종이
숙종은
시드를
양립
업적은
에일
온전한
왔다는
외적
용량을
유해는
일하기
자장
재도
정비를
조성을
지리학
질주
초청을
커리어
키클
파업을
퍼센트
포수로
하되
함안군
호박
회장인
휴지
##가루를
##사항이
##명부
##석사
##방안
##이적
##이치가
##화될
##uct
##거리의
##bc
##들간의
##당이다
##탄소
##째에
##길과
12명
한국시간
한국전력
사람들로
조선임
##itect
이용에
연구소는
자유에
지정되었으며
편집의
여성가족
##stand
제공하지
스타일이
이동에
공개하고
그것들을
부산대학교
사랑하고
경찰에게
피해자를
401
연속적
형식과
##시킨다고
번역되어
법률은
허용하였다
스위스에서
바르톨
베르너
불가능하다고
인용하여
동의하는
동의했다
##레이션을
Prim
1819년
스피릿
정복하고
프로세서를
교환을
돌아가게
제2016
동북부
단편소설
스케치
클라리
가야금
파트너십
밀라노의
리투아니아의
Christoph
편리하게
취항하고
이용객이
discuss
ESPN
불투명
##h085
February
2패
4세대
Bob
Mos
different
pH
갑은
금광
금지를
기계의
내전에
농장에서
당파
라라
마재
마젤
명주
반체제
생장
성호
성질의
소리는
슬레이
신파
실체를
얼티
열리게
오면서
올린다
옮겼고
위성이
제타
조가
존의
중선거구
지대의
첼로
타키
항을
행보를
후나
##8m
##고용
##여겨
##정하고
##군단의
##르드
##zer
##베르는
##루스를
##만치
##해병
##요시가
##차크
##곡선
##함수를
##FS
##섬으로
##롭스
##객을
##날개
##멜로
##스트럭
##하다며
사이트는
17세의
제2항
##라이즈
관계이다
25개
25만
독립신문
##ential
나라현
학생으로
2017년까지
##이드를
노동자가
과학에
이르기
2차례
제안합니다
5000만
네덜란드와
확장하여
##스턴은
배치했다
바꾸게
시설에
방어하기
출발하였다
인사청문
확대하여
운용하고
연맹에서
수집하고
저작권법
빼앗은
항복했다
양자장
터미널은
일으키지
후계자가
국제공항이
1573년
APEC
세웠으나
총재는
죽었다는
맞춰서
모순이
play
뮤직비디오는
공무원의
용의자
##ength
에버턴
시흥시
유년기를
물고기를
이범석
부합하는
Army
강대국
관음보살
Sotiale
4는
4성
Dor
M2
More
Past
Rod
Talk
VI
가부
건의로
계수를
교포
남부는
내건
뉴런
단을
닫혀
대양
루터는
몸에서
몸길이
밀정
버스에
병의
보나
부제학
산개
살림
쇼펜하우
수표
수열
심볼
어면
영천시
위민
이십
중경
중력에
집과
찾게
청원군
초조
코드의
플린
피부를
황룡
##GC
##ten
##자매
##지은
##러맨더
##목록
##순과
##코에게
##모인
##병기
##혐의로
##이라기
지역도
하나와
기록에는
부분집합
중앙을
##oto
인물들의
남아공
지도자를
사상으로
단체들이
챔피언쉽
요시타카
처리되었다
세력인
거부할
성장하고
이렇듯
Alf
귀족원
스테레오
달성할
충돌하여
고종을
보이네요
1985년부터
베르더
회원국이
1833년
구축했다
##스케는
가게를
건국훈장
트레이드를
장착할
산맥에
공화당의
마케도니아의
1610년
비상사태
후속으로
등급은
흘러들어
풍부하고
동북아
의정부시
소멸되었다
독재자
엑스선
##사상사
외무장관
PSV
임용되었다
##weet
김홍집
화순군
하리마
랜드마크
배터리를
애프터
페가수스
간간히
Ron
Roll
Sex
Term
pass
강민
고른
구파
김미
김소
김남
깊다
꿈에
남명
동점을
라플라
로랑
맞서는
바스티
반론을
백의
벌어들
보성군
북두
분들도
색채를
성조
성령의
수고
수배
썼다고
쓰이
아쉽
애정을
야행성
억지
에만
에리크
옆에는
오송
오은
올랜
우부
유랑
윤일
응오
인격을
입출력
종이에
주시고
지점의
찬드라
키웠다
탈옥
통증이
파라마
페테르
학계
효소의
흘려
##연대와
##리지만
##토라
##주석
##간섭
##실론
##프티
##com
##유리
##네로
##속도를
##살로
##총련
2000년대에
##erc
##4년까지
사이비
##ici
주장해
제작은
발표가
1920
215
교육적
1907년에
생산은
노동운동
이론적인
지나서
##연구소의
구분하고
획득했고
부여할
아마고
through
바람직한
1807년
건너는
불러들여
##정책으로
개편하여
회원들이
때에만
임명되었다가
레코드에
건국대학교
부활절
대비한
올리면서
파악하기
아르헨티나와
대공황
플랫폼으로
트로츠키
실현되지
출간했다
음식과
모임인
소집된
환승할
세웠던
여의고
사로잡혀
물러나고
진도군
태그를
이닝을
부작용이
아름다움을
기묘한
사탕수수
삼층석탑이다
선전포고를
수다메리카
Jacob
테크놀로지
테헤란
노브고로드
Championship
3에
ICA
MK
cre
view
고루
그을
날씨가
남우주연
네버
다수는
대금
레나
로테르
만주의
벌어져
법전
벤치에
변동이
부채를
블레이드
비관
사단이
섭씨
성장이
속속
승소
신장은
신체에
아퀴
유교의
육군이
윤성
일했으며
잉태
잔혹
장군과
재입
정직
지양
초토
콤비
패소
표상
해인사
해럴드
효령
##1000
##수라
##i는
##본이다
##방재
##M을
##정권의
##파라
##부윤
##계사
##개음
##키치
##장치가
##호까지
##포화
##목에서
##유수
##네스의
##단장
##셨는데
##저로
##난의
##칙에
##리아에서
사이코
대한민국과의
발표해
발생하였고
발생하면
214
경제부
##enth
만들어낸다
도입이
영어가
교황에게
선정하여
제한하고
##되기까지
드러내고
외국에
제품과
제44
전해지지
노력에
때까지의
공항이다
##나가고
연장전
##단체이다
세종시
살해했다
정상회담을
시각도
유형으로
##전쟁에
헤이장
리더가
도망친
목소리로
분열이
개국하였다
영웅으로
혼인하였다
성질은
재료의
place
레인보우
연계하여
불렀는데
오타쿠
여진족
Jeff
##플렉틱
공약으로
cdots
프리메라리가
석회암
##창조과학
보행자
유식유가행파의
트랜스포머
보건복지부
테살로니
community
가니메
April
8명이
Fly
GB
Ott
h를
mic
가며
경의를
고를
고주
공원에서
군기
궁전에서
기만
내분
네임
놀러
닛코
덕을
도농
동사의
등지로
로서의
반구
베라
보너
부마
북로
북제
비자금
산발
색과
서기관
서명한
성단
성과는
소식에
스톨
시성
시멘
신호로
열흘
오나라
온도에서
요세
유린
이조참판
인기는
입회
장승
재사용
정오
주석이
지운
지우고
직원으로
집안을
치수
코요
코칭
쿠르트
타당한
타블로
터빈
토바
투수의
파서
파문을
행사의
현대로
호수의
혼동을
화기
휴먼
##다에
##아라
##1품
##대회의
##주신
##미드
##mond
##계선
##보인다
##까봐
##메스는
##베쓰
##데이는
##안면
##프도
##2와
##유키의
##슬론
##귀의
##귀에
##블라
##혐의
10의
##이나마
하나님을
서울올림픽
주장하기도
제1부
1959
알려준다
구성과
부분입니다
특히나
인물들을
31일부터
##ulf
교황청의
##적이기
지휘한
받았기
산업과
정확하지
분석은
좋아해
작용하여
가정한다
떠나기
##센터에
논의하는
구단주
수립한
바르바로
자본을
전사하고
1605년
제60
소년이
카메라는
예상하고
도망쳤다
대성당은
1614년
밝히면서
기다렸다
출간하였다
가와카미
절반이
대결에서
세우게
공용어로
프라이드
마음작용을
아틀라스
Online
메모리에
피신청
기자회견
한겨레신문
Hero
터뜨렸다
Californ
미라클
데미지를
후세인
Standard
아름답고
불문하고
해양수산부
스털링
엘살바도르
우르바노
Aud
Dog
Ess
FN
Happ
tau
각별한
감당
갔던
겪는다
경선에서
고드
교체가
권유를
글자로
기전이다
김봉
낙태
누마
달은
던지
데도
덴노
따지면
맹렬한
못해서
무고한
방으로
별개
봉분
빌럼
뽑힌
사춘
살인을
소망
악보
약소
양명
양적
연기로
워킹
원수를
원형을
유람
정사를
중등학교
지대가
체로키
최측
컨퍼런
코스를
키와
태상
파벨
폐선
한자가
화소
환국
##인자
##혜의
##교위
##교수로
##HR
##드릴
##위키가
##맨을
##영웅
##란도
##셨고
##염이
##틸렌
사용함으로써
위치했던
가장자리
##가지가
상태와
교육자
운영이
데뷔전에서
계획했다
##도가와
##장으로부터
표현되는
확인한다
활약이
드라마에서
##irus
노선인
나가서
증가하면서
내려가는
제안은
입단해
물리학에서
해결책을
동생이
디자인한
수학적으로
인용된
국무원
죽음이
기후로
선조실록
모리타
의무적으로
동작한다
체제이다
논문으로
가슴을
칼리파
콘스탄티노플
급진적
엔터테인먼트에서
이바노
비주류
아이슬란드의
깨달은
본거지로
저기압이
환상적인
확진자
영산회
베토벤의
general
서귀포
서프랑크의
달콤한
가석방
조선임전보국
2항
3면
B1
Jun
Jones
Main
Nations
Rou
X에
div
관직에서
기인한
끝에는
날조
넘쳐
넘는다
대연
대군
뒷날
리터
문리
바이스
백양
변했다
사적으로
사장은
산성이다
서슴
스맥
신대
안트
압류
양질의
얻어진
예기
오층석탑
왜구를
유미
이더
익사
저축
접미
정황이
종지
차륜
책략
처참
축제가
친러시아
항성을
해리스
행해진다
##손과
##타사
##정하는
##적십자
##색인
##까진
##메탈
##량도
##퍼센
##공영
##남용
##쓰구
##함이다
##열차로
##극단
##감찰
##옹주
##들이고
한국식
해당하지
중심적인
부분군
결과이다
형태이며
사망했으며
방법으로는
000개
##원의원
##스크는
##스타인
활약했고
##대표팀에
기간에는
기관과
비슷하며
싱글의
##시간대
받았습니다
선택하고
떨어지지
표준궤
승리한다
설계가
밝혀냈다
작가들이
소재가
근무하다가
촬영되었다
오스트레일리아와
제정하였다
고구려에
침공해
필리핀에서
창설하였다
1983년부터
1818년
생겨나
이익의
총독이
산맥에서
상륙했다
중학교에
##음악의
##음악을
##조판서로
단계에서는
저서로는
올랐지만
쿠데타가
타이거즈의
일원이다
바이러스성
성질에
골드컵
되찾았다
붙잡아
업데이트를
##진흥원
애플리케이션을
근접한
전동차를
4인조
Books
컨디션이
베오그라
비지니스
하워드는
서광범
부동소수점
OECD
2호선의
5살
7세의
Dance
GUI
IEE
Rap
WP
made
n이
강도가
건전
걸음
것만으로
고부
곡면
구라
금산군
넓다
노는
대안을
던지고
뛰며
메사
모치
못했을
문장으로
반국가
발가락
밝게
백호
보문
보츠와
비서로
서한을
소박한
송나라의
수명을
신춘
싱크
약점을
어부
엘디아
열리기
오보
올버
원수가
원군을
의경
이달
이끼
조를
짐을
체력이
캐럴
크누
퇴학
파올로
풀기
한류
함의
항원
향하게
헤일
호와
회군
##으려면
##리스의
##주기도
##활동은
##중재
##조어
##2m
##코토
##볼넷
##염은
##컴퍼
##델은
##감도
##칼을
사용으로
17개의
##이라고는
중국식
영향도
설립이
의미합니다
운영했다
사망했다고
최고경영
후보자로
전체로
2년에
수행에
실패하자
지상으로
위원장에
가리기
획득에
대구광역시의
시행되고
주민투표
##iform
##iple
여름의
몇몇은
안정화
조금이라도
묘사한다
마드리드가
도서관은
DeNA
출장하였다
무한히
김종직의
녹색당
##ultural
Orch
우에다
세웠다고
700만
해리슨
생기면
신용카드
같아요
에스토니아의
param
뒷받침하는
검정색
Broad
하동군
제21대
핵무기를
우아한
##board
##케라톱스
소용돌이
노골적으로
민주공화당
창덕궁
Freder
엔하위키
Academy
알브레히트
조그만
에스타디오
이따금
6으로
C에
Cin
Nam
WM
here
year
거둘
군위
기뢰
기종을
기운이
내부로
대월
도울
뒤틀
맨틀
문어
백선
버전에
사형이
센티미터
수개월
승자가
심플렉틱
아노
왕건
요지
우암
유임
유수의
이력이
자질
작전에서
장령
주실
주소는
준급
찬송
초고속
출력이
측정을
카스피
투자가
팬아메리칸
품질을
하프라이
항아리
해군과
##연기
##수원
##300
##원조
##상자
##동계
##지우
##산소
##데가
##장에서는
##마리가
##마사가
##마루의
##구아
##차트에서
##VE
##콘은
##윤의
##별의
20세기의
##하기만
기록에서
하는가
1946
여러분의
사망에
의견의
1000년
개최될
정도면
##unch
그룹에서
수행하여
##연구소는
담당했던
태양은
권한의
베이직
제기할
이름으로도
폴란드와
방영하였다
성장할
신문과
자동차가
말씀대로
반복해서
오르기
태평양에
붕괴된
시티와의
어디에서
SBS에서
탈퇴하고
이벤트가
조지아주
선두에
다이묘로
프로듀서인
동반한
유발할
살아남았다
플레밍
양키스의
스트럼을
의병장
성벽을
파운드의
모친은
배려로
다이어그램
헌법재판소
불평등
보라색
해남군
재래식
몬테네그
심포니
내각총리대신
압하지야
앨버타
오영섭
비참한
##아카데미
1량
Ath
Fish
H2
Kon
Lord
Person
version
격납
곳인
과자
광교
괴산군
김구를
놀란
니조
대지를
두르고
들과
뛰었고
레기
말만
매크로
물병
박노
반그림
범어사
베로나
본문의
부혀
부쳐
불상을
산조
살균
상좌
성분은
소장이
숙련된
슬라
신제
신호는
신중한
아밀
안남
안좋
약학
연해
연기에
영연방
요인에
유병
을은
입궁
저마다
조기에
지령
지장이
천부
판교
피노
행성에
행성으로
홀에서
##니로
##도면
##야드
##바트
##안내
##관방
##혁명이
##당했으며
##케고
##두르
##슬라우
##맛이
##참의
일본에서의
그리핀
사이이다
13세기에
연구한다
우승하고
우승하여
결과로서
사망자는
라이센
인정받는
학교이다
그것들은
대전으로
도입할
도쿄를
결혼에
##una
기독교에서
북한군의
소설과
뛰어들
해결될
가수인
##시대부터
1990년에는
의원직을
집합으로
등록한
더불어민주당의
브라질과
##회사이다
디자인에
1987년부터
장기적
보이면서
오르면서
개편을
Marsh
주었다고
조선민주주의인민공화국을
1790년
이성계가
펼쳐졌다
##ECT
서명하였다
편의점
승부조작
가쓰라
잠재적으로
##ronic
공룡의
노태우는
피고인
바그너
미소공
모르겠습니다만
카스티야의
간선도로
깨닫게
수교하였다
찬양하는
억울하게
그만두었다
Pierre
4부
5량
6이닝
Bac
GC
JYP
cr
soc
가용
가우스
강하며
계책을
고노에
관대
구청
근대의
김무
난사
남남
대포를
로메
매국
모더니즘
못하지만
무열
무역이
묻힌
볼때
북부는
생화학
소통을
시편
아센
어워
오쓰
온도에
웨어
위나라의
잉크
잔혹한
전승을
젊고
직각
체계로
치세에
크다는
키하
타자가
토지와
팔았다
한학을
합한
회로의
히우
##가기
##89
##계이다
##세무
##중과
##프레이
##번호가
##배구
##불화
##U는
##공원으로
##Wiki
##쓰지
##셨던
##검의
##냈지만
##먹은
지역에서의
아니하고
생각하기
일부만
일부에서
관련자
참여자
부분일식이다
작품들이
설립자
1918년에
고려말
돌아다니
##민주당과
이동식
##iment
군사들을
##연구를
400년
대체하였다
관리자들이
조사하여
강화에
##교육은
폴란드는
만나러
자치체
남쪽과
등록금
##스테이트
##스토리
##iant
혁명가
혁명과
지명되어
촬영된
KBS2
국방군
알아보기
확보했다
사례도
투입해
근대적인
1609년
선고받은
아나스타
1784년
프로세스를
1618년
장난으로
오다큐
사양하였다
전작의
2루수로
입사했다
라이온즈의
##ways
시초이다
##바흐의
##sche
상경하여
서울중앙지검
익숙하지
갑오개혁
인위적으로
반그림자를
1층에
Corn
Gil
Gun
had
각역
겪으며
고착
고도가
고치는
관우
교서
기단은
녹지
눈길을
느티
대남
도운
동전은
동형이다
명하였다
모드에서
모반을
버니
법원에서
벤츠
병력의
분분
비꼬
사철
사민당
색상을
소리의
신궁
에메랄
원형의
웰링턴
이성을
인조는
재선에
정덕
정준
제자가
지저
짜고
취하였다
페네
피격
하네다
항해를
히포
##니트
##레이다
##제국은
##대사전
##42
##렬하게
##창과
##ju
##cient
##민에게
##SI
##촌을
##줄로
##슈의
##논리
##훈장을
##ores
지역사회
아니었고
영화상
생각되고
포함하면
발표되었으며
방송국에서
지방어항으로
관계도
이유로는
결정되어
중앙선거관리
계획한
##대학교가
유지되는
스페인을
실시되고
보내며
노래에
적용한다
출시되었고
인천공항
메이크
움직이고
자치주
결성해
연기자
다루며
2020년까지
동생은
80여
안정성을
##단체에
홈런은
아카시
선의의
##고속버스터미널
공공연히
기획한
인수하였다
창립한
북동쪽에
네트워크에서
Blood
의회와
워싱턴주
1613년
만들고자
단위이다
재개했다
청주시의
##reek
콘스탄티노스
운반하는
흥선대원군
##인사이드
Record
상반된
남원시
짐작할
DDR
종업원
과테말
##공무원으로
우루과이의
소작농
동두천
과달카
후쿠치야마
California
44년
4세와
6집
C를
Cur
Lud
Squ
les
lev
걸러
경로가
고경
광경을
교구의
극찬
늘리기
담을
따위
말살
문양이
미약
방의
배차
복구를
부쿠
뿐이고
사천시
석기
술라
심은
알케
엄지
유물을
인치
인종의
일월
임명을
자취
재미를
줄로
체임
최승
축전
칭호는
캐스터
티타
파탄
편하게
한랭
항문
항성이
홍주
##학파의
##ria
##41
##어한다
##발레
##우파
##상륙
##yg
##설비
##장에는
##었는지
##입한
##등장
##터우
##법원의
##유닛
##탄병
##벨라
##저항
##셔의
##1년까지
때문인
것이란
다시한번
사회에서는
##시키기로
요청해
1일의
239
1900년에
라이딩
따르며
반대표를
생산하기
연결한
##iva
과학을
##드리겠습니다
떨어지게
방문했을
##angel
주민은
대응이
발달을
바뀌었으며
준비에
반란으로
그해의
연주했다
##연합은
신설되어
동료였던
대립하고
부인했다
창설한
인공적으로
개신교의
##onder
체계이다
사법시험에
탄압으로
세월을
로드아일랜드
토벌을
고교생
신사임
블로그를
교향악단
장갑을
엔터테인먼트가
##산맥의
견제하기
표방하는
나섰고
오로치
그레이트브리튼
변증법적
신숙주
tvN
벤자민
일찌감치
46년
7이닝
Fact
Ges
LL
M3
Never
RCA
Ross
Tay
가사로
강계
경국
공교
끝내는
늘어서
대운
동상이
되지는
뒤쪽에
리턴
모형의
목의
무난
박제
반이
배추
법령에
벤제
변천
부룬
북군
사사로
사당을
색채가
서역
서류를
선산
성교
세단
소드
쇼군의
스켈
안되어
않겠
양성에
엄밀한
연남
연면적
요도
이겼
자명한
저속
접대
진왕
찍혀
찾으러
초성
츠쿠
태도와
통로가
특사로
퍼블리
품질이
한나라의
핵폭탄
행적이
흡사한
##아사
##클랜드
##대어
##송의
##달팽
##래는
##시엔
##금취
##53
##플러는
##읍으로
##블러
##막으로
##푸드
18세의
존재와
제작의
사건들을
방법론
활약하여
철도에
영어에서
사상가
부족에
##정부와
언급되었다
판단합니다
조사하는
후반과
해결해야
5000m
직후에는
물질과
야마우치
작가이자
활용하고
하루는
만약에
오후에
IP가
나타나는데
미사일의
유대인의
알아냈다
독자적
1504년
보여주기
업무의
고향에서
1816년
한반도를
반영되어
1783년
개조되었다
돌아가고
트랜잭
비상대책
명명하였다
##베르크는
접속이
침해하는
변신한
공원이다
교차하는
습격하여
정치인이자
조항은
거둔다
뛰어나고
스파르타의
미즈노
항소심
경시청
사당이다
안중근
뛰어넘는
겨냥한
카보베르
##편찬위원회
북마케도니아
1이다
5골을
999
GH
Ki
Poly
R가
maint
공천을
교지
구절
군수를
나로
낙후
대세
돌리
로동
모니다
목은
미움을
민다
밝힌다
밤이
방언을
버나드
변수에
볼프스
부리는
삼성의
상어
성탄
수발
수군을
스물
신수
에테르
우생
우표
위시
윌슨은
잡지를
장비는
적들을
조산
줄리언
지낸다
집회가
출고
카도
코메
크나
폭동이
함양군
해온
활기를
후천
##GS
##버전
##카운트
##이프
##화되었고
##세나
##yoon
##진하면서
##장관으로
##ken
##종사
##막한
##war
##하기보다는
##라고는
1953
공격에서
공격하자
자유로이
고려하고
요청했고
1906년에
보고된
배우를
발전하는
마지막까지
대전광역시의
지하로
선정하는
산업에서
요시오
##abeth
##km2이다
물질이다
크리스티아
살아온
프레디
전환하였다
기사이다
안전성
불러왔다
Arthur
공급하고
##기업의
조선민주주의인민공화국에서는
1608년
##차례나
끝나게
식물과
달라서
조합하여
##조사위원회
1788년
전철역이다
진입했다
조선총독부가
향상되었다
로스앤젤레스의
시청률이다
도전하는
정교회는
선두를
격파했다
STX
##isco
개명되었다
토착종으로
자전거를
##글라트
이글스
스핀오프
거행되었다
평창군
모하메드
안성시
상록수
Access
Awards
로런츠
정3품
##합플레이야
막론하고
0x
4남
DP
Full
HY
life
가비
공원의
기거
기회에
꼬리가
끝은
내림
니치
대호
대홍
도체
동으로
로스토
마리를
명실
모로나
벌이게
베트
부계
불화로
성당을
시전
아실
유모
음극
인기에
재수
줄은
중문
지장을
지름은
질문은
코디
콘라
테드
하겠다는
허무
헤타
##다이나
##L을
##아들인
##인력
##사들의
##계몽
##해달라는
##법원에
##삼성
##디스는
##웰스
##높이
##냐에
##쉬르
##엑스
##했다며
자신감을
1943년에
연구소를
일반에
등장할
중요하지
intern
운동량
##iga
만들어질
야구장에서
형성하게
보호관찰
지도에
사상자를
근거도
선정되기도
비교를
공산당과
표준은
육군과
경험했다
국가대표팀이
##나무이다
야마시타
보도된
전달할
삼국사
기억하고
태어났다고
Environment
찬성표를
신인상을
Dead
항목으로
1777년
희생된
540
망명하여
고문서
후계자인
시위대가
펼쳐진다
모임은
##기념사업
두려움
##네이터
통계청
노스웨스트
노무현은
모터쇼에서
##하셨는데
트위터를
구로구
보좌관
##ublished
임시정부가
벗어나는
싶어하는
왜곡된
교외의
MLS
##방위군
Software
감안하여
하비에르
페니키아
셰익스피어의
TNm
프로방스
프로페셔널
압수수색
IEEE
1위가
3상
5위에
5위로
6억
6세가
Bir
Rub
Side
match
각룡
거문
공주를
교조
구름이
기세를
길림
남인의
논문에
당명을
동전을
라리가
무기가
묻어
배위
버트
사견
살린
성찰
세상이
소성
신발을
실력은
아자이
영역이다
오베르
이춘
이교도
인연
전역으로
지문
지름이
진동을
집회에
차원이
최선
충고
측면의
커스
파커
한밤
핵산
확장에
회견
##GP
##손이며
##수신
##명에게
##방식이
##촉성
##절제
##관보
##오온
##번에서
##500
##유에
##공간의
##팅은
##총서
##캐나다
##빛의
##슈트
##블록
##춘다
##샤가
##묘의
미국식
만들면서
알려드립니다
방송된다
부분에서는
설립하는
발매될
차단하고
성공적
후보생
##머니즘
상대인
연합국의
##osph
차량기
지도자들이
선택의
km이다
제안되었다
사진에
작곡된
작곡하고
잉글랜드를
주도적으로
성장하여
1989년에는
IP사용
고종에게
입학해
훼손하는
승격에
1800년대
star
협력해
기계화
1607년
후지타
##ugg
수출을
빼앗기고
동아일보사
진화한
부하를
플라톤의
콘스탄틴
음식점
white
조선일보는
##azz
장르로
날짜가
지목된
연애를
참모총
보인다는
입문한
어울려
축하하는
교도소
엔지니
수에즈
통영시
중견수
오카야마현
SVN
동급생
Program
배타적
문교부
신간회
##해수욕
노컷뉴스
스맥다운
2명은
2위의
39년
7km
9천
Sav
nu
공저
국고
기행
기후의
나한
넓혔다
디버
로미
무브
미치고
박창
베르트
본국으로
비누
생물을
서포트
섭외
세뇌
시아파
열정
예식
오펜
왕자가
윈저
자에
재산의
정창
지멘
차의
천일
통증으로
한독
홍범
##가구
##과가
##교회를
##하드
##부인의
##lar
##진리
##람은
##bs
##C를
##BT
##권력
##킨의
##채권
##SQL
##률과
##FTA
##갔다고
##쪽을
##넷의
##컨트리
20m
##anth
한국학
기록의
##lem
##aces
대회부터
개인과
비판한다
대전시
평가도
다이오
지지자
지휘하고
3년에
그림에서
획득하고
작업의
바탕이
시행했다
분석했다
대응하고
1990년까지
35분
미사일이
투수인
보존된
의해서만
종목의
서식하며
폭발을
감소했다
강제적으로
후손이다
진보신
판결했다
스크롤
6년간
높아진다
성적에
처벌하는
인지도가
example
함락시켰다
1455년
탐사선
철수하였다
기재된
웨이브
인텔리
##형태로
베네수엘라의
재혼하였다
선구자
베니토
생겼으며
상처가
##minist
재해석
아와지
아랍에미리
리서치에서
MiG
Department
마운틴
보니파시오
정묘호
3R
4경기에
Eric
가치의
기체는
낙원
내슈
님과
단번에
도표
동률
뜻이며
레게
멘토
방어진
복건
분란을
비추
상봉
서간
서품
순응
숫자의
아방
야오
에토
영적인
원고를
원료로
윤정
율법
이충
이행을
이목을
일요
적개
종북
죽이기
지경
천국
코마
테트라
토우
팔각
하랄
할때
향을
형조판서
휘둘
##대에는
##주었고
##그를
##do
##소문
##위키는
##양식을
##입하여
##들지
##N은
##후원
##려던
##삼각
##병원으로
##wan
##돈과
##풍과
한국외국어
조선조
선수단의
이상과
##들과도
사실의
독립과
222
성공하고
아래쪽에
활약하던
기관차를
##rier
최근까지
시민들을
아무튼
해결에
네덜란드가
##교육에
작용할
충돌은
구단으로부터
문학은
##cm에
##생활의
38도
아우토
##받아야
영입한
에드먼드
성우가
##ended
Count
보장하고
지켜본
동작구
연산군의
승인되었다
진압하기
생존을
근본주의
문헌에서
1580년
모임에서
브루노
연예계
1644년
진학하였다
영구적으로
제이미
당나라에
탑승한
3번째기사
득표율
머무르고
전례가
관현악단
upd
Series
모르겠으나
하원의원
책록되었다
세브란스
한국민족문화대
memory
##ividual
파르티잔
5이닝
6시간
A로
human
mil
power
게양
경부터
계란
고독
교리에
권력과
기조
기틀을
도구가
독을
라면서
롬멜
반에
발판을
보두
복고
빨치산
사면을
서부와
센서를
소장은
수학자이다
실적을
알타이
야노
여론의
와일
왜구
용품
월화
의전
의창
임산
장서
전재
주종
철광
코미
키미는
탈주
티셔
팀에게
팬들과
향이
허셜
##자루
##회관에서
##행사를
##4m
##bi
##멘토
##쳤다는
##갔을
1944년에
사회로
30세
시간표
##chen
제공을
##리고자
이야기와
##ema
졸업했고
노선도
선택되었다
조사하기
스페인어로
##apy
방문한다
세포에서
발달하지
##elli
슈퍼리그의
당선되었고
계승하고
되돌릴
전개하고
장애물
남동쪽에
구축하는
전차와
1594년
마법소녀
오토마
스피커
##경찰청
대수다양
제어할
진입할
빼앗았다
바라보고
향상시키는
그때부터
실현하기
한일합
1617년
600명
장비와
브루나이
##부대신
남겨두고
최우선
알고리즘의
무관심
약탈을
트럼프는
부처가
부흥을
쫓겨나
지폐는
깨달았다
강수량은
관악구
아라곤의
Japanese
아인슈타인의
근래에
사생아
허위사실
Republic
궁수자리
##오온론
CW
Riding
감정에
과제로
금이
기전
기무라
꽃의
내전으로
대문에
더러운
라코
만과
먹기
문란
물색
민국
반송
배열을
사부
사담
살지
생육
성숙한
소고
수소와
신무
쓰이기
안두
여지
열역학
영해
위정
유로를
이카
이사가
이단으로
인맥
일례로
입출
입학을
입당하였다
작성을
잘게
전량
진천군
총격을
탄력
트레인
피부에
필적
학자들
황하
##다노
##자와의
##기구를
##협조
##회도
##이츠
##여를
##주셨으면
##TER
##하스
##프니
##cer
##ban
##되기는
##입은
##공유
##광주
##천왕
##폭이
##항과
##째를
##투의
##병원에
##매시
##onia
##2년까지
##iner
때문이며
선수다
발견되었는데
##남도공고
대신할
있는데도
##대표로
생활에서
발전한다
학생운동
##osa
언어인
야구에서
전문의
공연의
한국어에서
사진으로
표준어
1991년까지
##ify
개막전에
미래창조과학
에이브러
청나라와
이뤄져
이성애
진압하고
망명하였다
배출가스
지시한
로켓은
계통이
구입하여
김대중이
신고식을
임무에
양쪽의
다리이다
들여다
미네랄
플루오린
시칠리아의
수컷이
유죄를
윤휴는
디오니
극대화
제퍼슨은
신익희는
모른다고
##ischen
적법한
본작에서는
에마누엘
조나단
속씨식물
아르키메
부쿠레슈
Bib
TM
Wood
squ
값이다
개천
구시
길버트
나포
나에게
네발
닉네임
다원
달린다
대내
되기로
리카
망상
명랑
모음이
목화
박문
반투
변칙
봉천
붙게
블렌
사르트
산투스
상감
설정에
소치
숲에
신디
실물
심슨
약화되었다
양손
어기고
오귀
올렸으며
왕에
이간
일산화
자에게
장호
장구
전각
정략
제석
주제와
천공
초가
패터
항구에
핵연료
형조
혼수
##G의
##방식의
##MHz
##하죠
##파르트
##부장으로
##상황을
##보적인
##르겐
##바탕
##kins
##나잇
##유통
##려진
##너리
##쓰나
##판결
##질서를
##욱을
##홍이
##묘를
##들이는
그리드
1949
문제인
주장했지만
정부조직
감독으로서
1939
축구는
계속되었고
216
요청하여
이미지와
계획하였다
기원하는
##athan
##iven
공동묘
##agn
브라흐
50대
어린이를
단체들은
##인데요
주의가
점령하는
추진할
해결해
작업으로
폐지되면서
60만
있지요
결합이
##스키와
책임자로
아우크스
득점왕에
주교좌
진보신당
신앙에
차별이
1820년
플라즈마
소송에서
문재인은
법정에서
화합물을
구성원들이
오디션에
외계인
실종된
명성황후의
해임되었다
멸종위기
시나리오를
대관식을
소지하고
함유하고
안드레아스
common
죽이려고
니코니코
##기본법
레오폴트
판의금
규합하여
무수히
changes
어시스턴
4할
43년
A형
Det
Fair
IUC
OL
TT
n차원
구토
구치
규약
김삼
대화가
동체
루프트
르베
미그
미크로
미묘한
반의
밝기
북해
불길
사노
사단을
소연
스가
쓰거나
아탈
알릴
영은
오에
욕망을
우리를
윤종
이럴
장방
점프를
조는
족과
좋지만
중력을
침전
카밀
케네스
코먼
쿠마
클론
태운
태자로
테츠
패권
페티
표지를
하숙
학자들의
행주
향하였다
호조를
황자
황후의
##니커
##사상의
##본부가
##협은
##토기
##여름
##여부를
##MBC
##내에서는
##봉으로
##활동과
##시어
##시우스
##메의
##장갑
##노선을
##해볼
##민족의
##공포
##웅이
##쓰네
##복으로
##벌은
##총연맹
##냈는데
시작하면
그러니
것이어서
현재로서는
문서이다
하나님이
에서부터
아니나
이상재
대학살
발매되어
정보화
변경으로
스타로
연결되고
개최한다
운행할
공개하는
활약하면서
발전으로
평가에
환경은
환경적
공연한
TV를
헌법과
분리해
표준이
정신적으로
시행에
시행령
준비하였다
시도하였으나
계열이
노력한다
##롭게도
IP는
제5차
관측이
시각에서
확보하였다
묘사하였다
동의하였다
##세이브
창립되었다
아름답게
합격했다
지키게
리더로
상륙하여
1829년
국경에서
변환을
##eball
연예계에
재개하였다
일어났는데
첫째는
행렬을
보냈으나
간접적인
존중하는
제12대
공의회에서
개관한
부사장
##stitution
대관구
지옥의
Model
과반수
블랙홀의
중퇴하고
꼭대기에
프록시
능가하는
불충분
추세이다
시마네현
아이스크림
##보호관찰소
프로레슬링선수다
불특정
##익산지방국토관리청공고
4라운드
7의
Culture
Eug
Lady
file
method
감명을
계주
고니시
곡선의
근대에
급식
김전
끝의
논문의
더듬
라운
리아
묻는다
밤하늘
배웠으며
변명
병참
비만
사표를
선명한
수제
수훈
습지
앙주
양궁
연승
영인
영지로
욕을
위트레
윤상
응집
이응
이스타
장벽을
전우
전업
젠더
줄였다
지낼
지으며
진은
청중
청양
초라
총신
치기
카파
칸국의
켈빈
톱니
풀고
피지
하이라
한신의
항아
행적은
후학
##아지는
##교향
##야스는
##경향
##03
##08
##조건을
##호에게
##구역으로
##작에
##공사에서
##케를
##복싱
##닝은
##밥을
##매기
##놓을
10명이
사람이라고
도시들은
참여하기도
301
##edd
문화적인
선거관리
고려로
상태였고
중앙집행
232
차단합니다
##대학교로
확인해보
2017년에는
부산으로
자연에
결혼해
여자와
이적료로
이르며
지배하였다
##istics
지휘하였다
언급은
Inn
뛰어났
추진해
반응하는
표준FM
승리할
표기된
네덜란드를
대구시
육군본부
확장하는
시행을
크리스털
##스티스
발행했다
출생했다
마련하는
홈런으로
##TV는
집단적
KBS의
설정하는
어렵지
이루어져있다
이슬람교의
채널로
청년들이
##아버지인
누구인지
형제와
남서쪽에
##시설로
포위하고
1584년
이혼한
감정적으로
Express
ATS
통계적
심리학자
에르빈
거느린
구성원들은
시게루
생애에
using
없애기
석사학위를
초상화를
모으기
##분야에서
관광객들이
카나리아
리치먼드
Security
배속되어
무언가
model
다윈의
노바스코
창씨개명
되돌리기를
Wilhelm
국립국어원
로타링
Operation
매트릭스
민주정의당
센타우루스자리
아우크스부르크
0번대
7인
Our
Pu
Sign
X선
direct
fre
mi
war
가곡
각급
감형
갑술
검교
견고한
고금
군무
기년
기나
긴장이
낙천
너의
논증
눈여겨
뉴스와
느지는
다분
당하기도
동질
띠게
런타임
마네
말하지만
맡았지만
모르게
무스타
물적
반한
방이
변함이
비워
비트를
빙의
상회
서커스
실드
알렌
알데
약자로
엄중
에일리
엔트리
예테
왜구의
우위에
위원에
일하다가
저승
종에
주기는
중년
컨트
터를
특색을
판도
평이
프롬
학급
학문이
행할
헤일로
호에
##합에
##수이
##iph
##자리로
##학회의
##비엔
##트나
##부사가
##경주
##무니
##내게
##동산
##산책
##조례
##론자들은
##바에서
##오빠
##ICA
##불과
##RO
##케르
##삼거리
##필로
##젠의
##ories
국가인권
##ising
문화일보
253
1913년에
독립유공
##rog
212
운영체제
최고위
민주통합당
##aders
삭제될
공동체는
항공과
건물에서
노선에서
이해와
통합하는
지휘관으로
클럽과
물리학의
표준시
세포로
1996년까지
법률적
1994년까지
만나지
해석한
불교와
주도하고
제목과
파괴를
동물과
##사업은
인식할
집단에서
건너간
재직하면서
홍콩에
시내를
##산업이
점차적으로
마드리드와
1592
간주되는
파악한
##바르드
1785년
백작이
지급하는
탈출을
##보호법
exper
아라키
자극에
무덤은
화합물의
벼슬이
축소되었다
싸우다가
Centre
개장한
알레산드로
클로즈
샌프란시스코에서
캠퍼스는
줄어든다
##SPA
불확실한
GSL
없었기에
집착하는
맞춤법
스킬을
원활하게
acid
Ill
탄수화
뉴클레오타이드
니카라과
Deutsch
충숙왕
도깨비
4권
48년
Say
UFC
h의
nm
section
같음
과열
기함
기호가
낙농
돌보는
두어야
등과의
리코
린드
마마
마쿠
마우리
묘지에
민의원
배격
변종
복숭
비르
비현실
산학
산토
선주
소금을
신사의
아스테
앙투아
여길
예상을
외화
원예
위도
의구
이주를
일약
일련
재심
재키
전극
점에서는
좋았다
준수한
중진
찍는
판으로
평산
포물
풍산
하이에
학자인
회견을
히라가
##출혈
##리에게
##방식으로
##여단은
##어업
##하든
##통으로
##한과
##록이
##퍼와
##랑과
##불탱
##공급
##벽은
##살때
##잡을
##탑의
##헤임
##강하
##랐고
20억
일본에서도
##ening
조선인의
서울시의
25km
의미있는
우승하면서
221
계획되었다
방법에는
변경백
##uri
이동하면서
제국으로
진출입
제3조
민족이다
연방의회
주민을
자치구의
유래가
크리스천
취임하면서
패배해
체포되었고
편성하여
##인트호
설정으로
저장성
##자치단체
한글을
##199
장착하고
포기하지
1774년
베를린에
개설되었다
침입한
관여한다
감시하는
시조인
##aily
##kg이다
프랭클
파티를
French
동아시아의
한미연합
Systems
광해군의
머리카락을
페미니스트
Military
후유증으로
비스마르크는
##공립보통학교
이례적인
분홍색
시트르산
##커뮤니케이션
볼프스부르크
Chem
Iss
Lie
POP
beg
n개의
가봉
거죠
결속
교주
구호를
기법이다
남성을
내밀
데니
도용
도읍을
람보
말했고
모러
문단은
미남
반주
백토
범어
벨리즈
부호를
붙는다
사동
세대를
수프
스더
에프
역모
위대
이이의
저자가
전영
전기가
중장으로
찍힌
차명
척을
철원군
청천
총사
컴포
타로
특례
판사는
학장
핵을
호른
화가이다
황건
휘문
##아졌다
##버스에
##자라
##대우
##대칭
##사거리
##타로의
##g이다
##여진
##화상
##분들이
##신탁
##소프
##위험
##요와
##R의
##모모
##판인
##V는
##필은
##언에
##홍보
##충청
##셰스
##들이며
##atab
1940
##olas
시즌에도
감독하는
감독으로부터
존재해
공격적
참여하기
사실도
작품도
국민회의
출전하게
반대한다
생산되고
##시켰지만
졸업하였으며
##aga
시작했다고
50주년
##erse
그래프의
역임하였으며
멤버들
아직까지도
도로에
아무르
강화되었다
요시미쓰
접근하기
체결을
말씀이
둘러보기
투수이다
집중하고
조각가
유형이
위반을
조정하는
엔진에
국회의원이다
검사관
금융감독
대표팀은
조합한
서버는
연산자
##조직인
진압에
7년간
국정감
등재되었다
부하로
아라카와
게시판에
프라이부르크
마주보고
역사가들은
클레어
버튼이
촉구하였다
나이트클럽
Guide
외곽에
있으면서도
루스벨트
구마모토현
평균자책점을
애틀랜틱
글루타
장흥군
프레데리크
로페스
노르트라인
와중에도
캐나다는
##박람회
Budd
가파른
Western
안트베르
3층의
Ah
E3
ft
각도
권역
금오
낳게
달하며
델리
들면서
라이스
모지
별동
봉해
사족
선취
성문을
쇄도
수탈
순흥
심히
쓸모
연장은
용으로
용감한
이기도
인류를
일들이
일치를
있자
자청
자들은
저소득
전립
전문화
절멸
주관으로
중부와
천둥
체리
촌이
카트리
카오스
탈당한
편지에서
표가
하양
하타케
한도
한용
해서는
후송
후카
##아문
##수비
##대동
##학원을
##비판
##3동
##원도
##우드는
##성단
##베의
##직업
##프에게
##호리
##노래
##오기도
##었음을
##태양
##불좌상
##패는
##코트
##히기도
##즈네
##콘의
##엽이
##못해
##격은
##칼로
1100
##리아누스
것이었으나
16세는
문서인
문서에도
토론란
255
시간대를
결정으로
등장은
편집으로
러시아와의
발매가
데뷔작
돌아왔고
##sto
연결되었다
##agan
생활하였다
현대캐피탈
##ando
최종적인
국회의원의
친구들을
대중문화
파일로
위해서도
작용은
참석해
나카모리
확정했다
1811년
태어났으나
행위와
대표팀을
아메리카에서
1824년
1822년
진입한
부하인
목소리는
1762년
이승만에게
방지하는
탐사선은
총재로
티베트의
##거래소
위상수
Season
개명했다
지목되어
근육이
Force
레이다를
두려워하여
Andre
테오도시
양키스
합법적으로
손상된
미소공동
소실되었다
트루먼
칭찬을
독단적으로
갈래로
인테리어
그랑프리에서
베컴은
재조명
양기탁
NuvieK
2편
7위
Eth
Fant
Wash
h로
ll
table
각하
고생물
궤도로
기르
남니다
다리우스
마실
먹이는
믿음이
백석
보였던
부와
분리를
불발
불쌍
뽑혀
서베를린
셋쓰
소원을
수장인
숲이
시점으로
신학과
실명을
에비
엔비
역량
연접
엽록
왕후
의의
익힌
인왕
조너
존스는
지울
츠카
칭다오
커브
코딩
토드
틀에서
학제
해탈
형상이
혜성의
##티늄
##수배
##리팩
##her
##대신으로
##인가를
##문서의
##보쿠
##시르
##르니아
##응행
##ji
##건호
##7의
##식인
##속이다
##란타
##복실
##침해
##죄에
##둔다
##샤르
대한예수교장로회
12번째
##inae
경기들에서
사이에도
있었다면
영화관
처음이었다
도시로서
##니아를
문화대
설치되고
출연했고
생산성
##ads
평가되었다
제32
도입으로
이적이
수상하며
현대화
collect
찾아온다
통합이
지휘하에
##rial
##방송에서
강화했다
명령어를
해결이
규정한다
슈퍼주
소재지
이집트와
미디어의
국무부
감소한다
농업의
390
네이티브
부활의
박사학위
보장하기
조선의용
출범했다
전공으로
프로세서는
##축구대회
나왔다고
후원하는
작동하지
결의안을
소프트웨어로
16강에서
대칭을
비공식적인
ASC
대두되었다
##PGA
하마마쓰
조계종
눈치채
Idh085
후베이성
금환일식이다
금환일식은
까다로운
도시형버스
꼭두각시
식료품
슈바르츠
3가
3국
Ban
Gre
M은
MHz
NCA
가꾸
간부로
강당
결성에
경사가
경력에
공해
공식을
그쳐
깨우
단파
달성에
더럽
돌았다
때이다
로보
마유
무형문화재
바하마
버틀러
별장
비탈
삼양
소란
속성은
식은
신화를
안평
이대로
이스터
입었으며
재정의
적벽
전권을
좋겠다
죄책
주자의
지식은
커뷰
특성과
파스타
판사를
팔이
패닉
했으면
협의회
##는다는
##버릴
##사원
##토크
##site
##부사에
##경기로
##분배
##체제가
##물들이
##바디
##소설을
##뉴는
##추얼
##만세
##들기
##변은
##판관
##틀리는
##촌이
##때의
##랜즈
##강연
##누스와
축구에
토론란을
이전보다
##자로써
의미도
그것으로
발전할
2017년부터
제3자
선택하였다
목표에
표기법에
통과해
일어나기도
회의에서는
발행하고
남북국
해외의
마련하기
기억에
현실과
오르간
state
채널인
겨울철
효율을
정비되어
사법시험
1980년대부터
아카데미에서
등급으로
기소되어
##기념장을
구글의
국토교통부
서울시장
표제어가
줄어들어
약칭은
##ailable
사립학교
포스트모
수감되었다
요금은
비서관
주거지
두려워한
계곡에
control
민속문화재
교외에
미얀마의
TOK
2인조
테일러는
우울증
종착역
보류보류
대명사
2칸의
토크쇼
페니실
독단적인
매카트니는
Document
하이드록시
2장
Fi
License
Mah
가하고
가계는
강정
같게
격노
경주를
구를
권익을
깨어나
나자
나선은
노먼
데인
동떨
딸이며
뛰었으며
랜디
맡았으나
모라이
무속
박광
박혀
받도록
배럴
번번이
베로
보국
분께서
사원의
손잡이
아로
아달
에우리
연명
염오
오메
유적이다
이천시
임피
장동
접종
정복을
중기에
질환을
천인
총장으로
친형
커지는
키운
탈수소
토후
폐단을
폐허가
하디
향수
현지에
혜택
효용
##다라
##리도
##학회는
##serv
##트러
##신다면
##물산
##론적으로
##바이를
##크루
##책임을
##받았던
##차원의
##함수는
##삼의
##플루
##플랜
##워크
시작하였는데
한국에서도
알려졌고
기준으로는
의미했다
독립에
##rox
다양성
성공시키며
의견입니다
올림픽은
개인전
요구로
요구했고
##시켰던
배우게
수상하였고
영어판의
사고와
판매되는
획득한다
특수기능
방영했다
허용되는
보도자료
종합적인
시청자들의
책임지고
탑재하여
마사토
침공한
남편은
MBC의
마리아를
달라지는
프란시스
부하가
##계획이
기울어
갈라파
무덤이다
1960년대부터
풍부하게
##기념관
뉴질랜드에서
속해있는
유키오
##청년단
선두차
나타내었다
혼인하여
바르셀로나의
보좌하는
김포시
중재위원이
리스트에
support
정사각
백과사전을
칼리지에서
##anguages
고체연료
봉안되어
크롬웰
구스타브
키르케고
팔작지붕이다
에픽하
##끄럽게
second
카리스마
국가재건
2기의
Ho
Mk
Number
many
sy
고증
고리의
과감한
교상
군세를
군인들을
근신
끊었다
내버려
다의
단위가
당직
당병
등지를
로즈는
리버스
린다
마고
먹었다
미사를
바예
바라고
반짝
법이다
병영
사신이
생부
세련
소명
숙의
아커
압구
양방향
없군요
예배를
옷주
왕녀
요소와
울음
원형이
유타카
인종이
잘생
재조합
저렇게
전설을
제논
준다고
중입니다
증세를
지진을
진학을
진화에
총회에
타기
타진
태국에서
폐업
피닉
하서
하일
하시면
한명이
##리움
##대사로
##과학의
##카에서
##달과
##전당
##하트
##내서
##uce
##추게
##던지기
##각본을
##품이다
##돌의
##피와
##3년부터
것이었지만
활동해
활동적인
위키데이
처음의
제1야
발표됐다
##이지가
발생시키는
의미에
선거권
운영할
26개
실시를
학교에서는
##agen
제33
지휘권을
떨어졌고
가족에게
정당에
논란으로
##프로이센
제46
준비해
발행하였다
주인공이다
소재하고
동생을
위험성을
##ours
계승하는
시작되었다고
##mm의
네트워크는
##seud
Arn
##정책이
창설했다
제6차
여행하는
간주되고
하늘과
롯데월드
부활한
##전문가
금속으로
거래가
해산되었다
출장해
후계자를
오페라의
후기성도
개국한
트랙이
정교하게
1674년
1660년
창당하였다
노스다코타
예외로
착용하는
보냈지만
생기면서
Century
##ilding
근육의
부착된
계곡의
축제이다
외야수로
투옥되었다
통행할
농림축산
저질러
아키타현
연희전문학교
여우조연
미완료
즐거움을
TCP
유망주
평탄한
포츠담
개기일식은
머니투데이
데이터베이스를
Empire
Stephen
2골
F1
Future
KM
found
less
sw
가린다
계비
골득
광릉
구면
금석
난립
남문
다람
당나라는
대기를
도보
도노
동시대의
두목
류자
말초
말버러
명량
몬티
무제는
민정당
범인을
법치
보위
북으로
불황
상이한
설파
쇄국
스로
스펠
스콜라
승점을
시화
시동
시메
신덕
신부의
악곡
야망을
어용
엘레오
용역
우림
인디아
일소
작지만
잘하는
전자와
정원에
제어를
조양
주공
지형은
천체는
체신
추격을
취지
캐머
판사에
패치
필명으로
항전
후렴
##청원
##기리
##클렌
##과목
##타시
##동국
##zen
##진하며
##건조
##오다가
##함대의
##셀라
##덴의
##S를
##머리가
##링과
##퇴를
##ined
##orial
##aly
활동가
##olo
문화적으로
##ece
운행했다
##대학과
##emin
대학교이다
평가할
부산국제
보호에
보호가
공간인
##연구소에서
작성해
기독교에
증가시키는
효과로
19일에는
실제적인
시행할
허용했다
소개한다
비밀의
옮겨갔다
근무했고
관측한
개편되면서
비난이
1973년부터
캘리포니아의
orange
1970년부터
출입구는
757년
하드코어
1827년
김정일의
장식된
구현할
그레미
간행하였다
##혁명군
쓰여졌다
고속도로를
대선후보
구글은
Plat
일원이었다
6개월간
타임즈
##INE
사기꾼
라이벌인
송시열을
크라쿠
들어오지
흐름은
운항하고
England
메디컬
상영되었다
1루수로
이글스의
캠퍼스를
카탈로그
출토되었다
리메이크한
집계되었다
글루코
연수구
화엄경
소극적인
등번호를
return
Division
한마디로
에히메현
E2
Jos
가택
갔는데
강진군
곽상
권1
낙인
낙성
닛타
대선을
대패를
두었던
라지
라모
루치아
마두
메구
메두
묘를
무수한
발키
벌이
비몸
사구
성씨를
시장과
시조가
신하가
앙코르
없자
없기에
없었을
영안
예명을
용도에
임페
자급
재산이
전령
전집
전례를
제과
중력이
증상으로
창춘
총장이
카브레
크라스노
페인트
함재
향유
화석은
##니에서
##제트
##스이
##1로
##tm
##행위는
##정치의
##게니
##계정
##통치를
##신사
##세였다
##데스가
##추가
##들만이
##터베리
##UP
##함대는
##집중
##병사
##하였으니
18개월
시작이
사이키
1958
##ouch
제작해
발표되었고
수도회
요청하고
타이타
돌아가지
변경은
인물이며
학교인
[...]
